{
  "version": "1.0",
  "truncation": null,
  "padding": null,
  "added_tokens": [
    {
      "id": 0,
      "content": "[SOS]",
      "single_word": false,
      "lstrip": false,
      "rstrip": false,
      "normalized": false,
      "special": true
    },
    {
      "id": 1,
      "content": "[EOS]",
      "single_word": false,
      "lstrip": false,
      "rstrip": false,
      "normalized": false,
      "special": true
    },
    {
      "id": 2,
      "content": "[PAD]",
      "single_word": false,
      "lstrip": false,
      "rstrip": false,
      "normalized": false,
      "special": true
    },
    {
      "id": 3,
      "content": "[UNK]",
      "single_word": false,
      "lstrip": false,
      "rstrip": false,
      "normalized": false,
      "special": true
    }
  ],
  "normalizer": null,
  "pre_tokenizer": null,
  "post_processor": {
    "type": "TemplateProcessing",
    "single": [
      {
        "SpecialToken": {
          "id": "[SOS]",
          "type_id": 0
        }
      },
      {
        "Sequence": {
          "id": "A",
          "type_id": 0
        }
      },
      {
        "SpecialToken": {
          "id": "[EOS]",
          "type_id": 0
        }
      }
    ],
    "pair": [
      {
        "Sequence": {
          "id": "A",
          "type_id": 0
        }
      },
      {
        "Sequence": {
          "id": "B",
          "type_id": 1
        }
      }
    ],
    "special_tokens": {
      "[EOS]": {
        "id": "[EOS]",
        "ids": [
          1
        ],
        "tokens": [
          "[EOS]"
        ]
      },
      "[SOS]": {
        "id": "[SOS]",
        "ids": [
          0
        ],
        "tokens": [
          "[SOS]"
        ]
      }
    }
  },
  "decoder": null,
  "model": {
    "type": "BPE",
    "dropout": null,
    "unk_token": "[UNK]",
    "continuing_subword_prefix": null,
    "end_of_word_suffix": null,
    "fuse_unk": false,
    "byte_fallback": false,
    "ignore_merges": false,
    "vocab": {
      "[SOS]": 0,
      "[EOS]": 1,
      "[PAD]": 2,
      "[UNK]": 3,
      " ": 4,
      "!": 5,
      "\"": 6,
      "%": 7,
      "'": 8,
      "(": 9,
      ")": 10,
      ",": 11,
      "-": 12,
      ".": 13,
      "/": 14,
      "0": 15,
      "1": 16,
      "2": 17,
      "3": 18,
      "4": 19,
      "5": 20,
      "6": 21,
      "7": 22,
      "8": 23,
      "9": 24,
      ":": 25,
      ";": 26,
      "?": 27,
      "@": 28,
      "_": 29,
      "`": 30,
      "a": 31,
      "b": 32,
      "c": 33,
      "d": 34,
      "e": 35,
      "f": 36,
      "g": 37,
      "h": 38,
      "i": 39,
      "j": 40,
      "k": 41,
      "l": 42,
      "m": 43,
      "n": 44,
      "o": 45,
      "p": 46,
      "q": 47,
      "r": 48,
      "s": 49,
      "t": 50,
      "u": 51,
      "v": 52,
      "w": 53,
      "x": 54,
      "y": 55,
      "z": 56,
      "£": 57,
      "à": 58,
      "á": 59,
      "â": 60,
      "ã": 61,
      "è": 62,
      "é": 63,
      "ê": 64,
      "ì": 65,
      "í": 66,
      "ò": 67,
      "ó": 68,
      "ô": 69,
      "õ": 70,
      "ù": 71,
      "ú": 72,
      "ý": 73,
      "ā": 74,
      "ă": 75,
      "đ": 76,
      "ĩ": 77,
      "ũ": 78,
      "ơ": 79,
      "ư": 80,
      "́": 81,
      "̉": 82,
      "ạ": 83,
      "ả": 84,
      "ấ": 85,
      "ầ": 86,
      "ẩ": 87,
      "ẫ": 88,
      "ậ": 89,
      "ắ": 90,
      "ằ": 91,
      "ẳ": 92,
      "ẵ": 93,
      "ặ": 94,
      "ẹ": 95,
      "ẻ": 96,
      "ẽ": 97,
      "ế": 98,
      "ề": 99,
      "ể": 100,
      "ễ": 101,
      "ệ": 102,
      "ỉ": 103,
      "ị": 104,
      "ọ": 105,
      "ỏ": 106,
      "ố": 107,
      "ồ": 108,
      "ổ": 109,
      "ỗ": 110,
      "ộ": 111,
      "ớ": 112,
      "ờ": 113,
      "ở": 114,
      "ỡ": 115,
      "ợ": 116,
      "ụ": 117,
      "ủ": 118,
      "ứ": 119,
      "ừ": 120,
      "ử": 121,
      "ữ": 122,
      "ự": 123,
      "ỳ": 124,
      "ỵ": 125,
      "ỷ": 126,
      "ỹ": 127,
      "”": 128,
      "…": 129,
      "℃": 130,
      "　": 131,
      "。": 132,
      "！": 133,
      "，": 134,
      "：": 135,
      "？": 136,
      "ａ": 137,
      "ｂ": 138,
      "ｃ": 139,
      "ｇ": 140,
      "ｈ": 141,
      "ｉ": 142,
      "ｌ": 143,
      "ｍ": 144,
      "ｎ": 145,
      "ｐ": 146,
      "ｒ": 147,
      "ｔ": 148,
      "i ": 149,
      "ng": 150,
      "n ": 151,
      "ng ": 152,
      ". ": 153,
      " t": 154,
      "ch": 155,
      "nh": 156,
      "ôi ": 157,
      "kh": 158,
      " đ": 159,
      " . ": 160,
      "? ": 161,
      "_t": 162,
      "ông ": 163,
      " c": 164,
      "không ": 165,
      "y ": 166,
      "tôi ": 167,
      "ạn ": 168,
      "t ": 169,
      "bạn ": 170,
      "c ": 171,
      "a ": 172,
      "o ": 173,
      "có": 174,
      "là": 175,
      " tôi ": 176,
      "ph": 177,
      "không ? ": 178,
      "u ": 179,
      " th": 180,
      "_th": 181,
      "nà": 182,
      "m ": 183,
      "gi": 184,
      "_l": 185,
      ", ": 186,
      "th": 187,
      "mộ": 188,
      "uố": 189,
      "ó ": 190,
      "nh ": 191,
      "ến ": 192,
      "_thể": 193,
      "ượ": 194,
      " tr": 195,
      "n_": 196,
      "iệ": 197,
      "m_": 198,
      "t_": 199,
      "iế": 200,
      "là ": 201,
      "chú": 202,
      "ên ": 203,
      "ườ": 204,
      "qu": 205,
      "có ": 206,
      "và": 207,
      "i . ": 208,
      "ng_t": 209,
      "uốn ": 210,
      "ng_": 211,
      "òng ": 212,
      "có_thể": 213,
      "muốn ": 214,
      "ơn ": 215,
      "i đ": 216,
      "tr": 217,
      "ược ": 218,
      "cho": 219,
      "i_": 220,
      " củ": 221,
      "iề": 222,
      "một ": 223,
      "ba": 224,
      "xe": 225,
      " đâ": 226,
      "sẽ": 227,
      "ì ": 228,
      "chúng_t": 229,
      "ại ": 230,
      "ần ": 231,
      "y . ": 232,
      "nó": 233,
      "ới ": 234,
      "ấy ": 235,
      "c_": 236,
      "có_thể ": 237,
      "cho tôi ": 238,
      "phả": 239,
      "y_": 240,
      "vu": 241,
      "xi": 242,
      "ái ": 243,
      "nào ": 244,
      "p ": 245,
      "cho ": 246,
      "sa": 247,
      "i_l": 248,
      "uy": 249,
      "ướ": 250,
      "ngh": 251,
      "này ": 252,
      "ất ": 253,
      "tôi muốn ": 254,
      "i_lòng ": 255,
      "hà": 256,
      "phải ": 257,
      "vui_lòng ": 258,
      "anh ": 259,
      "m_ơn ": 260,
      "giờ": 261,
      "o_": 262,
      "anh": 263,
      "ở đâ": 264,
      "n . ": 265,
      "ch ": 266,
      "a tôi ": 267,
      "ngà": 268,
      "như": 269,
      "củ": 270,
      "ai ": 271,
      "ong ": 272,
      "xin ": 273,
      "rồ": 274,
      "họ": 275,
      " có ": 276,
      " đến ": 277,
      "chúng_tôi ": 278,
      " được ": 279,
      "iê": 280,
      "nh_": 281,
      "u ? ": 282,
      "ở ": 283,
      "ngườ": 284,
      "ng . ": 285,
      "gì ": 286,
      "u_": 287,
      "sẽ ": 288,
      "iể": 289,
      " của ": 290,
      "t . ": 291,
      "số": 292,
      "ng đ": 293,
      "khá": 294,
      "nó ": 295,
      "a . ": 296,
      "một": 297,
      "với ": 298,
      "na": 299,
      "làm_ơn ": 300,
      "chuy": 301,
      "ươ": 302,
      "nhậ": 303,
      "tôi đ": 304,
      "a_": 305,
      "c . ": 306,
      "ăn ": 307,
      "việ": 308,
      "ang ": 309,
      "bả": 310,
      " đi ": 311,
      "và ": 312,
      "cá": 313,
      "vậ": 314,
      "à ": 315,
      "người ": 316,
      "phòng ": 317,
      "khi ": 318,
      "rất ": 319,
      "một_": 320,
      "ã ": 321,
      "m . ": 322,
      "biế": 323,
      "giờ ": 324,
      ", tôi ": 325,
      "bao_": 326,
      " có": 327,
      "_tr": 328,
      "ị ": 329,
      "sá": 330,
      "nào ? ": 331,
      "ho": 332,
      "bạn có ": 333,
      "bá": 334,
      "iền ": 335,
      "đâ": 336,
      "bạn có_thể ": 337,
      "của ": 338,
      "á ": 339,
      "kho": 340,
      "nói ": 341,
      "ường ": 342,
      "bạn đ": 343,
      "làm ": 344,
      " của tôi ": 345,
      "u . ": 346,
      "ổi ": 347,
      "nhiê": 348,
      "bao_nhiê": 349,
      "vào ": 350,
      " cái ": 351,
      "nhữ": 352,
      "mu": 353,
      "n đ": 354,
      "xin vui_lòng ": 355,
      " được không ? ": 356,
      " cá": 357,
      " tố": 358,
      "gọ": 359,
      "này": 360,
      "ơi ": 361,
      "rồi ": 362,
      "cả": 363,
      "ất": 364,
      "ch_": 365,
      "ưa ": 366,
      "ngày ": 367,
      "hơn ": 368,
      "bu": 369,
      "nă": 370,
      "chỉ": 371,
      "những ": 372,
      " thế": 373,
      "ời ": 374,
      "ở đâu ? ": 375,
      " l": 376,
      "ằng ": 377,
      "ước ": 378,
      "má": 379,
      "iên ": 380,
      " trong ": 381,
      " , ": 382,
      "gì ? ": 383,
      "n_l": 384,
      "hai ": 385,
      "vậy ": 386,
      "rồi . ": 387,
      "ùng ": 388,
      "hàng ": 389,
      " ? ": 390,
      "ay ": 391,
      "đi ": 392,
      "oại ": 393,
      "nhà": 394,
      "ặt ": 395,
      "hô": 396,
      "về": 397,
      "chuyến ": 398,
      "00": 399,
      "òn ": 400,
      "chiế": 401,
      "ất_": 402,
      "cái ": 403,
      "cô": 404,
      "iều ": 405,
      "nào": 406,
      "ích ": 407,
      "biết ": 408,
      "phải không ? ": 409,
      "số ": 410,
      "tôi có_thể ": 411,
      "ki": 412,
      " để": 413,
      "đây ": 414,
      "n_th": 415,
      " cô": 416,
      "lại ": 417,
      "tố": 418,
      "ũng ": 419,
      "này . ": 420,
      "nghĩ": 421,
      "bạn . ": 422,
      "ỗi ": 423,
      "ấy": 424,
      "được ": 425,
      "bị ": 426,
      "hã": 427,
      "iếng ": 428,
      "nhưng ": 429,
      "chỗ": 430,
      "mà": 431,
      "ón ": 432,
      "trong ": 433,
      "của tôi ": 434,
      "ngo": 435,
      " không ? ": 436,
      "hôm_": 437,
      "gọi ": 438,
      "vé": 439,
      " đó ": 440,
      " thế_": 441,
      "sao ": 442,
      "n_t": 443,
      "giá": 444,
      "xem ": 445,
      "nữ": 446,
      "nh . ": 447,
      "uống ": 448,
      "việc ": 449,
      "áng ": 450,
      "úc ": 451,
      "an ": 452,
      "khách_": 453,
      "o . ": 454,
      "ân_": 455,
      "mấy ": 456,
      "ừng ": 457,
      "a đ": 458,
      "khô": 459,
      "phí": 460,
      "ỏi ": 461,
      "chứ": 462,
      "mua ": 463,
      "i đến ": 464,
      "khoả": 465,
      "_đ": 466,
      "gử": 467,
      "ma": 468,
      " tiền ": 469,
      "_thể ": 470,
      "tôi không ": 471,
      "nế": 472,
      "rất": 473,
      "e ": 474,
      "gì": 475,
      "nay ": 476,
      "năm ": 477,
      "u_l": 478,
      "ra ": 479,
      "ửa ": 480,
      "ây_": 481,
      "về ": 482,
      "anh t": 483,
      "m th": 484,
      "bằng ": 485,
      "học ": 486,
      "1 ": 487,
      "ật ": 488,
      "ẻ ": 489,
      "c đ": 490,
      "gửi ": 491,
      "sạn ": 492,
      "khách_sạn ": 493,
      "vậy ? ": 494,
      "nên ": 495,
      "tôi sẽ ": 496,
      "còn ": 497,
      "n_đ": 498,
      "ại_": 499,
      "đến ": 500,
      "món ": 501,
      "si": 502,
      "ài ": 503,
      "xe_": 504,
      "nhật_": 505,
      "gần ": 506,
      "c t": 507,
      "nhật_bả": 508,
      "cần ": 509,
      "p . ": 510,
      "viên ": 511,
      "lúc ": 512,
      "nhiều ": 513,
      "chiếc ": 514,
      "ha": 515,
      "i_t": 516,
      "u đ": 517,
      "khoảng ": 518,
      "ứ ": 519,
      "bạn có": 520,
      "chỗ ": 521,
      "ừ ": 522,
      "thích ": 523,
      "ầu ": 524,
      "bay ": 525,
      "bộ": 526,
      "on ": 527,
      "iện_th": 528,
      "như ": 529,
      "iện ": 530,
      "nhà_": 531,
      "không": 532,
      "vâ": 533,
      "t th": 534,
      "ó . ": 535,
      "quá ": 536,
      "hỏi ": 537,
      "t t": 538,
      "chúng_ta ": 539,
      "làm_": 540,
      "t_đ": 541,
      " thế_nào ? ": 542,
      "_d": 543,
      "ngày_": 544,
      "nghĩ ": 545,
      "ân ": 546,
      "bây_": 547,
      "ình ": 548,
      "tôi có_thể": 549,
      "chỉ ": 550,
      "hành": 551,
      "ô_l": 552,
      "quố": 553,
      "m đ": 554,
      "sau ": 555,
      " cả": 556,
      "uộ": 557,
      "bên ": 558,
      "ờ ": 559,
      " của bạn ": 560,
      "lạ": 561,
      "lần ": 562,
      "bà": 563,
      "nướ": 564,
      "máy_": 565,
      "ích": 566,
      "du_l": 567,
      "nhà ": 568,
      "xin_l": 569,
      "du_lị": 570,
      "vâng ": 571,
      ", nhưng ": 572,
      "các ": 573,
      " các ": 574,
      "ồi ": 575,
      " trên ": 576,
      "vé ": 577,
      "gặ": 578,
      "a t": 579,
      "o_l": 580,
      "ửa_": 581,
      "bắ": 582,
      ", th": 583,
      "dùng ": 584,
      "mi": 585,
      "bao_nhiêu ? ": 586,
      "mời ": 587,
      "chưa ": 588,
      "loại ": 589,
      "bạn muốn ": 590,
      "ý ": 591,
      "ương ": 592,
      "cũng ": 593,
      "ời_": 594,
      "vào": 595,
      "giả": 596,
      " tốt ": 597,
      "t đ": 598,
      " cần ": 599,
      " đây ": 600,
      "lớ": 601,
      "ồ ": 602,
      " để ": 603,
      "một_í": 604,
      "_ph": 605,
      "bị": 606,
      "kiể": 607,
      "sự": 608,
      "đó ": 609,
      "hộ": 610,
      " tu": 611,
      "! ": 612,
      "ực_": 613,
      "nhất ": 614,
      "âu ": 615,
      "mặ": 616,
      "mang ": 617,
      "a th": 618,
      "giá ": 619,
      "buý": 620,
      "đây là ": 621,
      "giú": 622,
      " của tôi . ": 623,
      "xe ": 624,
      "xe_buý": 625,
      "mới ": 626,
      "p_": 627,
      "quá": 628,
      "kế": 629,
      "hãy ": 630,
      "xin_lỗi ": 631,
      "ung_": 632,
      "àng ": 633,
      "ẫn ": 634,
      "nếu ": 635,
      "hế": 636,
      "y đ": 637,
      "chí": 638,
      "ở đây ": 639,
      "hành_l": 640,
      " tháng ": 641,
      "êm ": 642,
      "0 ": 643,
      "mươ": 644,
      "ngồi ": 645,
      "n th": 646,
      "không có ": 647,
      "làm_ơn cho tôi ": 648,
      "một_chú": 649,
      "ược không ? ": 650,
      "buổi ": 651,
      "phú": 652,
      "như thế_nào ? ": 653,
      "iện_thoại ": 654,
      "m_th": 655,
      "ời_gi": 656,
      "hay ": 657,
      "chứ ? ": 658,
      "c th": 659,
      "i_th": 660,
      "chắ": 661,
      "tôi đã ": 662,
      "eo ": 663,
      "sắ": 664,
      "chà": 665,
      "gặp ": 666,
      "nghỉ": 667,
      "anh ấy ": 668,
      "sáng ": 669,
      "úng ": 670,
      "phố": 671,
      "quầ": 672,
      "ba ": 673,
      "lên ": 674,
      "tì": 675,
      " trước ": 676,
      "hiể": 677,
      "iệu ": 678,
      "sao ? ": 679,
      "nước ": 680,
      "ận ": 681,
      "qua": 682,
      "m_tr": 683,
      "ành_": 684,
      "ca": 685,
      "vừ": 686,
      " cũng ": 687,
      "mai ": 688,
      "ây ": 689,
      "phi": 690,
      "ra": 691,
      "ộng ": 692,
      "bạn có_thể": 693,
      "bao_nhiêu": 694,
      "ê ": 695,
      " có_thể ": 696,
      "anh ta ": 697,
      "ình": 698,
      "tôi sẽ": 699,
      "phá": 700,
      "iết ": 701,
      "anh . ": 702,
      "c_t": 703,
      "mà ": 704,
      "ường_": 705,
      "họ ": 706,
      "một c": 707,
      "mấy giờ ": 708,
      "giờ . ": 709,
      "vì ": 710,
      "ống ": 711,
      "yê": 712,
      "bao_l": 713,
      "lấy ": 714,
      "m t": 715,
      "hợ": 716,
      "y th": 717,
      "ịnh ": 718,
      "qua ": 719,
      "khác ": 720,
      "mất ": 721,
      "ầu": 722,
      "phụ": 723,
      "em ": 724,
      "to": 725,
      "quả": 726,
      "am_": 727,
      "bạ": 728,
      "rượ": 729,
      " ca": 730,
      "hôm_nay ": 731,
      "ụng ": 732,
      "nơi ": 733,
      "áo ": 734,
      "tôi có ": 735,
      "trên ": 736,
      "chúng_ta": 737,
      "bạn th": 738,
      ", đ": 739,
      "dự": 740,
      "tiếng ": 741,
      "nhỏ": 742,
      "tôi đang ": 743,
      ", t": 744,
      "chơi ": 745,
      " trướ": 746,
      "ăm ": 747,
      "uốc ": 748,
      "nghe ": 749,
      "của bạn ": 750,
      "chưa ? ": 751,
      " giờ ": 752,
      "biể": 753,
      "tu": 754,
      "tôi muốn đ": 755,
      "của tôi . ": 756,
      "nhiề": 757,
      "ành ": 758,
      "ông . ": 759,
      "iếp": 760,
      "chuyến bay ": 761,
      "lắ": 762,
      "tôi th": 763,
      "ược . ": 764,
      "biệ": 765,
      "mọ": 766,
      "mỗi ": 767,
      "sử": 768,
      " đồ": 769,
      "xin vui_lòng cho tôi ": 770,
      "màu ": 771,
      "để": 772,
      "đã ": 773,
      "ời_gian ": 774,
      "ển ": 775,
      "ện ": 776,
      "au ": 777,
      "or": 778,
      "y t": 779,
      "phải đ": 780,
      "bây_giờ ": 781,
      "tà": 782,
      " còn ": 783,
      "là gì ? ": 784,
      "gọi đ": 785,
      "du_lịch ": 786,
      "chào ": 787,
      "ức ": 788,
      "khó": 789,
      "bạn sẽ ": 790,
      "ửa_hàng ": 791,
      "n_tr": 792,
      "từ": 793,
      "tên ": 794,
      "ịa_": 795,
      "nhật_bản ": 796,
      "ne": 797,
      "làm": 798,
      "ngày_mai ": 799,
      "mọi ": 800,
      "ữa ": 801,
      "chị": 802,
      "cái này ": 803,
      " công_t": 804,
      "hành_lý": 805,
      "xá": 806,
      "quy": 807,
      "xin hỏi ": 808,
      "không_thể ": 809,
      "_c": 810,
      "vụ": 811,
      "ẹp ": 812,
      "nó . ": 813,
      "giúp": 814,
      "ành_phố": 815,
      "hồ": 816,
      "bao_nhiêu ": 817,
      "ngoài ": 818,
      "hôm_na": 819,
      "vui_lòng cho tôi ": 820,
      "một cái ": 821,
      "cô ": 822,
      "được không ? ": 823,
      "do": 824,
      " có_thể": 825,
      "_v": 826,
      "vẫn ": 827,
      "âu ? ": 828,
      "ều ": 829,
      "cho bạn ": 830,
      "ối ": 831,
      "ợi ": 832,
      "u_v": 833,
      "nữa ": 834,
      "ăn_": 835,
      "làm_ơn cho ": 836,
      "sách ": 837,
      "ất_cả": 838,
      "tối ": 839,
      "bệ": 840,
      "in ": 841,
      "giớ": 842,
      "tốt ": 843,
      "bộ ": 844,
      "mù": 845,
      "sĩ": 846,
      "ở đ": 847,
      "bán ": 848,
      "kiểm_tr": 849,
      "ung_quố": 850,
      "rằng ": 851,
      "ức_": 852,
      "nhận ": 853,
      "y tôi ": 854,
      "ương_": 855,
      "sớ": 856,
      "y có ": 857,
      "úi ": 858,
      " tì": 859,
      "u_đ": 860,
      " tối ": 861,
      "lớn ": 862,
      "xe_buýt ": 863,
      "hạ": 864,
      "iễ": 865,
      "mườ": 866,
      "ăng ": 867,
      "tôi là ": 868,
      "hả": 869,
      "xuống ": 870,
      "ọng ": 871,
      "ư ": 872,
      "ứ_": 873,
      "ường đ": 874,
      "xe_l": 875,
      "chuyện ": 876,
      "ấy . ": 877,
      "nhạ": 878,
      "quần_": 879,
      "5 ": 880,
      "án ": 881,
      "rồi , ": 882,
      "cảm_th": 883,
      "ô_la ": 884,
      "eo": 885,
      "hiệ": 886,
      "đổi ": 887,
      "ỡ ": 888,
      "tôi đã": 889,
      "một_ít ": 890,
      "ông_": 891,
      "tôi nghĩ ": 892,
      "khi nào ": 893,
      "từ ": 894,
      "u t": 895,
      "chị ": 896,
      "hơn . ": 897,
      "mắ": 898,
      "ễ ": 899,
      " ta": 900,
      "công_t": 901,
      "2 ": 902,
      "ữ ": 903,
      " đã ": 904,
      "cảm_ơn ": 905,
      "nữa . ": 906,
      "phí ": 907,
      "uộc ": 908,
      "ủ ": 909,
      "chu": 910,
      "trả": 911,
      "bàn ": 912,
      "mươi ": 913,
      "dị": 914,
      "er": 915,
      "nằ": 916,
      "ng_c": 917,
      "bay": 918,
      "này không ? ": 919,
      "nhật_bản . ": 920,
      "co": 921,
      "sả": 922,
      "c c": 923,
      "c tr": 924,
      "tại ": 925,
      "ch . ": 926,
      "ôi . ": 927,
      "kinh_": 928,
      "không_thể": 929,
      "tiền ": 930,
      "ính ": 931,
      "sự ": 932,
      "oà": 933,
      "hoa ": 934,
      "làm_việc ": 935,
      "bắt_đ": 936,
      "en ": 937,
      "à_ph": 938,
      "bố": 939,
      "gó": 940,
      "nghiệ": 941,
      "vâng , ": 942,
      "dạ": 943,
      "ôn ": 944,
      "ta": 945,
      "xu": 946,
      "iên_": 947,
      "một t": 948,
      "một_số ": 949,
      "nhà_hàng ": 950,
      "tìm ": 951,
      "mỹ": 952,
      "nhì": 953,
      "nhân_": 954,
      "không phải ": 955,
      "gia": 956,
      "sau": 957,
      "bạn đến ": 958,
      "không đ": 959,
      "ngày . ": 960,
      "sinh_": 961,
      "quan ": 962,
      "một chiếc ": 963,
      "giới_th": 964,
      "át ": 965,
      "ời_t": 966,
      "ử ": 967,
      "ngay ": 968,
      " đặ": 969,
      "một l": 970,
      "ở đâu ": 971,
      "u th": 972,
      "ạm ": 973,
      "ế ": 974,
      "ịt ": 975,
      "thật ": 976,
      "c_sĩ": 977,
      " cô ": 978,
      "bao_nhiêu tiền ": 979,
      "bất_": 980,
      "hơi ": 981,
      "is": 982,
      "óc ": 983,
      "tuần ": 984,
      "tới ": 985,
      "nga": 986,
      "bác_sĩ": 987,
      "phim ": 988,
      "ối_": 989,
      ", bạn ": 990,
      "vài ": 991,
      "ở đây . ": 992,
      "hoà": 993,
      "bạn đã ": 994,
      "t không ? ": 995,
      "già": 996,
      "mấy giờ ? ": 997,
      "sử_d": 998,
      "e . ": 999,
      "hướ": 1000,
      "chụ": 1001,
      "là bao_nhiêu ? ": 1002,
      "ng_tr": 1003,
      "kiểm_tra ": 1004,
      "ọn ": 1005,
      "là th": 1006,
      "chúng ": 1007,
      "al": 1008,
      "kỳ": 1009,
      "đừng ": 1010,
      "ởi_": 1011,
      " đặt ": 1012,
      "là người ": 1013,
      "ì sao ? ": 1014,
      "nếu": 1015,
      "vừa ": 1016,
      "mẹ": 1017,
      "os": 1018,
      "su": 1019,
      "tại_": 1020,
      "xong ": 1021,
      "ực ": 1022,
      "phẩ": 1023,
      "giống ": 1024,
      "là một ": 1025,
      "trướ": 1026,
      "hàng_": 1027,
      "nước_": 1028,
      "ập ": 1029,
      "ết ": 1030,
      "ới . ": 1031,
      "ng_th": 1032,
      "sống ": 1033,
      "bi": 1034,
      "ky": 1035,
      "ưa": 1036,
      " thu": 1037,
      "sau khi ": 1038,
      "dù": 1039,
      "o_t": 1040,
      "tôi thích ": 1041,
      " trở": 1042,
      "chúc ": 1043,
      "với tôi ": 1044,
      "cách ": 1045,
      " công_": 1046,
      "mở": 1047,
      "u_th": 1048,
      "chạ": 1049,
      "nhanh ": 1050,
      "gh": 1051,
      "ắng ": 1052,
      "i đó ": 1053,
      "xem": 1054,
      "bảo_": 1055,
      "hoạ": 1056,
      "mười ": 1057,
      "cảm_thấy ": 1058,
      "bư": 1059,
      "gái ": 1060,
      "vấ": 1061,
      "chủ": 1062,
      "tôi bị ": 1063,
      " trả": 1064,
      " của": 1065,
      "c_biệ": 1066,
      "u_c": 1067,
      " của bạn . ": 1068,
      "a_đ": 1069,
      "nằm ": 1070,
      "ẹp . ": 1071,
      "nhất": 1072,
      "chuyển ": 1073,
      "biết": 1074,
      "bạn có_thể cho tôi ": 1075,
      "ồng_": 1076,
      "sinh ": 1077,
      "bỏ": 1078,
      "bữa ": 1079,
      "la": 1080,
      "nộ": 1081,
      "sân_": 1082,
      "trung_quố": 1083,
      "tôi đến ": 1084,
      "rất vu": 1085,
      "mai . ": 1086,
      "giúp tôi ": 1087,
      "óng ": 1088,
      "ẳng ": 1089,
      " co": 1090,
      "tôi cần ": 1091,
      "tôi muốn th": 1092,
      "cám_ơn ": 1093,
      "cùng ": 1094,
      "vợ": 1095,
      "âm ": 1096,
      "bạn sẽ": 1097,
      "là đ": 1098,
      "n_d": 1099,
      "trước ": 1100,
      "một tr": 1101,
      "nói tiếng ": 1102,
      "giảm ": 1103,
      "chụp ": 1104,
      "\" ": 1105,
      "dừng ": 1106,
      "hú": 1107,
      "nói_": 1108,
      "bao_lâu ? ": 1109,
      "el": 1110,
      "ẻ . ": 1111,
      " tại ": 1112,
      " tới ": 1113,
      "bạn không ": 1114,
      "sang ": 1115,
      "nghe": 1116,
      "đi th": 1117,
      "chỗ ngồi ": 1118,
      "hết ": 1119,
      "giới_thiệu ": 1120,
      "ấu ": 1121,
      "ứng ": 1122,
      " tí": 1123,
      "thứ ": 1124,
      "số đ": 1125,
      "ô_la . ": 1126,
      " tuần ": 1127,
      "nhỏ ": 1128,
      "bao_nhiêu tiền ? ": 1129,
      "hó": 1130,
      "ưở": 1131,
      "ảnh ": 1132,
      "vào ngày ": 1133,
      "cắ": 1134,
      "ầm ": 1135,
      "tôi cũng ": 1136,
      "ượng ": 1137,
      "của bạn . ": 1138,
      "công_": 1139,
      "am_quan ": 1140,
      "bạn_": 1141,
      "mặt ": 1142,
      "tự": 1143,
      "ẽ ": 1144,
      "chiều ": 1145,
      "một đ": 1146,
      "n_đề": 1147,
      "quá . ": 1148,
      "ộ ": 1149,
      " đổi ": 1150,
      "i đi ": 1151,
      "uyệ": 1152,
      "học_": 1153,
      "bạn có muốn ": 1154,
      "lắm . ": 1155,
      "sử_dụng ": 1156,
      "tại_sao ": 1157,
      "cơ": 1158,
      "lu": 1159,
      "ài_": 1160,
      "ấm ": 1161,
      "i_v": 1162,
      "anh_": 1163,
      "chúng_tôi có ": 1164,
      "bạn có_thể vui_lòng ": 1165,
      " lại ": 1166,
      "bị đ": 1167,
      "rượu ": 1168,
      "kinh_do": 1169,
      "vấn_đề": 1170,
      "ập": 1171,
      "ng_l": 1172,
      "nhé": 1173,
      "phiền ": 1174,
      "12": 1175,
      "bà ": 1176,
      "diễ": 1177,
      "hiện ": 1178,
      "ấp ": 1179,
      "ất . ": 1180,
      "ặng ": 1181,
      "ể ": 1182,
      "ổ_": 1183,
      "quên ": 1184,
      "anh ấy": 1185,
      "việc": 1186,
      "vậy . ": 1187,
      "ời_tiết ": 1188,
      "ay_": 1189,
      "cửa_hàng ": 1190,
      "đã": 1191,
      "chi": 1192,
      "iền_": 1193,
      "khi nào ? ": 1194,
      "vụ ": 1195,
      "ành_phố ": 1196,
      "tiể": 1197,
      "vọng ": 1198,
      "ác ": 1199,
      "ô ": 1200,
      "ồng ": 1201,
      "thế": 1202,
      "nay . ": 1203,
      "rất nhiều ": 1204,
      "hiểu ": 1205,
      "es": 1206,
      "ni": 1207,
      "vì": 1208,
      "ục ": 1209,
      "nha": 1210,
      "khỏ": 1211,
      " đang ": 1212,
      " thích ": 1213,
      "chút ": 1214,
      "hợp ": 1215,
      "là t": 1216,
      "n_ng": 1217,
      "uyề": 1218,
      "hoặ": 1219,
      "báo ": 1220,
      "máy ": 1221,
      "ất_đ": 1222,
      "hãy": 1223,
      "n_toà": 1224,
      "sớm ": 1225,
      "hi": 1226,
      "hy_": 1227,
      "ại . ": 1228,
      " đó": 1229,
      "ường . ": 1230,
      "tôi muốn mua ": 1231,
      "hành ": 1232,
      "viện ": 1233,
      "một_chút ": 1234,
      "hút th": 1235,
      "10": 1236,
      "hình ": 1237,
      "ký": 1238,
      "ới đ": 1239,
      "chờ ": 1240,
      "không , ": 1241,
      "một phòng ": 1242,
      "người đ": 1243,
      "phút . ": 1244,
      "chắc_": 1245,
      ", có ": 1246,
      "3 ": 1247,
      "nhiên ": 1248,
      "nhất_đ": 1249,
      " đi đến ": 1250,
      "bạn thích ": 1251,
      "như thế": 1252,
      "ng đi ": 1253,
      "bạn đi ": 1254,
      "yêu_c": 1255,
      "ình . ": 1256,
      "đúng ": 1257,
      "nhớ": 1258,
      "nhiệ": 1259,
      "_lại ": 1260,
      "khi nào": 1261,
      "này có ": 1262,
      "xe_lửa ": 1263,
      "ga ": 1264,
      "áo_": 1265,
      " đượ": 1266,
      "ông ấy ": 1267,
      "này th": 1268,
      "nghỉ_": 1269,
      "cô ấy ": 1270,
      "ất_cả ": 1271,
      "dành ": 1272,
      "m c": 1273,
      "ánh_": 1274,
      "í ": 1275,
      "ổi . ": 1276,
      "theo ": 1277,
      "nào không ? ": 1278,
      "khác . ": 1279,
      "rất đ": 1280,
      " công_ty ": 1281,
      "nhìn ": 1282,
      "10 ": 1283,
      "_y": 1284,
      "bằ": 1285,
      "ké": 1286,
      "lư": 1287,
      "viết ": 1288,
      "ệ ": 1289,
      "gia_đ": 1290,
      "nam ": 1291,
      "phía": 1292,
      " tuổi ": 1293,
      "kết_": 1294,
      "hợp": 1295,
      "gọi điện_thoại ": 1296,
      "chạy ": 1297,
      "hy_vọng ": 1298,
      "chắc_chắ": 1299,
      "cứ": 1300,
      "t c": 1301,
      "ôl": 1302,
      "tôi nên ": 1303,
      "phần ": 1304,
      "ng_d": 1305,
      "ng_đ": 1306,
      "ở đây": 1307,
      "một_số": 1308,
      " tốt . ": 1309,
      "0000": 1310,
      "một_chút . ": 1311,
      "mạ": 1312,
      "ổ ": 1313,
      " đây . ": 1314,
      "ai ? ": 1315,
      "gần đây ": 1316,
      "nhân_viên ": 1317,
      "gồ": 1318,
      "ái_": 1319,
      "đang ": 1320,
      "ơi . ": 1321,
      " tôi . ": 1322,
      "uối ": 1323,
      "rồi ? ": 1324,
      "tôi muốn đặt ": 1325,
      "ghế": 1326,
      "đặt ": 1327,
      "ưỡ": 1328,
      " từ ": 1329,
      "cho bạn . ": 1330,
      "nhật ": 1331,
      "phút ": 1332,
      "ầu_t": 1333,
      "nhiều . ": 1334,
      "bắt_đầu ": 1335,
      "ình_": 1336,
      "nh đ": 1337,
      ", và ": 1338,
      "bản_đ": 1339,
      "món ăn ": 1340,
      "đó là ": 1341,
      "hướng_d": 1342,
      "5 . ": 1343,
      "in": 1344,
      "sẵ": 1345,
      "ọc ": 1346,
      " con ": 1347,
      "bạn vui_lòng ": 1348,
      ", chúng_tôi ": 1349,
      "ương . ": 1350,
      "ại_học ": 1351,
      "new": 1352,
      "mùa ": 1353,
      "dà": 1354,
      "xi ": 1355,
      "xa ": 1356,
      "òa ": 1357,
      "ăng_": 1358,
      "ắn ": 1359,
      " cùng ": 1360,
      "không th": 1361,
      "bánh_": 1362,
      "chỉ cần ": 1363,
      "bắc_": 1364,
      "mươi đ": 1365,
      "ở đâu vậy ? ": 1366,
      "hẹ": 1367,
      "không . ": 1368,
      " thời_gian ": 1369,
      "học t": 1370,
      "ng đến ": 1371,
      "bạn đã": 1372,
      " cái này ": 1373,
      "phía ": 1374,
      "khác không ? ": 1375,
      "sản_": 1376,
      "nói_chuyện ": 1377,
      "ou": 1378,
      "u tr": 1379,
      "yên ": 1380,
      " từ": 1381,
      "quà ": 1382,
      "iền . ": 1383,
      "sao": 1384,
      "bây_giờ": 1385,
      "các bạn ": 1386,
      "bữa ăn ": 1387,
      "bằng đ": 1388,
      "bó": 1389,
      "lời ": 1390,
      "lấy": 1391,
      "ngân_": 1392,
      "tôi nghĩ": 1393,
      "tru": 1394,
      "iều": 1395,
      "cho tôi một ": 1396,
      "báo_": 1397,
      "đây có ": 1398,
      "giúp ": 1399,
      "nhạc ": 1400,
      "mó": 1401,
      "đường ": 1402,
      "iện_ng": 1403,
      " của chúng_tôi ": 1404,
      "bao_gồ": 1405,
      "máy_bay ": 1406,
      "iếp_th": 1407,
      "à_phê": 1408,
      "ầu_tiên ": 1409,
      ", đây ": 1410,
      ", còn ": 1411,
      "dài ": 1412,
      "xả": 1413,
      "đơn ": 1414,
      "ại đ": 1415,
      "khởi_": 1416,
      "n đường ": 1417,
      "xin vui_lòng cho ": 1418,
      "dự_đ": 1419,
      "bắc_ki": 1420,
      "9 ": 1421,
      "_chiế": 1422,
      "mẫ": 1423,
      "ong_": 1424,
      "sở": 1425,
      "ton ": 1426,
      "văn_": 1427,
      "âu": 1428,
      "chì": 1429,
      " đi . ": 1430,
      "tôi không_thể ": 1431,
      " thực_": 1432,
      "có một ": 1433,
      "nó có ": 1434,
      "ngon ": 1435,
      "mấy ? ": 1436,
      "iện_tho": 1437,
      "hộ_chiế": 1438,
      " trước": 1439,
      "ork": 1440,
      "mấy": 1441,
      "uê ": 1442,
      "không có": 1443,
      "giặt ": 1444,
      "giữ ": 1445,
      "iết_": 1446,
      "ở lại ": 1447,
      "nhật": 1448,
      ", tôi muốn ": 1449,
      "hơn không ? ": 1450,
      "mọi người ": 1451,
      "bốn ": 1452,
      "sau đó ": 1453,
      "_york": 1454,
      "new_york": 1455,
      "ính": 1456,
      "ăn . ": 1457,
      "ơ_": 1458,
      "uốc": 1459,
      "m_đ": 1460,
      "i được ": 1461,
      "cho tôi . ": 1462,
      "tôi đi ": 1463,
      "cách": 1464,
      "vào lúc ": 1465,
      "mua": 1466,
      "kinh_doanh ": 1467,
      "30": 1468,
      ": ": 1469,
      "_h": 1470,
      "con ": 1471,
      "dễ": 1472,
      "kị": 1473,
      "ép ": 1474,
      "ăm đ": 1475,
      "chai ": 1476,
      "và đ": 1477,
      "gì vậy ? ": 1478,
      "việt_": 1479,
      "mar": 1480,
      "quyế": 1481,
      "giày ": 1482,
      "số điện_thoại ": 1483,
      "hóa đ": 1484,
      "6 ": 1485,
      "lý": 1486,
      "nd": 1487,
      "vi": 1488,
      "xế": 1489,
      "ưới ": 1490,
      "ẩn_": 1491,
      "ắm ": 1492,
      "ngủ": 1493,
      " đã": 1494,
      " tôi có_thể ": 1495,
      "iệm ": 1496,
      "tôi muốn gửi ": 1497,
      " đi th": 1498,
      "báo": 1499,
      "kia ": 1500,
      "như vậy ": 1501,
      " cao ": 1502,
      "nghe nói ": 1503,
      "công_ty ": 1504,
      "kỳ ": 1505,
      "áo": 1506,
      "ở đó ": 1507,
      " tiếng ": 1508,
      "chọn ": 1509,
      "ông có_thể ": 1510,
      "giữ": 1511,
      "cho đến ": 1512,
      "với bạn ": 1513,
      "bảy ": 1514,
      "khi tôi ": 1515,
      ", tôi sẽ ": 1516,
      "vào th": 1517,
      "mặc ": 1518,
      " trước . ": 1519,
      "để ": 1520,
      "dịch_": 1521,
      "hoặc ": 1522,
      "chắc_chắn ": 1523,
      "bận ": 1524,
      "hỏ": 1525,
      "lâu ": 1526,
      "ầng ": 1527,
      "ửa": 1528,
      "nhân ": 1529,
      "tôi rất ": 1530,
      "thuốc ": 1531,
      "phải là ": 1532,
      "n đến ": 1533,
      " thế_nào": 1534,
      "gần nhất ": 1535,
      "ngày_mai . ": 1536,
      "phải đi ": 1537,
      "chủ_": 1538,
      "n_toàn ": 1539,
      "nhất_định ": 1540,
      ", c": 1541,
      "ar": 1542,
      "an . ": 1543,
      "bậ": 1544,
      "mưa ": 1545,
      "oán ": 1546,
      "rẻ ": 1547,
      "êm . ": 1548,
      "nhau ": 1549,
      "tôi phải ": 1550,
      "quay ": 1551,
      "gì không ? ": 1552,
      "nhận đ": 1553,
      "m thấy ": 1554,
      "hành_lý ": 1555,
      "phục_": 1556,
      "toky": 1557,
      "nếu tôi ": 1558,
      "trung_quốc ": 1559,
      "hẹn ": 1560,
      "hóa đơn ": 1561,
      "20": 1562,
      "7 ": 1563,
      "ke": 1564,
      "ành": 1565,
      " ta ": 1566,
      "làm th": 1567,
      "tháng ": 1568,
      "nó là ": 1569,
      "một th": 1570,
      "bảo_t": 1571,
      "khoẻ ": 1572,
      "này được không ? ": 1573,
      "nhà . ": 1574,
      " cảm_ơn ": 1575,
      "miễ": 1576,
      "quần_áo ": 1577,
      "mở_c": 1578,
      "vấn_đề ": 1579,
      "rõ": 1580,
      "rời ": 1581,
      "sé": 1582,
      "ệ_": 1583,
      "nguy": 1584,
      "n_s": 1585,
      "một lần ": 1586,
      "tôi muốn một ": 1587,
      "này có": 1588,
      "chuyến bay": 1589,
      " để tôi ": 1590,
      "tốt . ": 1591,
      "hay_": 1592,
      "quốc_t": 1593,
      "lại . ": 1594,
      "phát_": 1595,
      "tàu ": 1596,
      "quyển ": 1597,
      "bệnh ": 1598,
      "ức_ăn ": 1599,
      "phẩm ": 1600,
      "hàng_không ": 1601,
      "bánh_m": 1602,
      "xảy_": 1603,
      "da ": 1604,
      "mệ": 1605,
      "mượ": 1606,
      "mình ": 1607,
      "t_t": 1608,
      "ốc ": 1609,
      "ủ_t": 1610,
      "chậ": 1611,
      "thậ": 1612,
      "thêm ": 1613,
      "n_h": 1614,
      "chuyể": 1615,
      "làm gì ? ": 1616,
      "kia . ": 1617,
      "lúc mấy giờ ? ": 1618,
      "ửa_s": 1619,
      "lắm ": 1620,
      "xác_": 1621,
      "4 ": 1622,
      "da": 1623,
      "sạ": 1624,
      "so ": 1625,
      "túi ": 1626,
      "viế": 1627,
      "ám ": 1628,
      "ái . ": 1629,
      "ây . ": 1630,
      "ân . ": 1631,
      "ũng đ": 1632,
      "gia ": 1633,
      ", ông ": 1634,
      "thời_gian ": 1635,
      "i được không ? ": 1636,
      "nóng ": 1637,
      "vui_lòng cho ": 1638,
      "à ? ": 1639,
      "bạn có cái ": 1640,
      "du_lịch": 1641,
      "quán ": 1642,
      "nghỉ ": 1643,
      "biển ": 1644,
      " cô ấy ": 1645,
      "li": 1646,
      "r ": 1647,
      "ra . ": 1648,
      "ý_": 1649,
      "đặ": 1650,
      "ề_": 1651,
      "nhất . ": 1652,
      "tôi . ": 1653,
      "giấy ": 1654,
      "thứ": 1655,
      "thực_": 1656,
      "iều_": 1657,
      "xin chào ": 1658,
      "người . ": 1659,
      "bảng ": 1660,
      "ất_l": 1661,
      "màu đ": 1662,
      "chỉ cho tôi ": 1663,
      "ở đây không ? ": 1664,
      "bệnh_": 1665,
      "chuẩn_": 1666,
      "gói ": 1667,
      ", cảm_ơn ": 1668,
      "ang đ": 1669,
      "bos": 1670,
      "ều": 1671,
      "ở trong ": 1672,
      "không biết ": 1673,
      "bạn nên ": 1674,
      " thì ": 1675,
      " đến th": 1676,
      "sáu ": 1677,
      "làm phiền ": 1678,
      "mua_": 1679,
      "gì đó ": 1680,
      "ịa_chỉ ": 1681,
      "hả ? ": 1682,
      "à_phê ": 1683,
      "giảm giá ": 1684,
      " tín_d": 1685,
      "học tiếng ": 1686,
      "lái ": 1687,
      "mô": 1688,
      "ro": 1689,
      "sư": 1690,
      "sửa ": 1691,
      "sân ": 1692,
      "y tr": 1693,
      "ầu . ": 1694,
      "ẻ tín_d": 1695,
      "chưa": 1696,
      "cho_": 1697,
      "xe ta": 1698,
      "uyên ": 1699,
      "anh đ": 1700,
      "của": 1701,
      "bản ": 1702,
      " cách ": 1703,
      "ưa ông ": 1704,
      "xin_lỗi , ": 1705,
      "bao_lâu ": 1706,
      "ng_cộng ": 1707,
      "bác_sĩ ": 1708,
      "c_biệt ": 1709,
      "diễn ": 1710,
      "ga": 1711,
      "mã": 1712,
      "ti": 1713,
      "ví": 1714,
      "ư_": 1715,
      "ạm_": 1716,
      "ậu ": 1717,
      "ịnh": 1718,
      "tôi cảm_thấy ": 1719,
      " thấy ": 1720,
      "uối_": 1721,
      "học": 1722,
      "chúng_tôi sẽ ": 1723,
      "ở nhà ": 1724,
      "ăn cơ": 1725,
      "của chúng_tôi ": 1726,
      "khoản ": 1727,
      "bằng cách ": 1728,
      " đồng ": 1729,
      " trở_lại ": 1730,
      "nghỉ_ng": 1731,
      "càng ": 1732,
      "i_tr": 1733,
      "nổ": 1734,
      "s ": 1735,
      "t được không ? ": 1736,
      "ắt ": 1737,
      "ớn ": 1738,
      " đô_la ": 1739,
      "n_viên ": 1740,
      "biết t": 1741,
      "những đ": 1742,
      "00 ": 1743,
      "hãng ": 1744,
      "ngoà": 1745,
      "giáo_": 1746,
      "lạnh ": 1747,
      "ưởng ": 1748,
      "nhé . ": 1749,
      "nhớ ": 1750,
      "ai đ": 1751,
      "m tôi ": 1752,
      "tổ": 1753,
      "vị ": 1754,
      "ãy ": 1755,
      "ngủ ": 1756,
      "chiề": 1757,
      "quanh": 1758,
      "trời ": 1759,
      "anh có ": 1760,
      "sáng . ": 1761,
      "n được không ? ": 1762,
      "buổi sáng ": 1763,
      "khóa ": 1764,
      "bảo_hiể": 1765,
      "mở ": 1766,
      "mừng ": 1767,
      "va": 1768,
      "ánh ": 1769,
      "ưa tôi ": 1770,
      "ị . ": 1771,
      " tài_": 1772,
      " đưa ": 1773,
      "không được ": 1774,
      " thêm ": 1775,
      "t_nghiệ": 1776,
      "quen ": 1777,
      "ngày": 1778,
      "iểm ": 1779,
      "ương_tr": 1780,
      "khoẻ": 1781,
      "máy": 1782,
      "tôi có_thể mua ": 1783,
      "hội ": 1784,
      "u_điện_ng": 1785,
      "hạng ": 1786,
      ", đây là ": 1787,
      "mượn ": 1788,
      "cạ": 1789,
      "te": 1790,
      "ăm_": 1791,
      "chương_tr": 1792,
      " cửa_hàng ": 1793,
      "không , tôi ": 1794,
      "_lá": 1795,
      "uyế": 1796,
      "chúng_tôi muốn ": 1797,
      "năm . ": 1798,
      "những cái ": 1799,
      "chuyến đi ": 1800,
      "minh ": 1801,
      " tuổi . ": 1802,
      "xin_lỗi , tôi ": 1803,
      "quả ": 1804,
      "ay_đổi ": 1805,
      "yêu_cầu ": 1806,
      "sẵn_s": 1807,
      "chìa ": 1808,
      "mua_sắ": 1809,
      ", cá": 1810,
      "_hoạ": 1811,
      "bú": 1812,
      "dậ": 1813,
      "hè": 1814,
      "hư": 1815,
      "hát ": 1816,
      "miệ": 1817,
      "p đ": 1818,
      "ị_tr": 1819,
      "ội ": 1820,
      "khu ": 1821,
      "không t": 1822,
      "không cần ": 1823,
      "bạn ? ": 1824,
      "có th": 1825,
      "iếc ": 1826,
      "một người ": 1827,
      "sau . ": 1828,
      "giám_đ": 1829,
      "rất th": 1830,
      "kiểu ": 1831,
      "nếu bạn ": 1832,
      "cao ": 1833,
      "rượu_v": 1834,
      "chúng_ta đi ": 1835,
      "tôi đang tìm ": 1836,
      "hành_lý của tôi ": 1837,
      "ở đằng ": 1838,
      "trả ": 1839,
      "ngay . ": 1840,
      "với tôi . ": 1841,
      "món đ": 1842,
      "ạm_biệ": 1843,
      "t trước ": 1844,
      "èn ": 1845,
      "thì ": 1846,
      "iếu ": 1847,
      "và tôi ": 1848,
      "trở": 1849,
      "i_đ": 1850,
      "làm_ơn đ": 1851,
      "bạn đang ": 1852,
      "chỉ có ": 1853,
      "không_": 1854,
      "tên tôi là ": 1855,
      "gần đây không ? ": 1856,
      "bảo_tàng ": 1857,
      "so với ": 1858,
      "bữ": 1859,
      "ka": 1860,
      "lú": 1861,
      "riê": 1862,
      "âm_": 1863,
      "chư": 1864,
      "phầ": 1865,
      "giấ": 1866,
      "trạm ": 1867,
      "bay . ": 1868,
      "học . ": 1869,
      "chúng_tôi sẽ": 1870,
      "iên_l": 1871,
      "bánh ": 1872,
      "n_tâ": 1873,
      "rất t": 1874,
      "nước": 1875,
      "mẹ ": 1876,
      "thế_": 1877,
      "ôla ": 1878,
      "sở_th": 1879,
      "30 ": 1880,
      "cổ": 1881,
      "kiện ": 1882,
      "lo": 1883,
      "m tr": 1884,
      "mình": 1885,
      "nửa ": 1886,
      "sức_": 1887,
      "wa": 1888,
      "ông_t": 1889,
      "úi_": 1890,
      "ý . ": 1891,
      "ầy_": 1892,
      "ắng . ": 1893,
      "khó ": 1894,
      "khỏi ": 1895,
      "giường ": 1896,
      "uyết ": 1897,
      "nhật . ": 1898,
      " có đ": 1899,
      "hoa": 1900,
      "hoa_": 1901,
      " thế_nào ": 1902,
      "anh ta": 1903,
      "bạn có th": 1904,
      "máy_bay": 1905,
      "du_lịch . ": 1906,
      "lớn . ": 1907,
      "một_ít th": 1908,
      " cũng không ": 1909,
      "biểu_": 1910,
      "ịa_chỉ": 1911,
      "mỹ . ": 1912,
      "dành cho ": 1913,
      "8 ": 1914,
      "bò": 1915,
      "công ": 1916,
      "kí": 1917,
      "âu . ": 1918,
      "úc_": 1919,
      "ú_v": 1920,
      "ơi đ": 1921,
      "ấn ": 1922,
      "ẹp": 1923,
      "chờ": 1924,
      "có đ": 1925,
      "phong_": 1926,
      "thịt ": 1927,
      "này là ": 1928,
      "hàng . ": 1929,
      "khách ": 1930,
      "nó không ? ": 1931,
      "khoa": 1932,
      "ra ngoài ": 1933,
      "kế ": 1934,
      "kế_hoạ": 1935,
      "úng không ? ": 1936,
      "vì vậy ": 1937,
      "biến ": 1938,
      "hướng_dẫ": 1939,
      "bánh_mì ": 1940,
      "ửa_sổ": 1941,
      ", tr": 1942,
      "11": 1943,
      "bài ": 1944,
      "hu": 1945,
      "tất_cả ": 1946,
      "ya": 1947,
      "ên_": 1948,
      "đó": 1949,
      "ảnh": 1950,
      "ầu_": 1951,
      "ẽ tr": 1952,
      " to": 1953,
      "khí": 1954,
      "khu_v": 1955,
      "là tr": 1956,
      "làm đ": 1957,
      "ược t": 1958,
      "iếp ": 1959,
      "i đâu ? ": 1960,
      "vui_v": 1961,
      "tôi muốn đi ": 1962,
      "việc đ": 1963,
      "buồ": 1964,
      "cô ta ": 1965,
      "khách_sá": 1966,
      "gì . ": 1967,
      "bây_giờ . ": 1968,
      "để tôi ": 1969,
      "làm thế_nào": 1970,
      "giúp_đ": 1971,
      "hiện_": 1972,
      "một ly ": 1973,
      "trước": 1974,
      "ngân_hàng ": 1975,
      "dự_định ": 1976,
      "mở_cửa ": 1977,
      "- ": 1978,
      "99": 1979,
      "ang_": 1980,
      "bồ": 1981,
      "mới . ": 1982,
      "uậ": 1983,
      "u c": 1984,
      "đó . ": 1985,
      "ời . ": 1986,
      "ực_t": 1987,
      "tôi không_thể": 1988,
      "qua . ": 1989,
      "có , ": 1990,
      "và th": 1991,
      "phòng . ": 1992,
      "sáng_": 1993,
      "bạn có biết ": 1994,
      "hai mươi ": 1995,
      "ngon . ": 1996,
      "u đó": 1997,
      "bạn có_thể đ": 1998,
      "tôi thích": 1999,
      "_vẻ ": 2000,
      "làm_ơn cho một ": 2001,
      "hải_": 2002,
      "tự ": 2003,
      "gia_đình ": 2004,
      "nói_chuyện với ": 2005,
      "quyết_đ": 2006,
      "1 l": 2007,
      "3 . ": 2008,
      "kỹ": 2009,
      "rú": 2010,
      "rưỡ": 2011,
      "ung ": 2012,
      "vòng ": 2013,
      "à_": 2014,
      "áng . ": 2015,
      "ệ . ": 2016,
      "ộn ": 2017,
      "nhe ": 2018,
      "kha": 2019,
      " đường ": 2020,
      " đều ": 2021,
      "ông t": 2022,
      "a , ": 2023,
      "uốc . ": 2024,
      "t_v": 2025,
      "quà": 2026,
      "ng_tâ": 2027,
      "uốn sách ": 2028,
      "nóng . ": 2029,
      "uyến ": 2030,
      "này , ": 2031,
      "tôi muốn một_ít ": 2032,
      "nh_sá": 2033,
      "khác": 2034,
      "biết . ": 2035,
      "bạn được không ? ": 2036,
      "hôn ": 2037,
      "vâng , tôi ": 2038,
      "màu x": 2039,
      "từ đâ": 2040,
      "xuất_": 2041,
      "ối_với ": 2042,
      "chúc bạn ": 2043,
      "bưu_": 2044,
      "sân_bay ": 2045,
      "rất vui ": 2046,
      "dừng lại ": 2047,
      "đi thẳng ": 2048,
      "nhau . ": 2049,
      "hút thuốc ": 2050,
      "áo_kho": 2051,
      "báo_cá": 2052,
      "xác_nhận ": 2053,
      "ẻ tín_dụng ": 2054,
      "ngoài . ": 2055,
      "úi_xá": 2056,
      "bã": 2057,
      "bởi_": 2058,
      "dễ ": 2059,
      "dãy ": 2060,
      "hình": 2061,
      "lã": 2062,
      "lặ": 2063,
      "lị": 2064,
      "nc": 2065,
      "ri": 2066,
      "rẽ tr": 2067,
      " tự": 2068,
      "nhẹ": 2069,
      "khăn ": 2070,
      "ông muốn ": 2071,
      "tôi hy_vọng ": 2072,
      "o , ": 2073,
      "iền_l": 2074,
      "xem th": 2075,
      "sẽ đi ": 2076,
      "c_đ": 2077,
      "cho chúng_tôi ": 2078,
      "ở bên ": 2079,
      "ng được không ? ": 2080,
      "đây . ": 2081,
      "hãy đ": 2082,
      "gọi lại ": 2083,
      "khách_sạn . ": 2084,
      "hai . ": 2085,
      " các bạn ": 2086,
      "bỏ ": 2087,
      "bản_đồ": 2088,
      "gần nhất ở đâu ? ": 2089,
      "séc ": 2090,
      "ề_ngh": 2091,
      "khoai_t": 2092,
      "2 . ": 2093,
      "7 . ": 2094,
      "d . ": 2095,
      "da . ": 2096,
      "fra": 2097,
      "hồ ": 2098,
      "kem ": 2099,
      "pi": 2100,
      "uế": 2101,
      "vương ": 2102,
      "ô . ": 2103,
      "ấp_": 2104,
      "ẩn_th": 2105,
      "ố_": 2106,
      "ợ ": 2107,
      "tôi có": 2108,
      " tôi có_thể": 2109,
      "xem . ": 2110,
      "sai ": 2111,
      "chúng_tôi có_thể ": 2112,
      "biết đ": 2113,
      "sách": 2114,
      "đây là": 2115,
      "chứng_": 2116,
      "năm nay ": 2117,
      "như vậy . ": 2118,
      "tôi có_thể có ": 2119,
      " đây không ? ": 2120,
      "chính ": 2121,
      " tối nay ": 2122,
      "hoạt_đ": 2123,
      "ái_c": 2124,
      "bằng cách nào ? ": 2125,
      "nổi_t": 2126,
      ", được không ? ": 2127,
      "0 . ": 2128,
      "sức ": 2129,
      "t_th": 2130,
      "tầng ": 2131,
      "vệ_": 2132,
      "đả": 2133,
      "chăm_": 2134,
      " đó . ": 2135,
      "làm . ": 2136,
      " thì": 2137,
      "iệu": 2138,
      "xe . ": 2139,
      "chúng_ta đ": 2140,
      "cho tôi biết ": 2141,
      "học_t": 2142,
      "u_n": 2143,
      "iển ": 2144,
      "ương_l": 2145,
      "này đến ": 2146,
      "được , ": 2147,
      "xe_hơi ": 2148,
      "quốc_": 2149,
      "chí ": 2150,
      "sắp": 2151,
      "dự_": 2152,
      "sinh_nhật": 2153,
      " trả ": 2154,
      "nằm ở đâu ? ": 2155,
      "bạn có_thể cho tôi biết ": 2156,
      "như thế ": 2157,
      "bao_gồm ": 2158,
      "dậy ": 2159,
      "a c": 2160,
      "cứ ": 2161,
      "en . ": 2162,
      "nạn ": 2163,
      "xuố": 2164,
      "áng_": 2165,
      "ầy ": 2166,
      "ồ , ": 2167,
      "ở tr": 2168,
      "chi_": 2169,
      "nh_th": 2170,
      "t_hàng ": 2171,
      "xe_đ": 2172,
      "nó sẽ ": 2173,
      " có t": 2174,
      "làm gì ": 2175,
      " cái đ": 2176,
      "những người ": 2177,
      "chuyến du_lịch ": 2178,
      "hôm_qua ": 2179,
      " cả ": 2180,
      " cảm_th": 2181,
      "giải_th": 2182,
      "buổi tối ": 2183,
      "n_trai ": 2184,
      "xin hỏi , ": 2185,
      "vẫn còn ": 2186,
      " tìm ": 2187,
      "nhìn th": 2188,
      "giao": 2189,
      "uyệt_v": 2190,
      "đây có phải là ": 2191,
      "nghỉ_ngơi ": 2192,
      "hãng hàng_không ": 2193,
      "biểu_diễn ": 2194,
      "_a": 2195,
      "cuộc ": 2196,
      "dưới ": 2197,
      "il": 2198,
      "liên_": 2199,
      "m đến ": 2200,
      "rửa ": 2201,
      "shi": 2202,
      "tiền_": 2203,
      "xu . ": 2204,
      "ạo ": 2205,
      "ngồ": 2206,
      "chả": 2207,
      "tôi bị đ": 2208,
      "thời_tiết ": 2209,
      "và t": 2210,
      "trông ": 2211,
      "i_nạn ": 2212,
      "cho tôi được không ? ": 2213,
      "hàng đ": 2214,
      " cái này . ": 2215,
      " cách": 2216,
      "nào . ": 2217,
      "rất tốt ": 2218,
      "sinh": 2219,
      "chín ": 2220,
      "quầy ": 2221,
      "ba mươi ": 2222,
      "phụ_": 2223,
      "ton . ": 2224,
      "xe_lửa": 2225,
      " thuê ": 2226,
      "bưu_đ": 2227,
      "our ": 2228,
      "việt_nam ": 2229,
      "quốc_tế": 2230,
      "uối_cùng ": 2231,
      "hướng_dẫn_viên ": 2232,
      "ai . ": 2233,
      "bứ": 2234,
      "bơi ": 2235,
      "c tôi ": 2236,
      "ea": 2237,
      "hạn ": 2238,
      "lối ": 2239,
      "oả": 2240,
      "răng ": 2241,
      "tiệ": 2242,
      "ter": 2243,
      "đợi ": 2244,
      "ắm . ": 2245,
      "ộng . ": 2246,
      "i , ": 2247,
      "chân ": 2248,
      " đón ": 2249,
      "_toán ": 2250,
      "bạn nói ": 2251,
      " thì sao ? ": 2252,
      "giỏi ": 2253,
      "thức_ăn ": 2254,
      "là ngày ": 2255,
      "sẽ đến ": 2256,
      "nó đến ": 2257,
      "cho tôi xem ": 2258,
      "phải . ": 2259,
      "này ? ": 2260,
      " của ông ": 2261,
      "rất nhiều . ": 2262,
      "ất_cá": 2263,
      "kiến ": 2264,
      " để đến ": 2265,
      "lại đ": 2266,
      "nhất ? ": 2267,
      "xin_lỗi , nhưng ": 2268,
      "quan_tr": 2269,
      "am_gia ": 2270,
      "mắc ": 2271,
      "cắt ": 2272,
      "xếp ": 2273,
      "ủ_tục ": 2274,
      "xe taxi ": 2275,
      "khoai_tây ": 2276,
      "cuộ": 2277,
      "lo_l": 2278,
      "m được ": 2279,
      "par": 2280,
      "văn ": 2281,
      "ạc ": 2282,
      "ạp_": 2283,
      "ẻ_": 2284,
      "i không ? ": 2285,
      "ngắn ": 2286,
      "chất_l": 2287,
      "khắ": 2288,
      "khứ_": 2289,
      " đêm ": 2290,
      "có_l": 2291,
      "phổ_": 2292,
      ", không ": 2293,
      "theo": 2294,
      "nói . ": 2295,
      "san_": 2296,
      "ở đây có ": 2297,
      "một trong ": 2298,
      "một_vài ": 2299,
      "n đi ": 2300,
      "này tôi ": 2301,
      " lúc ": 2302,
      "nhà tôi ": 2303,
      "mấy giờ": 2304,
      "tôi không có ": 2305,
      "món quà ": 2306,
      "nước . ": 2307,
      ", thưa ": 2308,
      "nhỏ . ": 2309,
      "khỏe": 2310,
      "miễn th": 2311,
      "xảy_ra ": 2312,
      "chậm ": 2313,
      "chuẩn_bị ": 2314,
      "sẵn_sàng ": 2315,
      "ông_tin ": 2316,
      "phổ_biến ": 2317,
      "-l": 2318,
      "34": 2319,
      "6 . ": 2320,
      "_giá": 2321,
      "ax": 2322,
      "au . ": 2323,
      "d ": 2324,
      "ký ": 2325,
      "re": 2326,
      "tới . ": 2327,
      "us": 2328,
      "vương_": 2329,
      "xuyên ": 2330,
      "áy ": 2331,
      "ãn ": 2332,
      "ại_l": 2333,
      "ỏ ": 2334,
      "ỗi . ": 2335,
      " tà": 2336,
      " tờ ": 2337,
      " đô_la . ": 2338,
      "tôi biết ": 2339,
      "phương ": 2340,
      " thật ": 2341,
      "giù": 2342,
      "thành_phố ": 2343,
      "thưa ông ": 2344,
      "xem_": 2345,
      "hoá": 2346,
      "bạn có_thể giới_thiệu ": 2347,
      "chiếu ": 2348,
      "1 chút ": 2349,
      "lần đ": 2350,
      "chính_": 2351,
      "nghỉ_ph": 2352,
      "cag": 2353,
      "bạn thích": 2354,
      "iếp_t": 2355,
      " đồng_": 2356,
      "khó_": 2357,
      "ồng_hồ": 2358,
      "chicag": 2359,
      "nhiệt_đ": 2360,
      "ăng_ký": 2361,
      "văn_phòng ": 2362,
      "phục_vụ ": 2363,
      "tokyo ": 2364,
      "máy_t": 2365,
      "chìa khóa ": 2366,
      ", cám_ơn ": 2367,
      "úc_x": 2368,
      "15": 2369,
      "1 . ": 2370,
      "an_toàn ": 2371,
      "cà_phê ": 2372,
      "for": 2373,
      "gộ": 2374,
      "mình . ": 2375,
      "tá": 2376,
      "àn_": 2377,
      "óc": 2378,
      "ôn_": 2379,
      "đưa ": 2380,
      "đi đến ": 2381,
      "ầm . ": 2382,
      "ền ": 2383,
      "ngã": 2384,
      "ngel": 2385,
      "bạn phải ": 2386,
      " thứ ": 2387,
      "_lạ": 2388,
      "vào . ": 2389,
      "ba . ": 2390,
      "này không ": 2391,
      "anh không ? ": 2392,
      "học đ": 2393,
      "nhật không ? ": 2394,
      "phòng của tôi ": 2395,
      "hoa . ": 2396,
      "cả ": 2397,
      " , nhưng ": 2398,
      " đó là ": 2399,
      "chức ": 2400,
      "may_": 2401,
      "sinh . ": 2402,
      " trước khi ": 2403,
      "vừa_": 2404,
      "một cuộc ": 2405,
      "ường đến ": 2406,
      "ng_cửa ": 2407,
      "hãy để tôi ": 2408,
      "phía trước ": 2409,
      "kết_hôn ": 2410,
      "ghế ": 2411,
      "bằng đường_": 2412,
      "hộ_chiếu": 2413,
      "dịch_vụ ": 2414,
      "nguyễ": 2415,
      "va_l": 2416,
      "ncis": 2417,
      "francis": 2418,
      "7 giờ ": 2419,
      "8 . ": 2420,
      "_nhiên ": 2421,
      "băng ": 2422,
      "dầu ": 2423,
      "hủ": 2424,
      "môn ": 2425,
      "s . ": 2426,
      "t tr": 2427,
      "uận ": 2428,
      "y c": 2429,
      "ít ": 2430,
      "ức . ": 2431,
      "chữ ": 2432,
      "tôi chỉ ": 2433,
      "bạn biết ": 2434,
      "thì": 2435,
      "và c": 2436,
      "trái ": 2437,
      " đến đó ": 2438,
      "khám ": 2439,
      "ăn phòng ": 2440,
      "vào ngày_mai . ": 2441,
      "hai vé ": 2442,
      "rất tốt . ": 2443,
      "hai đ": 2444,
      "nhà_ga ": 2445,
      "nhà_vệ_": 2446,
      "lạnh . ": 2447,
      "gặp": 2448,
      "quản_l": 2449,
      "nơi nào": 2450,
      "tôi muốn đi đến ": 2451,
      " tìm thấy ": 2452,
      "sinh_viên ": 2453,
      "công_viên ": 2454,
      "ập_t": 2455,
      "iếp_theo ": 2456,
      "hay_là ": 2457,
      "chiều . ": 2458,
      "ạm_biệt ": 2459,
      "ầy_giá": 2460,
      "ố_g": 2461,
      "bình": 2462,
      "bình_": 2463,
      "em_": 2464,
      "hứ": 2465,
      "lễ": 2466,
      "mo": 2467,
      "so": 2468,
      "u_t": 2469,
      "uật ": 2470,
      "vô": 2471,
      "ân_t": 2472,
      "đều ": 2473,
      "ảnh . ": 2474,
      "ề ": 2475,
      "chi ": 2476,
      "chiên ": 2477,
      " cơ_": 2478,
      " tôi đã ": 2479,
      "_tha": 2480,
      "m không ? ": 2481,
      ", xin ": 2482,
      "thư ": 2483,
      "thuê ": 2484,
      " trung_quố": 2485,
      "một ngày ": 2486,
      "cho tôi không ? ": 2487,
      "vui ": 2488,
      "hành_": 2489,
      " được chứ ? ": 2490,
      "chuyên_": 2491,
      "nhập_": 2492,
      "phòng của tôi . ": 2493,
      ", tôi không ": 2494,
      "iền vào ": 2495,
      "bạn có_thể giúp tôi ": 2496,
      " của tôi là ": 2497,
      "xin vui_lòng gửi ": 2498,
      "rồi chưa ? ": 2499,
      "ngày 2": 2500,
      "được rồi , ": 2501,
      "giá_tr": 2502,
      "nữ ": 2503,
      "nữa": 2504,
      "rất thích ": 2505,
      "u đó . ": 2506,
      "làm_việ": 2507,
      "tôi có_thể th": 2508,
      "ích . ": 2509,
      "giải_": 2510,
      "làm_ơn cho tôi một ": 2511,
      "sắp ": 2512,
      "lên . ": 2513,
      "bao_lâu": 2514,
      "bây_giờ là ": 2515,
      "chị_": 2516,
      "hôm_nay tôi ": 2517,
      "nữa không ? ": 2518,
      "cảm_thấy": 2519,
      "ông_báo ": 2520,
      "sản ": 2521,
      "os_a": 2522,
      "nước_ngoài ": 2523,
      "ghé": 2524,
      "tôi muốn thuê ": 2525,
      "bản_đồ ": 2526,
      "bây_giờ tôi ": 2527,
      "à_phê . ": 2528,
      "mệt ": 2529,
      "giáo_viên ": 2530,
      "khu_vực ": 2531,
      "giao_th": 2532,
      "gội đ": 2533,
      "ngeles": 2534,
      "os_angeles": 2535,
      "_r": 2536,
      "cũng đ": 2537,
      "kính ": 2538,
      "lầu ": 2539,
      "liệu ": 2540,
      "nặng ": 2541,
      "vẽ ": 2542,
      "ú ": 2543,
      "đôi ": 2544,
      "được . ": 2545,
      "ấp": 2546,
      "ọng . ": 2547,
      "ở t": 2548,
      "ực": 2549,
      "chồng ": 2550,
      "chấp_": 2551,
      "nhờ ": 2552,
      "tôi bị": 2553,
      "có t": 2554,
      "thường ": 2555,
      "tham_quan ": 2556,
      "iện . ": 2557,
      "trường ": 2558,
      "trường_": 2559,
      "anh ? ": 2560,
      "iêu_": 2561,
      "ng được ": 2562,
      "phòng số ": 2563,
      "của ông ": 2564,
      "nói với ": 2565,
      "mua đ": 2566,
      "tôi có_thể xem ": 2567,
      "anh ta . ": 2568,
      "ực_sự ": 2569,
      "xe_buýt": 2570,
      "gặp bạn ": 2571,
      "tôi muốn đổi ": 2572,
      "nhiều th": 2573,
      "cô ấy": 2574,
      "con đường ": 2575,
      "mỹ ": 2576,
      "bất_cứ": 2577,
      " công_việc ": 2578,
      "ghi ": 2579,
      "xem cái ": 2580,
      "hợp với ": 2581,
      "iều đó ": 2582,
      "iện_thoại . ": 2583,
      "ăn cơm ": 2584,
      "miệng ": 2585,
      "phần_tr": 2586,
      "nổi_tiếng ": 2587,
      " cảm_thấy ": 2588,
      "chất_lượng ": 2589,
      "francisc": 2590,
      "bè": 2591,
      "bé": 2592,
      "bế": 2593,
      "cửa_sổ": 2594,
      "kê": 2595,
      "los_angeles": 2596,
      "mụ": 2597,
      "o tr": 2598,
      "tờ ": 2599,
      "xa": 2600,
      "áp ": 2601,
      "ơ ": 2602,
      "ải ": 2603,
      "ể_tha": 2604,
      "ệ_th": 2605,
      "ở trên ": 2606,
      "ụng . ": 2607,
      "ửa . ": 2608,
      "chơi . ": 2609,
      "khẩ": 2610,
      "là tôi ": 2611,
      " tham_quan ": 2612,
      "thứ_": 2613,
      "ba_": 2614,
      "làm_ơn hãy ": 2615,
      "ăn tối ": 2616,
      "cá ": 2617,
      "vật ": 2618,
      "đây": 2619,
      "chiếc t": 2620,
      "ngoại_": 2621,
      "tôi không biết ": 2622,
      "e rằng ": 2623,
      "như vậ": 2624,
      " cả . ": 2625,
      ", thì ": 2626,
      "kiểu t": 2627,
      "mặt . ": 2628,
      "mang cho tôi ": 2629,
      "mang theo ": 2630,
      "sắp_": 2631,
      "mà nói ": 2632,
      "con_": 2633,
      " đặc_biệ": 2634,
      "ngay": 2635,
      "hướng_dẫn ": 2636,
      "mươi đô_la ": 2637,
      "khởi_hành ": 2638,
      "ý_kiến ": 2639,
      "boston ": 2640,
      "quanh đây không ? ": 2641,
      "u_điện_ngầm ": 2642,
      "kế_hoạch ": 2643,
      "ng_tâm th": 2644,
      "1 tuần ": 2645,
      "_s": 2646,
      "cuối ": 2647,
      "há": 2648,
      "mớ": 2649,
      "mi ": 2650,
      "mong ": 2651,
      "nú": 2652,
      "nấ": 2653,
      "tin ": 2654,
      "xu ": 2655,
      "àng . ": 2656,
      "ông_th": 2657,
      "ăm": 2658,
      "ơn_": 2659,
      "ổn ": 2660,
      "ổi đ": 2661,
      "ửa t": 2662,
      "ngọ": 2663,
      " tên ": 2664,
      "nhe . ": 2665,
      "tôi vẫn ": 2666,
      "giới ": 2667,
      "cho ông ": 2668,
      "sao . ": 2669,
      "nó ở ": 2670,
      "cái đ": 2671,
      " lên ": 2672,
      "hai tr": 2673,
      "000": 2674,
      "cái này": 2675,
      "tốt_nghiệ": 2676,
      "bên trong ": 2677,
      "sự_": 2678,
      "hộp ": 2679,
      "mặt": 2680,
      "giá bao_nhiêu ? ": 2681,
      "ời_gia": 2682,
      "pháp ": 2683,
      "yêu ": 2684,
      "mất bao_lâu ? ": 2685,
      "mỗi ngày ": 2686,
      " đồng . ": 2687,
      "hôm_nay": 2688,
      "ở đó . ": 2689,
      "giống như ": 2690,
      "bảo_đả": 2691,
      "học_sinh ": 2692,
      " tuổi ? ": 2693,
      "mùa hè": 2694,
      "bắc_kinh ": 2695,
      "bệnh_viện ": 2696,
      "ưa tôi đến ": 2697,
      "úi_xách": 2698,
      "lịch_": 2699,
      ", thưa ông . ": 2700,
      "va_li ": 2701,
      "11 ": 2702,
      "25": 2703,
      "8 giờ ": 2704,
      "bình ": 2705,
      "em": 2706,
      "hồi ": 2707,
      "hòa ": 2708,
      "lố": 2709,
      "lễ ": 2710,
      "suố": 2711,
      "xăng ": 2712,
      "à . ": 2713,
      "á . ": 2714,
      "âu_": 2715,
      "điều ": 2716,
      "ĩa ": 2717,
      "ạc_": 2718,
      "ống_": 2719,
      "ủi ": 2720,
      "nh_t": 2721,
      "ôi giày ": 2722,
      "bạn cần ": 2723,
      "có . ": 2724,
      "phù": 2725,
      "giữa ": 2726,
      "thích": 2727,
      "thử ": 2728,
      "ượng_": 2729,
      "iếng . ": 2730,
      "chúc_": 2731,
      "một bàn ": 2732,
      "xem t": 2733,
      "ngày th": 2734,
      "xin ông ": 2735,
      "xin mời ": 2736,
      "ở phía ": 2737,
      " có th": 2738,
      " thế ": 2739,
      "a đông ": 2740,
      "gì đó": 2741,
      "năm 1": 2742,
      "chiếc xe ": 2743,
      "chúng_ta sẽ ": 2744,
      "chắc ": 2745,
      "quan_tâ": 2746,
      "tôi sẽ đi ": 2747,
      "chúng_ta có_thể ": 2748,
      "mọi thứ": 2749,
      "hôm_nay . ": 2750,
      "hôm_nay th": 2751,
      " tối nay . ": 2752,
      "ời_tiế": 2753,
      "hoàn_toàn ": 2754,
      "hướng ": 2755,
      "rất vui được ": 2756,
      "vợ ": 2757,
      "hil": 2758,
      "sản_phẩm ": 2759,
      "quyển sách ": 2760,
      "biết tên ": 2761,
      "riêng ": 2762,
      "bò ": 2763,
      "áo_khoác ": 2764,
      "rẽ trái ": 2765,
      "ề_nghị ": 2766,
      "nhìn thấy ": 2767,
      "bưu_điện ": 2768,
      "hủy ": 2769,
      "15 ": 2770,
      "3 tháng ": 2771,
      "9 . ": 2772,
      "dọ": 2773,
      "dây ": 2774,
      "dường_": 2775,
      "en": 2776,
      "hiệu ": 2777,
      "ja": 2778,
      "kẹ": 2779,
      "nối ": 2780,
      "rẽ ": 2781,
      "áo . ": 2782,
      "ôn . ": 2783,
      "ơm ": 2784,
      "ả ": 2785,
      "ật_": 2786,
      "ngắ": 2787,
      " tiể": 2788,
      "chữ": 2789,
      "nh th": 2790,
      " độ": 2791,
      " cuộc ": 2792,
      "không đi ": 2793,
      "bạn t": 2794,
      "bạn làm ": 2795,
      "phiếu ": 2796,
      " thời_tiết ": 2797,
      "thì sao ? ": 2798,
      "ược đ": 2799,
      "là ai ? ": 2800,
      "quý ": 2801,
      "vàng ": 2802,
      "i đường ": 2803,
      "trễ ": 2804,
      " của th": 2805,
      "ban_đ": 2806,
      " đâu . ": 2807,
      "nói đ": 2808,
      "anh_toán ": 2809,
      "ở chỗ ": 2810,
      "gì cho ": 2811,
      "số_": 2812,
      "một tuần ": 2813,
      "và một ": 2814,
      "bạn có_thể gửi ": 2815,
      "năm_": 2816,
      "tôi có_thể lấy ": 2817,
      "được rồi ": 2818,
      "mà . ": 2819,
      "giá_": 2820,
      "về nhà ": 2821,
      "bộ_ph": 2822,
      "a tiệ": 2823,
      ", thật ": 2824,
      "hội_": 2825,
      "xe_buýt . ": 2826,
      "tôi sẽ đến ": 2827,
      "mất bao_lâu": 2828,
      "biển . ": 2829,
      "bộ phim ": 2830,
      "quần_vợ": 2831,
      "luôn ": 2832,
      "nhận được ": 2833,
      "tổng_cộng ": 2834,
      "ông ta ": 2835,
      "báo_cáo ": 2836,
      "lặn ": 2837,
      "ất_cánh ": 2838,
      "san_francisc": 2839,
      "50": 2840,
      "bức ": 2841,
      "cỡ ": 2842,
      "cấp ": 2843,
      "dặ": 2844,
      "do ": 2845,
      "du_": 2846,
      "eo . ": 2847,
      "fax": 2848,
      "hán ": 2849,
      "u_tr": 2850,
      "vũ": 2851,
      "y đến ": 2852,
      "ây": 2853,
      "ớt ": 2854,
      "ở th": 2855,
      "ngô": 2856,
      "chá": 2857,
      "châu ": 2858,
      "tôi tên ": 2859,
      "là c": 2860,
      "chú_": 2861,
      "quần ": 2862,
      "có , tôi ": 2863,
      " của t": 2864,
      "iều đó . ": 2865,
      "nó trong ": 2866,
      "cho hai ": 2867,
      "cho chuyến bay ": 2868,
      "anh muốn ": 2869,
      "anh đi ": 2870,
      "ngành ": 2871,
      "như thế_nào ": 2872,
      " có một ": 2873,
      " đến . ": 2874,
      "nam . ": 2875,
      "ăn sáng ": 2876,
      "việc_": 2877,
      " thế ? ": 2878,
      " lần ": 2879,
      " loại ": 2880,
      "00 . ": 2881,
      "nào đến ": 2882,
      "chiếc áo ": 2883,
      "chúng_ta hãy ": 2884,
      "làm_ăn ": 2885,
      "tôi có_thể đổi ": 2886,
      " của bạn không ? ": 2887,
      "máy_ảnh ": 2888,
      "phát ": 2889,
      "chào ông ": 2890,
      "iễn ": 2891,
      "quần_áo": 2892,
      "mắt ": 2893,
      "dạo ": 2894,
      "giao ": 2895,
      "bất_kỳ ": 2896,
      "suy_": 2897,
      " trở_": 2898,
      "chụp hình ": 2899,
      "công_việc ": 2900,
      "bạn_bè": 2901,
      "vì tôi ": 2902,
      "rất đẹp . ": 2903,
      "bóng_": 2904,
      "vào thứ_": 2905,
      "bận . ": 2906,
      "bao_lâu rồi ? ": 2907,
      "chương_trình ": 2908,
      "giám_đốc ": 2909,
      "giấy_": 2910,
      "bởi_vì ": 2911,
      "hoạt_động ": 2912,
      "em_gái ": 2913,
      "ượng_hả": 2914,
      "chúc_mừng ": 2915,
      "bộ_phận ": 2916,
      "ck": 2917,
      "cù": 2918,
      "dân ": 2919,
      "may ": 2920,
      "sơ_": 2921,
      "t có ": 2922,
      "t tiền ": 2923,
      "xà": 2924,
      "âu_l": 2925,
      "ăng . ": 2926,
      "ạt ": 2927,
      "ặng . ": 2928,
      "ởi ": 2929,
      "nhó": 2930,
      "nh c": 2931,
      "khi đ": 2932,
      " cuộ": 2933,
      "có cái ": 2934,
      ", nếu ": 2935,
      "thẻ ": 2936,
      "i đâu ": 2937,
      " đâu ": 2938,
      "nào vậy ? ": 2939,
      "sau đó": 2940,
      "nghiê": 2941,
      "ở đâu": 2942,
      " của anh ": 2943,
      "nó không ": 2944,
      "khoẻ . ": 2945,
      "vào sáng ": 2946,
      "năm t": 2947,
      "những gì": 2948,
      "000 ": 2949,
      "cái này . ": 2950,
      "đây là th": 2951,
      "màu tr": 2952,
      "1 chú": 2953,
      "nướng ": 2954,
      "xin_lỗi . ": 2955,
      "vâng ,": 2956,
      "minh_": 2957,
      "mời bạn ": 2958,
      "phố ": 2959,
      "hiểu . ": 2960,
      "chúng_ta c": 2961,
      "gọi điện ": 2962,
      "nhật_bản không ? ": 2963,
      "hạnh_": 2964,
      "dị_": 2965,
      "bắt_đầu": 2966,
      "dạy ": 2967,
      " trả tiền ": 2968,
      "khỏe ": 2969,
      "ký_t": 2970,
      "người đàn_": 2971,
      "như thế . ": 2972,
      "ôla . ": 2973,
      "khởi_hành": 2974,
      "cách đây ": 2975,
      "học tiếng hoa ": 2976,
      "cho_nên ": 2977,
      "ở đằng kia . ": 2978,
      "bữa tiệ": 2979,
      "rưỡi ": 2980,
      "xác_nhận lại ": 2981,
      "học_tập ": 2982,
      "tôi bị đau ": 2983,
      "ngã_t": 2984,
      "ố_gắng ": 2985,
      "lịch_sử": 2986,
      "phù_": 2987,
      "năm_ngo": 2988,
      "âu_lạc_": 2989,
      " và ": 2990,
      "6 giờ ": 2991,
      "_nộ": 2992,
      "_nhân ": 2993,
      "ab": 2994,
      "em_tr": 2995,
      "hệ ": 2996,
      "kiế": 2997,
      "lương ": 2998,
      "liệu": 2999,
      "mũ": 3000,
      "mố": 3001,
      "rơi ": 3002,
      "tt": 3003,
      "uế ": 3004,
      "vườ": 3005,
      "ét ": 3006,
      "ô , ": 3007,
      "úng . ": 3008,
      "đồ": 3009,
      "đón ": 3010,
      "ưa . ": 3011,
      "ật đ": 3012,
      "ỷ_": 3013,
      " từng ": 3014,
      "tôi học ": 3015,
      "bạn nghĩ ": 3016,
      "là cái ": 3017,
      " thôi . ": 3018,
      "_thương ": 3019,
      "giặ": 3020,
      "ược": 3021,
      "là bạn ": 3022,
      "qua đ": 3023,
      "xe của tôi ": 3024,
      "hà_nộ": 3025,
      "chúng_tôi . ": 3026,
      "iêu_th": 3027,
      "người ? ": 3028,
      "bao_giờ ": 3029,
      " lớn ": 3030,
      "tôi có_thể dùng ": 3031,
      "n_thành ": 3032,
      "ân_đ": 3033,
      "ra , ": 3034,
      "còn về ": 3035,
      "ại_d": 3036,
      "hay th": 3037,
      "bạn có t": 3038,
      "bạn có đ": 3039,
      ", thì": 3040,
      "mời ông ": 3041,
      "àng tốt . ": 3042,
      "ời_gian . ": 3043,
      "sắc ": 3044,
      "gặp lại ": 3045,
      "vừa": 3046,
      "phim . ": 3047,
      "chúng_ta có_thể": 3048,
      "ịa_đ": 3049,
      "ở đó": 3050,
      "công_tác ": 3051,
      "thật không ": 3052,
      " đặt phòng ": 3053,
      "trước . ": 3054,
      " thuậ": 3055,
      "trung_quốc . ": 3056,
      "một trăm ": 3057,
      "nhé ": 3058,
      "hút thuốc": 3059,
      "kéo ": 3060,
      " thực_hiện ": 3061,
      "miễn_": 3062,
      "lái xe ": 3063,
      "giúp_đỡ": 3064,
      "chính_xá": 3065,
      "4 . ": 3066,
      "a tr": 3067,
      "ang đi ": 3068,
      "bông ": 3069,
      "cò": 3070,
      "len ": 3071,
      "liên_l": 3072,
      "m trên ": 3073,
      "móng ": 3074,
      "rã": 3075,
      "ra_": 3076,
      "rộng ": 3077,
      "sơn ": 3078,
      "xúc_x": 3079,
      "ò_": 3080,
      "ận . ": 3081,
      "ịch ": 3082,
      "ục": 3083,
      "ngữ": 3084,
      "ngôi ": 3085,
      "ngữ ": 3086,
      "khu": 3087,
      "không đến ": 3088,
      " tôi sẽ ": 3089,
      "ược th": 3090,
      "n_nh": 3091,
      "ng_tâm ": 3092,
      "cho t": 3093,
      "sẽ đ": 3094,
      "c_sống ": 3095,
      "tôi muốn dùng ": 3096,
      "nam_": 3097,
      "vận_": 3098,
      "mua th": 3099,
      "năm": 3100,
      "hai tuần ": 3101,
      "ặt chỗ": 3102,
      "chiếc đ": 3103,
      "nghĩa ": 3104,
      "bị m": 3105,
      "năm mươi ": 3106,
      "khách_sạn hil": 3107,
      "tôi sẽ dùng ": 3108,
      "c tại ": 3109,
      "quá , ": 3110,
      "_dà": 3111,
      "ngày_càng ": 3112,
      " tốt không ? ": 3113,
      " tốt hơn ": 3114,
      "nhất là ": 3115,
      "quá đ": 3116,
      "tôi nghĩ rằng ": 3117,
      " tai_nạn ": 3118,
      "cảm_ơn bạn ": 3119,
      "dạ_dà": 3120,
      "ngay bây_giờ . ": 3121,
      "một lá": 3122,
      "nội_": 3123,
      "bạn_gái ": 3124,
      "ổ_chức ": 3125,
      " được t": 3126,
      "lưu_n": 3127,
      "sản_xu": 3128,
      "mẫu đ": 3129,
      "new_york . ": 3130,
      "dịch_vụ": 3131,
      "rẻ hơn ": 3132,
      "sạch ": 3133,
      "cổng ": 3134,
      "ú_vị . ": 3135,
      "phong_cả": 3136,
      "kế bên ": 3137,
      "quyết_định ": 3138,
      "ẩn_thận ": 3139,
      "tôi có cần ": 3140,
      "lần đầu_tiên ": 3141,
      "kiểu tóc ": 3142,
      "người đàn_ông ": 3143,
      ", cũng ": 3144,
      "20 ": 3145,
      "ang . ": 3146,
      "ai đó ": 3147,
      "bo": 3148,
      "ge": 3149,
      "jo": 3150,
      "ll": 3151,
      "má ": 3152,
      "m trong ": 3153,
      "nè": 3154,
      "no ": 3155,
      "p t": 3156,
      "rảnh ": 3157,
      "t của ": 3158,
      "uk": 3159,
      "vùng ": 3160,
      "ách": 3161,
      "ách ": 3162,
      "òng_": 3163,
      "óc . ": 3164,
      "ị_": 3165,
      "ở tại ": 3166,
      "ựa_": 3167,
      "nhân_t": 3168,
      "khả": 3169,
      "khai ": 3170,
      "khiê": 3171,
      "ông có ": 3172,
      "ông ấy": 3173,
      "không còn ": 3174,
      "không tốt ": 3175,
      "ạn l": 3176,
      "a không ? ": 3177,
      " thay_đổi ": 3178,
      "thư": 3179,
      "thăm ": 3180,
      "n_hình ": 3181,
      "trưa ": 3182,
      "một chuyến ": 3183,
      "này rất ": 3184,
      "ngày đ": 3185,
      "chúng_tôi đã": 3186,
      "ở gó": 3187,
      "một_t": 3188,
      " đi bộ": 3189,
      "cái đó ": 3190,
      "vậy tôi ": 3191,
      "của anh ": 3192,
      "làm bằng ": 3193,
      "làm kinh_doanh ": 3194,
      " của tôi không ? ": 3195,
      "này đ": 3196,
      "cảnh_sá": 3197,
      "năng ": 3198,
      "những c": 3199,
      "_động ": 3200,
      "tôi không muốn ": 3201,
      "t tiếng ": 3202,
      "chúng_ta nên ": 3203,
      "nghĩ rằng ": 3204,
      ", tháng ": 3205,
      "loại nào ? ": 3206,
      "xe bu": 3207,
      "ường_xuyên ": 3208,
      "bạc ": 3209,
      "tôi có phải ": 3210,
      "hồng ": 3211,
      "mười đ": 3212,
      "ường đi ": 3213,
      "chị ơi ": 3214,
      "trả tiền ": 3215,
      "oàn ": 3216,
      "làm_việc ở ": 3217,
      "sinh_nhật ": 3218,
      " của các ": 3219,
      " con đường ": 3220,
      "một trăm đ": 3221,
      "hết rồi . ": 3222,
      "nhỏ hơn ": 3223,
      "1234": 3224,
      "yêu_cầu": 3225,
      "10 giờ ": 3226,
      "hợp_đ": 3227,
      "òa nhà ": 3228,
      "trung ": 3229,
      "mẫu ": 3230,
      "phục_vụ": 3231,
      "rõ ": 3232,
      "bạn có cái nào ": 3233,
      " tài_khoản ": 3234,
      "bút_": 3235,
      "giám_đố": 3236,
      "trở_lại ": 3237,
      "nước ca": 3238,
      "vui_vẻ ": 3239,
      "à_chu": 3240,
      "bãi_": 3241,
      "ẻ_em ": 3242,
      "miễn thuế": 3243,
      "may_mắ": 3244,
      "sắp_xếp ": 3245,
      "ời_gian đ": 3246,
      "bro": 3247,
      "danh": 3248,
      "dọn ": 3249,
      "hình_": 3250,
      "jal": 3251,
      "kè": 3252,
      "m của ": 3253,
      "ok": 3254,
      "oá": 3255,
      "pin ": 3256,
      "sữa ": 3257,
      "to ": 3258,
      "ver": 3259,
      "với đ": 3260,
      "áy_": 3261,
      "ãi ": 3262,
      "ép": 3263,
      "ích_": 3264,
      "đi . ": 3265,
      "địa_chỉ ": 3266,
      "ưng ": 3267,
      "ảnh_": 3268,
      "ận_đ": 3269,
      "ổng_": 3270,
      "ở c": 3271,
      " đô . ": 3272,
      "tôi chưa ": 3273,
      "bạn , ": 3274,
      "_thật ": 3275,
      ", cho_nên ": 3276,
      " trạm ": 3277,
      " truyề": 3278,
      "n_n": 3279,
      "n_r": 3280,
      "là rất ": 3281,
      "trực_t": 3282,
      "một giờ . ": 3283,
      "một ngày . ": 3284,
      "sẽ th": 3285,
      "nó đ": 3286,
      "uyện ": 3287,
      "nghề ": 3288,
      "này như thế_nào ? ": 3289,
      "chúng_tôi có_thể": 3290,
      "chúng_tôi đến ": 3291,
      "sẽ không ": 3292,
      "sốt ": 3293,
      "nay tôi ": 3294,
      "viện . ": 3295,
      "à , ": 3296,
      "phòng t": 3297,
      "phòng của bạn ": 3298,
      "bạn có_thể gọi ": 3299,
      " tối . ": 3300,
      "ngày ? ": 3301,
      "bur": 3302,
      "chuyến tà": 3303,
      "mas": 3304,
      "món tr": 3305,
      "hay . ": 3306,
      "vé khứ_": 3307,
      "lớp ": 3308,
      "bạn có_thể đổi ": 3309,
      ", đúng không ? ": 3310,
      "ành_phố . ": 3311,
      "nữa , ": 3312,
      "bán hàng ": 3313,
      "sớm . ": 3314,
      "chung ": 3315,
      "nghiệp ": 3316,
      "không phải là ": 3317,
      " đặc_biệt ": 3318,
      "dù ": 3319,
      "mười l": 3320,
      "cắt t": 3321,
      "kém ": 3322,
      "phía trước . ": 3323,
      "dài . ": 3324,
      "ăng_ký ": 3325,
      "bắc_kinh . ": 3326,
      "hộ_chiếu ": 3327,
      "mary ": 3328,
      " đi thẳng ": 3329,
      "cho đến khi ": 3330,
      "hỏi_th": 3331,
      "thật đ": 3332,
      "chương_trình": 3333,
      "mua_sắm ": 3334,
      "rượu_vang ": 3335,
      "khách_sáo ": 3336,
      "dự_báo": 3337,
      "uyệt_vời . ": 3338,
      "liên_hệ ": 3339,
      "quan_trọng ": 3340,
      "khoai_tây chiên ": 3341,
      "lo_lắng ": 3342,
      "nghỉ_phép ": 3343,
      "chicago ": 3344,
      "quản_lý ": 3345,
      "hứng_th": 3346,
      "chị_gái ": 3347,
      "gội đầu ": 3348,
      "ể_thao ": 3349,
      "dị_ứng ": 3350,
      "áy_n": 3351,
      ", trong ": 3352,
      "_hội ": 3353,
      "bơ": 3354,
      "cuối_cùng ": 3355,
      "dân_": 3356,
      "en_": 3357,
      "kĩ": 3358,
      "m_l": 3359,
      "núi ": 3360,
      "nơi đ": 3361,
      "pa": 3362,
      "ra t": 3363,
      "t_l": 3364,
      "t trong ": 3365,
      "tất_cả": 3366,
      "tiếc ": 3367,
      "u có ": 3368,
      "xung_": 3369,
      "ào ": 3370,
      "ép . ": 3371,
      "ũ ": 3372,
      "ỏ . ": 3373,
      "ối . ": 3374,
      "ôi , ": 3375,
      " đọc ": 3376,
      " cuốn ": 3377,
      " càng ": 3378,
      "phép ": 3379,
      "ượt ": 3380,
      " trông ": 3381,
      " trễ ": 3382,
      "iện_t": 3383,
      "chúng . ": 3384,
      "có việc ": 3385,
      "truyề": 3386,
      "ban ": 3387,
      "bao ": 3388,
      "nó có": 3389,
      "nó trên ": 3390,
      "có_thể cho tôi ": 3391,
      "cho người ": 3392,
      "anh_tr": 3393,
      "iêu ": 3394,
      "ng để": 3395,
      "khá ": 3396,
      "bảo ": 3397,
      "bạn được ": 3398,
      "làm xong ": 3399,
      "vào buổi ": 3400,
      " các c": 3401,
      "nhà_th": 3402,
      "vé . ": 3403,
      "bằng tiếng ": 3404,
      "tôi sẽ lấy ": 3405,
      "bên phải ": 3406,
      "máy_bay . ": 3407,
      "vé cho ": 3408,
      "hộp": 3409,
      "ực_hiện ": 3410,
      "mặc_": 3411,
      "kết_th": 3412,
      "buổi biểu_diễn ": 3413,
      "tôi đã bị ": 3414,
      "tìm thấy ": 3415,
      "họ gì ? ": 3416,
      "yên_t": 3417,
      "mất khoảng ": 3418,
      "quảng_tr": 3419,
      "nơi nào ": 3420,
      "hồ_": 3421,
      "mùa đông ": 3422,
      "ương_đ": 3423,
      "tôi là người ": 3424,
      "ường đại_học ": 3425,
      " đặt trước ": 3426,
      "bất_kỳ": 3427,
      "bác_sĩ . ": 3428,
      "mẹ tôi ": 3429,
      "cám_ơn . ": 3430,
      "luân_đ": 3431,
      "tiểu_l": 3432,
      " được đ": 3433,
      "sản_phẩ": 3434,
      "kịp ": 3435,
      "ngủ . ": 3436,
      "chủ_nhật ": 3437,
      "làm thủ_tục ": 3438,
      "chuyển đến ": 3439,
      "khoẻ không ? ": 3440,
      "_lá . ": 3441,
      "khác được không ? ": 3442,
      "có_lẽ ": 3443,
      "một trong những ": 3444,
      "nhiệt_độ ": 3445,
      "56": 3446,
      "au đ": 3447,
      "an_toà": 3448,
      "cà_phê": 3449,
      "dâ": 3450,
      "dưỡ": 3451,
      "e_": 3452,
      "hầu_": 3453,
      "k ": 3454,
      "kỷ_": 3455,
      "m_t": 3456,
      "sh": 3457,
      "sứ": 3458,
      "siêu_th": 3459,
      "tỉ": 3460,
      "tóc ": 3461,
      "tính": 3462,
      "tạm_biệt ": 3463,
      "u được không ? ": 3464,
      "vương_l": 3465,
      "zz": 3466,
      "ài_l": 3467,
      "độ": 3468,
      "ũ . ": 3469,
      "ạm t": 3470,
      "ảo_l": 3471,
      "ặc_biệt ": 3472,
      "ịnh_": 3473,
      "ồ . ": 3474,
      "ổng ": 3475,
      " ti": 3476,
      " túi ": 3477,
      " tiền . ": 3478,
      "chế": 3479,
      " cỡ ": 3480,
      "tôi tự ": 3481,
      "tôi e rằng ": 3482,
      "bạn là ": 3483,
      "có_vẻ ": 3484,
      "phong ": 3485,
      "phòng_": 3486,
      ", mà": 3487,
      ", mời ": 3488,
      "thấy ": 3489,
      "thư_": 3490,
      "ượt_t": 3491,
      "n_ngh": 3492,
      "quẹ": 3493,
      "bay t": 3494,
      "say ": 3495,
      "nghiên_": 3496,
      "tôi muốn xem ": 3497,
      "hành . ": 3498,
      "vui_lòng đ": 3499,
      "nhưng đ": 3500,
      "họ . ": 3501,
      "iên_t": 3502,
      "người_": 3503,
      "làm_ơn cho": 3504,
      "ương_t": 3505,
      "ương đ": 3506,
      "rất h": 3507,
      "hoá ": 3508,
      " tốt_đ": 3509,
      "những gì ": 3510,
      "máy đ": 3511,
      "vậy , ": 3512,
      "về đ": 3513,
      "số mấy ? ": 3514,
      "được chứ ? ": 3515,
      "hôm_qua . ": 3516,
      "tôi không thích ": 3517,
      "tôi sẽ gọi ": 3518,
      " cảnh_sá": 3519,
      "bên cạ": 3520,
      "bên trái ": 3521,
      "máy_ảnh": 3522,
      "bắt ": 3523,
      "minh . ": 3524,
      "kế_t": 3525,
      "hãy cho tôi ": 3526,
      "hay không ? ": 3527,
      "ành_công ": 3528,
      "một con ": 3529,
      "bạn_trai ": 3530,
      "trên đ": 3531,
      "tôi thường ": 3532,
      "bây_giờ không ? ": 3533,
      "mọi người đ": 3534,
      "chịu ": 3535,
      "bao_nhiêu vậy ? ": 3536,
      "u_vương ": 3537,
      "ương_m": 3538,
      "sớm c": 3539,
      " tình_": 3540,
      "cảm_ơn . ": 3541,
      "bất_cứ ": 3542,
      "với tôi không ? ": 3543,
      "rất vui . ": 3544,
      "nói tiếng hoa ": 3545,
      "công_việc": 3546,
      " được th": 3547,
      "tôi muốn đặt một ": 3548,
      "sẵn ": 3549,
      "nghỉ hư": 3550,
      "boston . ": 3551,
      "ai đó": 3552,
      "rượu_vang đ": 3553,
      "yama": 3554,
      "giúp_đỡ ": 3555,
      "sáng_mai . ": 3556,
      "khai_v": 3557,
      " cách đây ": 3558,
      "oải_": 3559,
      ", cám_ơn . ": 3560,
      "nhà_vệ_sinh ": 3561,
      "xà_lá": 3562,
      "rãnh ": 3563,
      "quảng_trường ": 3564,
      "nghiên_cứ": 3565,
      ", có": 3566,
      "-x": 3567,
      "4 giờ ": 3568,
      "_nh": 3569,
      "ang_tr": 3570,
      "bí": 3571,
      "cửa ": 3572,
      "danh_": 3573,
      "eb": 3574,
      "gà ": 3575,
      "iến ": 3576,
      "kí ": 3577,
      "lá": 3578,
      "m có ": 3579,
      "nâ": 3580,
      "rẻ": 3581,
      "ruộ": 3582,
      "sữ": 3583,
      "tiế": 3584,
      "t_tr": 3585,
      "tay ": 3586,
      "tem ": 3587,
      "tấm ": 3588,
      "tặng ": 3589,
      "vỡ": 3590,
      "vở ": 3591,
      "ào . ": 3592,
      "đương_": 3593,
      "ụng đ": 3594,
      "ực . ": 3595,
      "n phim ": 3596,
      "chó": 3597,
      "chọ": 3598,
      "nhầm ": 3599,
      " cũng đ": 3600,
      "tôi ở ": 3601,
      "là tốt ": 3602,
      "làm t": 3603,
      " tôi nên ": 3604,
      ", h": 3605,
      ", phải không ? ": 3606,
      ", sau đó ": 3607,
      "tham_": 3608,
      "ng_cả": 3609,
      "một nhà_hàng ": 3610,
      "nó được ": 3611,
      "nghệ_th": 3612,
      "này là gì ? ": 3613,
      "tôi muốn một cái ": 3614,
      "anh th": 3615,
      "anh có_thể ": 3616,
      "ở lại đ": 3617,
      "khách": 3618,
      "nó ? ": 3619,
      "nó sẽ": 3620,
      "nó rất ": 3621,
      "nak": 3622,
      "ăn món ": 3623,
      "vậy th": 3624,
      "sách . ": 3625,
      "hoãn ": 3626,
      "n được ": 3627,
      "xin vui_lòng đ": 3628,
      "xin vui_lòng gọi ": 3629,
      "những ngày ": 3630,
      "n_lợi ": 3631,
      "về . ": 3632,
      "chuyến tàu ": 3633,
      "hãy t": 3634,
      "khô ": 3635,
      "_đơn ": 3636,
      "gì để ": 3637,
      "anh ta đ": 3638,
      "chỗ cho ": 3639,
      "chỗ ngồ": 3640,
      "tôi có_thể đ": 3641,
      " của bạn là gì ? ": 3642,
      "đó không ? ": 3643,
      "mặt_hàng ": 3644,
      "hết . ": 3645,
      "chào": 3646,
      "bao_nhiêu tuổi ? ": 3647,
      "c_tiên ": 3648,
      "một cuộ": 3649,
      "xin vui_lòng cho tôi xem ": 3650,
      "vui_lòng cho tôi một ": 3651,
      "bộ phi": 3652,
      "lớn hơn ": 3653,
      "xuống xe": 3654,
      "nhạc . ": 3655,
      "hiệu_": 3656,
      "trả lại ": 3657,
      "tại khách_sạn ": 3658,
      " đặt": 3659,
      "ối_với tôi . ": 3660,
      "bưu_th": 3661,
      "ồng_hồ ": 3662,
      "tôi đến từ ": 3663,
      "trước khi ": 3664,
      "hóa ": 3665,
      "kinh_doanh . ": 3666,
      "vấn_đề . ": 3667,
      "ập th": 3668,
      "tiểu_": 3669,
      " đóng_cửa ": 3670,
      "nhất_định": 3671,
      "gia_đình . ": 3672,
      "mạng ": 3673,
      "mạnh ": 3674,
      ", còn bạn ? ": 3675,
      "new_york ": 3676,
      ": 00 ": 3677,
      "iều_kiện ": 3678,
      "của chúng_tôi . ": 3679,
      "không_những ": 3680,
      "chưa đ": 3681,
      "rất tiếc ": 3682,
      "sức_khoẻ ": 3683,
      " tự ": 3684,
      "xe_điện_ng": 3685,
      "giải_thích ": 3686,
      "khó_khăn ": 3687,
      " cơ_hội ": 3688,
      "giá_trị": 3689,
      "giao_thông ": 3690,
      "ở tầng ": 3691,
      "dường_như ": 3692,
      "giá_cả": 3693,
      "ượng_hải ": 3694,
      "những gì tôi ": 3695,
      "em_trai ": 3696,
      "liên_lạc ": 3697,
      "mẫu đơn ": 3698,
      "khiêu_v": 3699,
      "món tráng_": 3700,
      "dự_báo thời_tiết ": 3701,
      "kỷ_n": 3702,
      "đương_nhiên ": 3703,
      "\" . ": 3704,
      ", đi ": 3705,
      "17": 3706,
      "1 cái ": 3707,
      "1 tháng ": 3708,
      "12 ": 3709,
      "23": 3710,
      "25 ": 3711,
      "99 ": 3712,
      "an": 3713,
      "biên_": 3714,
      "c của ": 3715,
      "eg": 3716,
      "gu": 3717,
      "gấp ": 3718,
      "kì": 3719,
      "ly ": 3720,
      "lập ": 3721,
      "miếng ": 3722,
      "mức ": 3723,
      "nặng . ": 3724,
      "p tr": 3725,
      "sơ": 3726,
      "sấy ": 3727,
      "sóng ": 3728,
      "sợ ": 3729,
      "tủ": 3730,
      "tới đ": 3731,
      "tuyến ": 3732,
      "uý": 3733,
      "vị": 3734,
      "ân_th": 3735,
      "ăm . ": 3736,
      "đồ ": 3737,
      "ư . ": 3738,
      "ấn_": 3739,
      "ể_d": 3740,
      "ồn_": 3741,
      "ợi . ": 3742,
      "ử . ": 3743,
      " tính ": 3744,
      "nhanh . ": 3745,
      "khuyên ": 3746,
      " đôla ": 3747,
      " cuối ": 3748,
      " cất_cánh ": 3749,
      "không muốn ": 3750,
      "tôi xin ": 3751,
      "tôi nghe nói ": 3752,
      "_lập_t": 3753,
      "thôi . ": 3754,
      "thế ": 3755,
      " trống ": 3756,
      "là khi nào ? ": 3757,
      "có phải ": 3758,
      "có ai ": 3759,
      "một món quà ": 3760,
      "vui . ": 3761,
      "nào khác không ? ": 3762,
      "anh ấy . ": 3763,
      "o_đ": 3764,
      "chúng_tôi đang ": 3765,
      "iêm ": 3766,
      "ở phòng ": 3767,
      "người_l": 3768,
      "iểu_": 3769,
      "iển_l": 3770,
      "số . ": 3771,
      "với bạn . ": 3772,
      "làm_ơn gọi ": 3773,
      "làm_ơn đổi ": 3774,
      "nhận . ": 3775,
      "rất bận ": 3776,
      "một_số đ": 3777,
      "bao_giờ": 3778,
      "của bạn được không ? ": 3779,
      "nói chậm ": 3780,
      "muộn ": 3781,
      " cái . ": 3782,
      "năm th": 3783,
      " lời ": 3784,
      "mát ": 3785,
      "màu_": 3786,
      "uống tr": 3787,
      "chứ . ": 3788,
      "_điển ": 3789,
      "gì cũng ": 3790,
      "ham": 3791,
      "bạn có cần ": 3792,
      "nhà_hát ": 3793,
      " cảm ": 3794,
      "bàn_": 3795,
      "bàn . ": 3796,
      "bạn muốn dùng ": 3797,
      "vào tối ": 3798,
      "một_chút được không ? ": 3799,
      "lên máy_bay ": 3800,
      "bạn có_thể đặt ": 3801,
      "pháp . ": 3802,
      "phục ": 3803,
      "của bạn không ? ": 3804,
      "nhiều": 3805,
      "gọi điện_tho": 3806,
      "làm thế_nào ? ": 3807,
      " công_ty": 3808,
      "tối nay ": 3809,
      "không được . ": 3810,
      " cô ấy": 3811,
      "nước_ngoài . ": 3812,
      "bia . ": 3813,
      " công_việc": 3814,
      " của công_ty ": 3815,
      "bạn sẽ thấy ": 3816,
      "tại_sao bạn không ": 3817,
      "iền_mặt ": 3818,
      "tôi muốn mua một ": 3819,
      "hút thuốc . ": 3820,
      "rất đẹp ": 3821,
      "gia_đình": 3822,
      "một_số th": 3823,
      "yên . ": 3824,
      "bằng đường ": 3825,
      "trung_tâm th": 3826,
      "đây có phải ": 3827,
      "iếp_theo . ": 3828,
      "iết_k": 3829,
      "nd ": 3830,
      "bận không ? ": 3831,
      "quay lại ": 3832,
      "quốc_tế ": 3833,
      "giấy chứng_": 3834,
      ", cảm_ơn bạn . ": 3835,
      "ều có ": 3836,
      "lái xe": 3837,
      "xe tax": 3838,
      "uyết . ": 3839,
      "không_khí": 3840,
      "sở_thú": 3841,
      "vui_vẻ . ": 3842,
      "sáng_mai ": 3843,
      "chăm_s": 3844,
      "our du_lịch ": 3845,
      "paris": 3846,
      "ại_lộ ": 3847,
      "hoá_đơn ": 3848,
      "bình_th": 3849,
      "chấp_nhận ": 3850,
      "ngay_lập_t": 3851,
      "ông_thường ": 3852,
      "mùa hè ": 3853,
      "năm 19": 3854,
      "suy_nghĩ ": 3855,
      "sơ_mi ": 3856,
      "màu trắng ": 3857,
      "âu_lạc_bộ ": 3858,
      "hợp_đồng ": 3859,
      "mười lăm ": 3860,
      "sớm càng tốt . ": 3861,
      "iển_lã": 3862,
      "_còn ": 3863,
      "ay": 3864,
      "bóng ": 3865,
      "cố": 3866,
      "del": 3867,
      "em . ": 3868,
      "gra": 3869,
      "ger": 3870,
      "sú": 3871,
      "son ": 3872,
      "túi_xách": 3873,
      "web": 3874,
      "à_v": 3875,
      "ác": 3876,
      "áy . ": 3877,
      "í . ": 3878,
      "ấn_t": 3879,
      "ậu_": 3880,
      "ập . ": 3881,
      "ắc ": 3882,
      "ắc_": 3883,
      "ắt . ": 3884,
      "ặt trước ": 3885,
      "ẻ lên ": 3886,
      "ễ . ": 3887,
      "ịnh đ": 3888,
      "ời đ": 3889,
      "ứa ": 3890,
      "ức đ": 3891,
      "chó ": 3892,
      "cha_": 3893,
      "chẳng ": 3894,
      " đường_": 3895,
      "tôi phải đi ": 3896,
      "tôi rất thích ": 3897,
      "bạn còn ": 3898,
      "bạn là người ": 3899,
      "là đi ": 3900,
      " thử ": 3901,
      "_thương . ": 3902,
      "m ? ": 3903,
      "thuố": 3904,
      " trang ": 3905,
      "và tr": 3906,
      "trẻ ": 3907,
      "cho đ": 3908,
      "một giờ ": 3909,
      "ban_": 3910,
      "nào , ": 3911,
      "này ở đâu ? ": 3912,
      "anh đến ": 3913,
      " đến ? ": 3914,
      "chúng_tôi đã ": 3915,
      "ở khách_sạn ": 3916,
      " của hãng hàng_không ": 3917,
      "ng để ": 3918,
      "nó quá ": 3919,
      "nay": 3920,
      "làm_ơn tôi muốn ": 3921,
      "chuyệ": 3922,
      "vận_đ": 3923,
      ", tôi có_thể ": 3924,
      "sáu . ": 3925,
      "bạn có phiền ": 3926,
      "làm cho ": 3927,
      " tốt_nghiệ": 3928,
      "ngày hôm_nay ": 3929,
      "ngày hôm_nay . ": 3930,
      "tôi có_thể xin ": 3931,
      "trong trường_": 3932,
      "của tôi là ": 3933,
      "n_tại ": 3934,
      "giá th": 3935,
      "áng tiếc ": 3936,
      "gửi đến ": 3937,
      "hay": 3938,
      "ngày_ma": 3939,
      "sau này ": 3940,
      "vào trong ": 3941,
      "bị t": 3942,
      "ực_đơn ": 3943,
      "chính": 3944,
      "phút": 3945,
      "quay": 3946,
      "car": 3947,
      "phát_tr": 3948,
      "yêu_th": 3949,
      "dự ": 3950,
      "xin vui_lòng cho tôi một ": 3951,
      "ịa_ph": 3952,
      "công_ty tôi ": 3953,
      "nghiệp": 3954,
      "taxi ": 3955,
      "nhân_dân ": 3956,
      "ở đâu không ? ": 3957,
      "sử_dụng đ": 3958,
      "sống ở ": 3959,
      "kyo . ": 3960,
      "khỏe . ": 3961,
      "10 . ": 3962,
      "ánh_cắ": 3963,
      "hợp_l": 3964,
      "xa không ? ": 3965,
      "bữa ăn tối ": 3966,
      "tôi nghĩ tôi ": 3967,
      "iều_tr": 3968,
      "iếp_theo": 3969,
      "30 . ": 3970,
      "nd . ": 3971,
      "tokyo . ": 3972,
      "rời khỏi ": 3973,
      "phát_hành ": 3974,
      "xin chào , ": 3975,
      ", cảm_ơn . ": 3976,
      "washi": 3977,
      "kích_": 3978,
      "bồn_t": 3979,
      "khai_": 3980,
      "séc du_lịch ": 3981,
      "chi_phí": 3982,
      "uyệt_vời ": 3983,
      "vô_c": 3984,
      "xe_buýt đến ": 3985,
      "mà nói , ": 3986,
      "mới đến ": 3987,
      "nấu_": 3988,
      "một tuần . ": 3989,
      "quần_vợt ": 3990,
      "san_francisco . ": 3991,
      "ttl": 3992,
      "an_toàn . ": 3993,
      "ảo_luận ": 3994,
      "washing": 3995,
      ", cần ": 3996,
      "18": 3997,
      "32": 3998,
      "35": 3999,
      "36": 4000,
      "a trong ": 4001,
      "bước ": 4002,
      "bọn ": 4003,
      "biên_l": 4004,
      "cỡ": 4005,
      "ca ": 4006,
      "cửa_": 4007,
      "căn phòng ": 4008,
      "di": 4009,
      "dẫn ": 4010,
      "dụng ": 4011,
      "dung ": 4012,
      "go": 4013,
      "hưởng ": 4014,
      "lê": 4015,
      "lòng ": 4016,
      "lỗi ": 4017,
      "me": 4018,
      "miền ": 4019,
      "mới đ": 4020,
      "nấu ": 4021,
      "pe": 4022,
      "to . ": 4023,
      "tiền . ": 4024,
      "tám ": 4025,
      "uni": 4026,
      "vạ": 4027,
      "vết ": 4028,
      "wh": 4029,
      "xo": 4030,
      "zuk": 4031,
      "ác . ": 4032,
      "ính . ": 4033,
      "điện_thoại ": 4034,
      "ạp ": 4035,
      "ạc . ": 4036,
      "ảm_": 4037,
      "ấp . ": 4038,
      "ầu ? ": 4039,
      "ẩn ": 4040,
      "ế . ": 4041,
      "ửa đ": 4042,
      "n , ": 4043,
      "nhẫn ": 4044,
      " được . ": 4045,
      " cỡ": 4046,
      "tôi xin_lỗi ": 4047,
      "tôi hiểu ": 4048,
      "tôi cảm_thấy": 4049,
      "bạn làm_việc ": 4050,
      "có c": 4051,
      "phấn ": 4052,
      " thư ": 4053,
      " thất_l": 4054,
      "giường đ": 4055,
      ", xin vui_lòng ": 4056,
      "thầy_giá": 4057,
      "quê": 4058,
      "có những ": 4059,
      "cho_ph": 4060,
      "cho tôi một_ít ": 4061,
      "ướt ": 4062,
      "họp ": 4063,
      " có nhiều ": 4064,
      " của bạn được không ? ": 4065,
      "nó nằm ": 4066,
      "làm_ơn đến ": 4067,
      "nhận th": 4068,
      "người bạn ": 4069,
      "biết_": 4070,
      "_trường ": 4071,
      "_trình ": 4072,
      "bạn có biết": 4073,
      "bao_nhiêu đ": 4074,
      "vào khoảng ": 4075,
      "gọi đến ": 4076,
      "rồi , tôi ": 4077,
      "năm đ": 4078,
      "những cái này ": 4079,
      " trong bao_lâu ? ": 4080,
      "đây là t": 4081,
      "tốn ": 4082,
      "được , tôi ": 4083,
      "bị hư": 4084,
      "trong phòng ": 4085,
      "của tôi không ? ": 4086,
      "gọi là ": 4087,
      "gọi món ": 4088,
      "giáng_": 4089,
      "xem , ": 4090,
      "uống gì ? ": 4091,
      "còn bạn ? ": 4092,
      "ại_s": 4093,
      "xe_h": 4094,
      "gần cửa_sổ": 4095,
      "lúc bảy ": 4096,
      "làm_sao": 4097,
      "ô_la t": 4098,
      "nhà bạn ": 4099,
      " các bạn . ": 4100,
      "ồ , tôi ": 4101,
      "một_ít c": 4102,
      "đó là một ": 4103,
      "ực_sự": 4104,
      "gặp nhau ": 4105,
      "nước nào ? ": 4106,
      "rau ": 4107,
      "hợp . ": 4108,
      "ầu_th": 4109,
      "phụ_th": 4110,
      "quả_thật ": 4111,
      "hôm_nay là ": 4112,
      "y tiếng ": 4113,
      "làm tôi ": 4114,
      "hành_lý . ": 4115,
      "tốt hơn ": 4116,
      "ức_dậy ": 4117,
      "chị ấy ": 4118,
      "một chiếc xe": 4119,
      "một chiếc xe ": 4120,
      "bia ": 4121,
      " trở_l": 4122,
      "xem tr": 4123,
      "las": 4124,
      "sân_kh": 4125,
      "sân_bay . ": 4126,
      "là được . ": 4127,
      "nói tiếng nhật không ? ": 4128,
      "bạn_học ": 4129,
      "uyệt . ": 4130,
      "12 . ": 4131,
      "cửa_hàng bá": 4132,
      "chia ": 4133,
      "lưu_": 4134,
      "òa nhà": 4135,
      "mươi đô_la . ": 4136,
      "bóng_đ": 4137,
      "iết_kế ": 4138,
      "mua được ": 4139,
      "lý_t": 4140,
      "7 giờ": 4141,
      "ành_t": 4142,
      "rõ_r": 4143,
      "lifor": 4144,
      "làm phiền bạn ": 4145,
      "cho_biết ": 4146,
      "mãi ": 4147,
      "ví tiền ": 4148,
      "ở đằng kia ": 4149,
      "giấc ": 4150,
      "hiện_giờ ": 4151,
      "rút ": 4152,
      "iền_lẻ . ": 4153,
      "đây là tiền ": 4154,
      "ái_cây ": 4155,
      "chi_phí ": 4156,
      "giải_thích": 4157,
      "chảy ": 4158,
      "giùm tôi ": 4159,
      "_lạnh ": 4160,
      "phần_trăm ": 4161,
      "bé ": 4162,
      " đặc_biệt . ": 4163,
      "hai trăm đ": 4164,
      "hôm_nay thời_tiết ": 4165,
      "kẹt ": 4166,
      "du_học ": 4167,
      "chú_ý ": 4168,
      "nghiêm_tr": 4169,
      "hà_nội ": 4170,
      "nhân_tiện ": 4171,
      "bãi_biển ": 4172,
      "kèm ": 4173,
      "ận_đấu ": 4174,
      "anh_trai ": 4175,
      "kết_thúc ": 4176,
      "dưỡng ": 4177,
      "tôi tự hỏi ": 4178,
      "liforni": 4179,
      ", đến ": 4180,
      ", có_thể ": 4181,
      "5 giờ ": 4182,
      "9 giờ ": 4183,
      "_năng ": 4184,
      "ay . ": 4185,
      "bến ": 4186,
      "cường ": 4187,
      "gre": 4188,
      "kg": 4189,
      "mề": 4190,
      "mất": 4191,
      "no": 4192,
      "sông ": 4193,
      "sea": 4194,
      "t được ": 4195,
      "t tốt ": 4196,
      "tại đ": 4197,
      "tóc": 4198,
      "uổi ": 4199,
      "vis": 4200,
      "àn ": 4201,
      "ánh_th": 4202,
      "êm": 4203,
      "êm t": 4204,
      "đo": 4205,
      "đau ": 4206,
      "đối_với ": 4207,
      "ấy_": 4208,
      "ấm . ": 4209,
      "ần_th": 4210,
      "ỏi . ": 4211,
      "ỗ ": 4212,
      "ở . ": 4213,
      "ụ ": 4214,
      " tiệ": 4215,
      " tiế": 4216,
      " tấm ": 4217,
      " tới đ": 4218,
      "chiều": 4219,
      "nh được ": 4220,
      "nhức đ": 4221,
      "khiế": 4222,
      "khiến ": 4223,
      "không n": 4224,
      "không thích ": 4225,
      "tôi làm ": 4226,
      "bạn không_thể ": 4227,
      "bạn vui_lòng cho tôi ": 4228,
      "có được ": 4229,
      "có cần ": 4230,
      " tôi đi ": 4231,
      " tôi đến ": 4232,
      "phúc ": 4233,
      " thường ": 4234,
      " thẻ ": 4235,
      " theo ": 4236,
      "_lệ": 4237,
      ", anh ấy ": 4238,
      "thử": 4239,
      "thối ": 4240,
      "thời_tiế": 4241,
      "quận ": 4242,
      "i đi . ": 4243,
      "trái . ": 4244,
      "iều đó": 4245,
      "một khách_sạn ": 4246,
      "xem đ": 4247,
      "cho ba ": 4248,
      "sang đ": 4249,
      "ngành": 4250,
      " đến khách_sạn ": 4251,
      "chúng_tôi không ": 4252,
      "iểu_l": 4253,
      "số tiền ": 4254,
      "làm_ơn đừng ": 4255,
      " đi du_lịch ": 4256,
      "cá_nhân ": 4257,
      "phòng của ": 4258,
      "khi bạn ": 4259,
      "một_mình ": 4260,
      "bạn có_thể mua ": 4261,
      "nói cho tôi biết ": 4262,
      " của tôi đã ": 4263,
      "mua t": 4264,
      "xin vui_lòng cho": 4265,
      "hơn ? ": 4266,
      "những chiếc ": 4267,
      "những thứ ": 4268,
      " lắm . ": 4269,
      "máy . ": 4270,
      "hai vé": 4271,
      "cái nào ": 4272,
      "nào trong ": 4273,
      "kia": 4274,
      "giá tiền ": 4275,
      "xem phim ": 4276,
      "uống rượu ": 4277,
      "ân_hạ": 4278,
      "chứ ": 4279,
      "m thấy": 4280,
      "c đi . ": 4281,
      "món quà": 4282,
      "c tới ": 4283,
      "cần phải ": 4284,
      "nhiều hơn ": 4285,
      "vâng . ": 4286,
      "quá nhiều ": 4287,
      "chúng_ta sẽ đi ": 4288,
      "làm_quen ": 4289,
      "_dùng ": 4290,
      "quốc ": 4291,
      "lần sau ": 4292,
      "bài_t": 4293,
      "ích_th": 4294,
      "vé hạng ": 4295,
      "một_ít t": 4296,
      "bị tr": 4297,
      "đây là phòng ": 4298,
      "mới có_thể ": 4299,
      "hết_": 4300,
      "không có vấn_đề ": 4301,
      "cao_t": 4302,
      "vì vậy tôi ": 4303,
      "tôi thấy ": 4304,
      "tên là ": 4305,
      "ngày_mai không ? ": 4306,
      " công_ty . ": 4307,
      "hành_lý của bạn ": 4308,
      "quyết ": 4309,
      "ành_phố không ? ": 4310,
      "bộ quần_áo ": 4311,
      "xe_buýt nào": 4312,
      "quần_áo . ": 4313,
      "kinh_nghiệ": 4314,
      "một tờ ": 4315,
      "hoàn_thành ": 4316,
      "suzuk": 4317,
      "dùm tôi ": 4318,
      "nhất trong ": 4319,
      "bạn có_thể cho tôi biết": 4320,
      "giới_thiệu một_chút ": 4321,
      "bị đánh_cắ": 4322,
      "hãy đi ": 4323,
      "chạy nhanh ": 4324,
      "phút nữa . ": 4325,
      " từ đâ": 4326,
      " của chúng_tôi . ": 4327,
      "dự_định": 4328,
      "số điện_thoại của ": 4329,
      "chủ_nhậ": 4330,
      "này có đi đến ": 4331,
      "lắm , ": 4332,
      "chuẩn_bị": 4333,
      "uối_cù": 4334,
      "u_điện_ngầm . ": 4335,
      "chìa khó": 4336,
      "món đồ ": 4337,
      "trở_": 4338,
      "i_động ": 4339,
      "âm_nhạc ": 4340,
      "thế_nào ? ": 4341,
      "sở_thích": 4342,
      "hoan_ngh": 4343,
      "khí_h": 4344,
      "trước đây ": 4345,
      "xuống . ": 4346,
      "xuống đ": 4347,
      "phụ_nữ ": 4348,
      "xe_lửa đến ": 4349,
      "quan_trọng . ": 4350,
      "có_lẽ": 4351,
      "xem_ra ": 4352,
      "vừa_mới ": 4353,
      "bằng đường_hàng_không ": 4354,
      "iền vào mẫu đơn ": 4355,
      "cuối tuần ": 4356,
      "000 đồng ": 4357,
      "hạnh_phúc ": 4358,
      "ại_di_động ": 4359,
      "miễn_phí": 4360,
      "chính_xác ": 4361,
      "ò_chơi ": 4362,
      "ựa_chọn ": 4363,
      "liên_hệ với ": 4364,
      "mặc_dù ": 4365,
      "ương_đối ": 4366,
      "ương_mại ": 4367,
      "vô_cùng ": 4368,
      "seattl": 4369,
      "hoan_nghê": 4370,
      ", cô": 4371,
      "10000": 4372,
      "3 giờ ": 4373,
      "50 ": 4374,
      "90": 4375,
      "am": 4376,
      "cậ": 4377,
      "cuốn ": 4378,
      "công . ": 4379,
      "căn_": 4380,
      "du": 4381,
      "kiê": 4382,
      "kích_th": 4383,
      "mĩ": 4384,
      "mơ": 4385,
      "rố": 4386,
      "t để ": 4387,
      "tính ": 4388,
      "vò": 4389,
      "vi_t": 4390,
      "vị_tr": 4391,
      "viêm ": 4392,
      "xây_": 4393,
      "ách_": 4394,
      "ạc": 4395,
      "ấn_l": 4396,
      "ặt": 4397,
      "ặp ": 4398,
      "ẻ đ": 4399,
      "ế_": 4400,
      "ịnh . ": 4401,
      "ớp ": 4402,
      "ức": 4403,
      "ự ": 4404,
      "nhã": 4405,
      "nhuộ": 4406,
      "khủ": 4407,
      "khi đến ": 4408,
      " đánh_": 4409,
      "_tạ": 4410,
      "tôi họ": 4411,
      "tôi vừa ": 4412,
      "có tr": 4413,
      "có cửa_hàng ": 4414,
      "là đến ": 4415,
      " tôi cũng ": 4416,
      "phiế": 4417,
      "pho_": 4418,
      " thăm ": 4419,
      "m , ": 4420,
      "gió ": 4421,
      "giấy": 4422,
      ", nên ": 4423,
      "thị": 4424,
      "thôi ": 4425,
      "thưa ": 4426,
      "thị_tr": 4427,
      "thẻ tín_dụng ": 4428,
      "uối . ": 4429,
      "t_m": 4430,
      "chúc": 4431,
      "qua tôi ": 4432,
      "có nhà_hàng ": 4433,
      "trống ": 4434,
      "cho đêm ": 4435,
      "i_ch": 4436,
      "một phần ": 4437,
      "sẽ trở_lại ": 4438,
      "chúng_ta . ": 4439,
      "y_đ": 4440,
      "nào ở ": 4441,
      "nào gần đây không ? ": 4442,
      "hàn_": 4443,
      "học th": 4444,
      "họ đang ": 4445,
      "ở nhật_bản . ": 4446,
      "một tháng ": 4447,
      "viện_": 4448,
      " đi học ": 4449,
      "vậy": 4450,
      "phòng đơn ": 4451,
      "rất dễ": 4452,
      "rất bận . ": 4453,
      ", tôi cũng ": 4454,
      ", tôi đã ": 4455,
      "bạn có phòng ": 4456,
      "đâu ": 4457,
      "bạn có_thể mang ": 4458,
      "bạn có_thể vui_lòng cho tôi ": 4459,
      "làm việc ": 4460,
      " của tôi được không ? ": 4461,
      " cái gì ": 4462,
      "xin vui_lòng chỉ cho tôi ": 4463,
      " các th": 4464,
      " tốn ": 4465,
      "chỉnh ": 4466,
      "hôm ": 4467,
      "ất_nước ": 4468,
      "ất_nhiên ": 4469,
      "kinh_t": 4470,
      "tối . ": 4471,
      "bị bệnh ": 4472,
      "giá . ": 4473,
      "uống thuốc ": 4474,
      "việc này . ": 4475,
      "mail": 4476,
      "tôi không biết": 4477,
      "gì trong ": 4478,
      "năm mươi đô_la ": 4479,
      "ra khỏi ": 4480,
      "về nước ": 4481,
      "về nhà . ": 4482,
      "c đường ": 4483,
      "ại_sao ": 4484,
      "lúc nào": 4485,
      "làm_sao . ": 4486,
      "tôi có_thể đặt ": 4487,
      "các bạn có ": 4488,
      "các bạn đến ": 4489,
      "minh": 4490,
      " để quên ": 4491,
      "âu hỏi ": 4492,
      "a thuốc ": 4493,
      "nếu không ": 4494,
      "không có ai ": 4495,
      "buổi chiều ": 4496,
      "c theo": 4497,
      "yên_tâ": 4498,
      "phụ_tr": 4499,
      "tôi có một ": 4500,
      "tôi thực_sự ": 4501,
      "xin vui_lòng cho tôi biết ": 4502,
      "màu khác không ? ": 4503,
      "để lại ": 4504,
      "hành_lý của ": 4505,
      "hành_lý của tôi . ": 4506,
      "vẫn chưa": 4507,
      "nữa ? ": 4508,
      "sĩ ": 4509,
      "ứ_quán ": 4510,
      "khi nào bạn ": 4511,
      "xuân ": 4512,
      "một tấm ": 4513,
      "một lát ": 4514,
      "ngay đ": 4515,
      "giày": 4516,
      "dù_": 4517,
      "chuyển sang ": 4518,
      " con_": 4519,
      "n_di": 4520,
      "chụp ảnh ": 4521,
      "tự_động ": 4522,
      "học_sinh . ": 4523,
      "bà ấy ": 4524,
      "hãy c": 4525,
      "một_chút , ": 4526,
      "này thật ": 4527,
      "giúp bạn ": 4528,
      "_hối_": 4529,
      "việt_nam . ": 4530,
      "bận_r": 4531,
      "làm thủ_t": 4532,
      "một lần nữa . ": 4533,
      "phát_âm ": 4534,
      "bánh_mì": 4535,
      "sạch_": 4536,
      "viết t": 4537,
      "màu đen ": 4538,
      "anh đừng ": 4539,
      "nghỉ_ngơi . ": 4540,
      "sức_khoẻ": 4541,
      "huấn_l": 4542,
      "trước đâ": 4543,
      "ang_máy ": 4544,
      "hải_quan ": 4545,
      "1 lát ": 4546,
      "quà_t": 4547,
      "màu xanh ": 4548,
      "bưu_kiện ": 4549,
      "lãnh_": 4550,
      "chứng_minh_": 4551,
      "cuộc gọi ": 4552,
      "tiền_mặt ": 4553,
      "phụ_nữ": 4554,
      "lo_lắng . ": 4555,
      "park": 4556,
      "khỏe không ? ": 4557,
      "_giá_hối_": 4558,
      "máy_tính ": 4559,
      " trung_quốc ": 4560,
      "nhập_khẩ": 4561,
      "ba_má ": 4562,
      "như vậy": 4563,
      "suốt ": 4564,
      "ngôn_ng": 4565,
      "chúng_ta cù": 4566,
      "ngã_tư ": 4567,
      "năm_ngoái ": 4568,
      "vận_chuyển ": 4569,
      "sản_xuất ": 4570,
      "xe bus ": 4571,
      "nghề gì ? ": 4572,
      "cắt tóc ": 4573,
      "hỏi_thăm ": 4574,
      "bưu_thiếp ": 4575,
      "người_lớn ": 4576,
      "vận_động ": 4577,
      "phát_triển ": 4578,
      "whis": 4579,
      "ại_sứ_quán ": 4580,
      "xây_dự": 4581,
      ", các ": 4582,
      ", đó là ": 4583,
      "14": 4584,
      "1 c": 4585,
      "1 tí": 4586,
      "22": 4587,
      "20000": 4588,
      "bó ": 4589,
      "bụng ": 4590,
      "cẩn_thận ": 4591,
      "dư": 4592,
      "hẳ": 4593,
      "ko": 4594,
      "kể": 4595,
      "ki ": 4596,
      "lát ": 4597,
      "mé": 4598,
      "o đ": 4599,
      "rờ": 4600,
      "ra đ": 4601,
      "ra th": 4602,
      "rạp_": 4603,
      "se": 4604,
      "từng ": 4605,
      "tiễn ": 4606,
      "vẫ": 4607,
      "vai ": 4608,
      "ván ": 4609,
      "vỡ ": 4610,
      "xã": 4611,
      "áp": 4612,
      "ít_": 4613,
      "ô_t": 4614,
      "ú đ": 4615,
      "úc . ": 4616,
      "ý_t": 4617,
      "đẹp ": 4618,
      "đủ ": 4619,
      "đi đâu ? ": 4620,
      "ưu ": 4621,
      "ấu . ": 4622,
      "ầu đ": 4623,
      "ật . ": 4624,
      "ặc_biệ": 4625,
      "ồng . ": 4626,
      "ổng_cộng ": 4627,
      "ộng_": 4628,
      "ứa": 4629,
      "ứng . ": 4630,
      "ngừng ": 4631,
      " tin ": 4632,
      "nhanh_": 4633,
      "nhấn ": 4634,
      "không nên ": 4635,
      "không gặp ": 4636,
      "tôi nói ": 4637,
      "tôi mới ": 4638,
      "tôi rất vui ": 4639,
      "tôi hiểu . ": 4640,
      "bạn trông ": 4641,
      "a ? ": 4642,
      "là được ": 4643,
      " tôi nói ": 4644,
      "pha": 4645,
      " thịt ": 4646,
      ", ngày_mai ": 4647,
      ", vì vậy ": 4648,
      "thông_": 4649,
      "tham_gia ": 4650,
      "uống . ": 4651,
      "nh , ": 4652,
      " trứng ": 4653,
      "n_hiệ": 4654,
      "iệu . ": 4655,
      "quanh ": 4656,
      "có một c": 4657,
      "có bao_nhiêu ": 4658,
      "và đi ": 4659,
      "ng_tà": 4660,
      "cho th": 4661,
      "cho tr": 4662,
      "i_su": 4663,
      "i_hạn ": 4664,
      " của đ": 4665,
      "cho một ": 4666,
      "sai . ": 4667,
      "san_di": 4668,
      "nghe . ": 4669,
      "này sang ": 4670,
      "tôi muốn đến ": 4671,
      "tôi muốn một phòng ": 4672,
      "anh có": 4673,
      "anh_đ": 4674,
      "ở đâu . ": 4675,
      "ngàn ": 4676,
      "của th": 4677,
      "học tr": 4678,
      "người_t": 4679,
      "gì , ": 4680,
      "số_l": 4681,
      "nó ở đâu ? ": 4682,
      "với một ": 4683,
      "với chúng_tôi ": 4684,
      "chuyền ": 4685,
      "nhập ": 4686,
      "ăn không ? ": 4687,
      "việc . ": 4688,
      "bảo": 4689,
      "bản_": 4690,
      "bảy . ": 4691,
      " đi ? ": 4692,
      "báo . ": 4693,
      "bạn có_thể làm ": 4694,
      "bạn có_thể giữ ": 4695,
      "khoa ": 4696,
      "nói với tôi ": 4697,
      "làm không ? ": 4698,
      " cái gì ? ": 4699,
      "n đang ": 4700,
      "gọi . ": 4701,
      "ngày mố": 4702,
      " li": 4703,
      " lấy ": 4704,
      " lắm ": 4705,
      "đi bằng ": 4706,
      "iều hòa ": 4707,
      "đây là đ": 4708,
      "n_thân ": 4709,
      "mà tôi ": 4710,
      "trong khoảng ": 4711,
      "trong vòng ": 4712,
      "vé đến ": 4713,
      " đó không ? ": 4714,
      "xem phim . ": 4715,
      "uống cà_phê ": 4716,
      "chứng ": 4717,
      "mau ": 4718,
      "tôi không nghĩ ": 4719,
      "rất có ": 4720,
      "ra ngoài . ": 4721,
      "về nó . ": 4722,
      "c đó . ": 4723,
      "hay đ": 4724,
      "bạn có thích ": 4725,
      "_do ": 4726,
      "lại đến ": 4727,
      "lần này ": 4728,
      "mith": 4729,
      " đây ? ": 4730,
      "bị c": 4731,
      "bị_thương ": 4732,
      "mặt_": 4733,
      "ung_c": 4734,
      "chính . ": 4735,
      "sắt ": 4736,
      "cao_": 4737,
      "vừa đ": 4738,
      " cao . ": 4739,
      "tôi có việc ": 4740,
      "tôi có phải đ": 4741,
      "tuổi . ": 4742,
      "nhiều đ": 4743,
      "mỗi tuần ": 4744,
      "tàu_điện_ngầm ": 4745,
      "ức uống ": 4746,
      " có_thể đến ": 4747,
      "ều là ": 4748,
      "giới . ": 4749,
      "giới_hạn ": 4750,
      "tốt nhất ": 4751,
      " tìm được ": 4752,
      "xe_buýt số ": 4753,
      "5 phút ": 4754,
      "hiện_tại ": 4755,
      "mắt": 4756,
      "mắt_": 4757,
      "nằm trên ": 4758,
      " cô ấy . ": 4759,
      "xong chưa ? ": 4760,
      "trước_tiên ": 4761,
      "nước_hoa ": 4762,
      " thuế ": 4763,
      "sau khi tốt_nghiệ": 4764,
      " công_viên ": 4765,
      "sân_bay": 4766,
      "nói tiếng anh ": 4767,
      "nghe lời ": 4768,
      "một đêm ": 4769,
      "tại_sao bạn ": 4770,
      "luô": 4771,
      "ay_đ": 4772,
      "nhau": 4773,
      "nghỉ_hè": 4774,
      "_yế": 4775,
      "ngân_hàng . ": 4776,
      "ầu_tiên . ": 4777,
      "bắc_kinh": 4778,
      "iện_thoại_di_động ": 4779,
      " trước đây . ": 4780,
      "kịch ": 4781,
      "chai rượu ": 4782,
      "và địa_chỉ": 4783,
      "áo thu": 4784,
      "n_hiệu ": 4785,
      "n_hình": 4786,
      "ửa_sổ ": 4787,
      "davi": 4788,
      "viết th": 4789,
      "màu đỏ": 4790,
      "sân ga ": 4791,
      "y trời ": 4792,
      "bảo_hiểm ": 4793,
      "tôi có_thể mua vé ": 4794,
      "miệng . ": 4795,
      "không tệ . ": 4796,
      "riêng . ": 4797,
      "nửa ngày ": 4798,
      "ú_vị ": 4799,
      " toa ": 4800,
      "buồn ": 4801,
      "hiện_nay ": 4802,
      " tối nay không ? ": 4803,
      "sức khỏe": 4804,
      "chúng_ta đang ": 4805,
      "quốc_gia ": 4806,
      "bức tr": 4807,
      "khắp ": 4808,
      " trung_quốc . ": 4809,
      "làm_việc tại ": 4810,
      "los_angeles ": 4811,
      "mục_đ": 4812,
      "chiếc túi ": 4813,
      "hát . ": 4814,
      "ơn_giả": 4815,
      "ngọt ": 4816,
      "quan_tâm đến ": 4817,
      "1 chút . ": 4818,
      "nhé ! ": 4819,
      "khách_sạn hilton ": 4820,
      "nội_dung ": 4821,
      "burger": 4822,
      "vé khứ_hồ": 4823,
      "dị_ứng với ": 4824,
      "hồ_bơi ": 4825,
      "luân_đôn ": 4826,
      "ài_lo": 4827,
      "nghỉ hưu ": 4828,
      "ruột ": 4829,
      "ập thể_d": 4830,
      "kỷ_niệm ": 4831,
      "iển_lãm ": 4832,
      "ấn_tượng ": 4833,
      "ịa_phương . ": 4834,
      "đoái ": 4835,
      "chủ_nhật t": 4836,
      "hoan_nghênh ": 4837,
      "ách_nhiệ": 4838,
      "_giá_hối_đoái ": 4839,
      "rời đi ": 4840,
      "san_dieg": 4841,
      ", để tôi ": 4842,
      ", thế ": 4843,
      "15 . ": 4844,
      "24": 4845,
      "40": 4846,
      "45": 4847,
      "76": 4848,
      "an_": 4849,
      "ai_nạn ": 4850,
      "băng_": 4851,
      "cây ": 4852,
      "cậu ": 4853,
      "di_": 4854,
      "dán ": 4855,
      "dấu ": 4856,
      "ga . ": 4857,
      "km . ": 4858,
      "m đó ": 4859,
      "m tôi . ": 4860,
      "mou": 4861,
      "m-l": 4862,
      "po": 4863,
      "rảnh . ": 4864,
      "só": 4865,
      "sợi ": 4866,
      "ta . ": 4867,
      "tăng ": 4868,
      "tiếp_t": 4869,
      "t-x": 4870,
      "uôi ": 4871,
      "uần ": 4872,
      "ung_tâm th": 4873,
      "vặ": 4874,
      "xét ": 4875,
      "y_t": 4876,
      "âm . ": 4877,
      "âm_th": 4878,
      "óng_cửa ": 4879,
      "đi đ": 4880,
      "đường_": 4881,
      "đồng_": 4882,
      "ưa t": 4883,
      "ạng ": 4884,
      "ảo ": 4885,
      "ấn . ": 4886,
      "ắng_cả": 4887,
      "ến_n": 4888,
      "ều đ": 4889,
      "ọ ": 4890,
      "ồn ": 4891,
      "ổ_th": 4892,
      "ộ . ": 4893,
      "ới đó ": 4894,
      "ờ . ": 4895,
      "ục . ": 4896,
      "ừng . ": 4897,
      "cha": 4898,
      "chở": 4899,
      "chợ": 4900,
      "chất ": 4901,
      "chổ ": 4902,
      "nhả": 4903,
      "khó . ": 4904,
      " đồ ": 4905,
      " đẹp ": 4906,
      " độ ": 4907,
      " đêm . ": 4908,
      "ông , ": 4909,
      "ông khó": 4910,
      "ông vương ": 4911,
      " cổ": 4912,
      "không sao": 4913,
      "tôi chỉ": 4914,
      "tôi nghe ": 4915,
      "tôi quên ": 4916,
      "tôi dự_định ": 4917,
      "bạn làm_ơn ": 4918,
      " tôi có ": 4919,
      "pho": 4920,
      "phổ_th": 4921,
      " thi ": 4922,
      "gia_": 4923,
      "_lá ": 4924,
      ", anh ": 4925,
      ", vừa ": 4926,
      "thuốc": 4927,
      "thủ_tục ": 4928,
      "thông_thường ": 4929,
      "t_c": 4930,
      "quí": 4931,
      "quý": 4932,
      "có gì ": 4933,
      "i_qua ": 4934,
      "nó th": 4935,
      "phải đến ": 4936,
      "này bao_nhiêu tiền ? ": 4937,
      "tôi muốn một chiếc ": 4938,
      "hài_lòng ": 4939,
      "anh nói ": 4940,
      "anh biết ": 4941,
      "như thế_nào": 4942,
      "họ có ": 4943,
      "chúng_tôi đi ": 4944,
      "ở nhật_bản ": 4945,
      "ở nhà . ": 4946,
      "u_d": 4947,
      "sẽ là ": 4948,
      " của người ": 4949,
      "ăn gì ? ": 4950,
      "việc th": 4951,
      "biết th": 4952,
      ", tôi là ": 4953,
      " có_": 4954,
      "bán th": 4955,
      " của tôi bị ": 4956,
      " của tôi trong ": 4957,
      " cám_ơn ": 4958,
      " cái đó ": 4959,
      "n_lại ": 4960,
      "hai người ": 4961,
      "hai ngày . ": 4962,
      "về th": 4963,
      "chuyến du_lịch": 4964,
      "chuyến bay t": 4965,
      "cái này có ": 4966,
      "tôi có_thể mượn ": 4967,
      " để lại ": 4968,
      " cô ta ": 4969,
      "hãy th": 4970,
      "ngoạ": 4971,
      "hôm_qua tôi ": 4972,
      "việc này ": 4973,
      "khách_hàng ": 4974,
      "_động . ": 4975,
      "tôi không có": 4976,
      "gì cả . ": 4977,
      "gì thế ? ": 4978,
      "năm mới ": 4979,
      "anh ta th": 4980,
      "1 giờ ": 4981,
      "món khai_v": 4982,
      "gần đây . ": 4983,
      "bộ . ": 4984,
      "tôi có_thể đi ": 4985,
      "tôi có_thể thuê ": 4986,
      "bên trái . ": 4987,
      "bạn muốn đi ": 4988,
      "vào tháng ": 4989,
      "xin_lỗi , chúng_tôi ": 4990,
      "ở đây phải không ? ": 4991,
      "tôi đã gọi ": 4992,
      "sắc . ": 4993,
      "chào_": 4994,
      "gặp lại . ": 4995,
      "nghỉ . ": 4996,
      "anh ấy là người ": 4997,
      "bạn có_thể đi ": 4998,
      "bao_nhiêu thời_gian ": 4999,
      "họ sẽ ": 5000,
      "áo sơ_mi ": 5001,
      "bạn thật ": 5002,
      ", tên ": 5003,
      "tuổi ": 5004,
      "nhiều t": 5005,
      "iếp đến ": 5006,
      "sửa": 5007,
      "màu n": 5008,
      "màu gì ? ": 5009,
      "bạn sẽ phải ": 5010,
      "ịa_phương ": 5011,
      "do đó ": 5012,
      "_vẻ": 5013,
      "làm_ơn cho hai ": 5014,
      "chuyện gì ": 5015,
      "tôi đã đi ": 5016,
      "tôi đã đặt ": 5017,
      "tôi nghĩ là ": 5018,
      "tôi nghĩ nó ": 5019,
      "dịch ": 5020,
      "c trả ": 5021,
      "bố ": 5022,
      "dạy tiếng ": 5023,
      "một tách": 5024,
      "ngay khi ": 5025,
      "thật là ": 5026,
      "kiểm_tra nó ": 5027,
      "alo , ": 5028,
      "đừng khách_sáo ": 5029,
      "giống như": 5030,
      "hàng_không . ": 5031,
      "o_ta": 5032,
      "chúc bạn th": 5033,
      "chủ_t": 5034,
      "bỏ_l": 5035,
      "bữa ăn . ": 5036,
      "nộp ": 5037,
      " tính_": 5038,
      "tôi cũng muốn ": 5039,
      "một đêm . ": 5040,
      "học_sinh": 5041,
      "diễn_": 5042,
      "ồng yên ": 5043,
      "bạn thích loại ": 5044,
      "cô ấy là ": 5045,
      "hợp_t": 5046,
      "gọi điện_thoại cho ": 5047,
      "xa ? ": 5048,
      "quà lưu_n": 5049,
      "trung_tâm ": 5050,
      "giúp gì ": 5051,
      "bao_gồm th": 5052,
      "không có đ": 5053,
      "không có . ": 5054,
      "iết_bị ": 5055,
      "bốn mươi ": 5056,
      ": 00 . ": 5057,
      "dễ_": 5058,
      "việt_na": 5059,
      "visa": 5060,
      "một tháng . ": 5061,
      "thật t": 5062,
      "chuyển_t": 5063,
      "môn th": 5064,
      "môi_tr": 5065,
      "sưu_t": 5066,
      "tổng_": 5067,
      " tài_khoả": 5068,
      "mua_sắm . ": 5069,
      "ạm_biệt . ": 5070,
      "i_đấu ": 5071,
      "lúc": 5072,
      "một_ít thuốc ": 5073,
      "khách_sáo . ": 5074,
      "kỹ_th": 5075,
      "bởi_vì tôi ": 5076,
      "rẽ trái . ": 5077,
      "iền_lẻ ": 5078,
      "hồ chí ": 5079,
      "hoạt_động . ": 5080,
      "chiếu phim ": 5081,
      "máy_tính": 5082,
      "làm_việc . ": 5083,
      "giao_thông . ": 5084,
      "con đường này ": 5085,
      "ngoại_ngữ ": 5086,
      "hủy bỏ": 5087,
      "ngắn . ": 5088,
      "số_là ": 5089,
      "vũ_trường ": 5090,
      "ở thành_phố ": 5091,
      "cho hai người ": 5092,
      "bóng_chà": 5093,
      "nhóm ": 5094,
      "bữa tiệc ": 5095,
      "lịch_sử . ": 5096,
      " thuận_t": 5097,
      "joh": 5098,
      "nè . ": 5099,
      "no rồi . ": 5100,
      "khả_năng ": 5101,
      "danh_th": 5102,
      "áy_náy ": 5103,
      "yên_tĩ": 5104,
      "au đầu ": 5105,
      "vương_lan ": 5106,
      "máy điều hòa ": 5107,
      "danh_sách ": 5108,
      "sữa . ": 5109,
      "vậy thì ": 5110,
      "iết_kiệm ": 5111,
      "ngay_lập_tức . ": 5112,
      "nấu_ăn ": 5113,
      "biên_lai ": 5114,
      "bị hư . ": 5115,
      "chứng_minh_nhân_dân ": 5116,
      "ến_nỗi ": 5117,
      ", cũng không ": 5118,
      "16": 5119,
      "2 giờ ": 5120,
      "38": 5121,
      "5 tháng ": 5122,
      "70": 5123,
      "be": 5124,
      "bi ": 5125,
      "cân ": 5126,
      "cuốn sách ": 5127,
      "cố_gắng ": 5128,
      "dĩ": 5129,
      "da th": 5130,
      "ee": 5131,
      "ho ": 5132,
      "hiế": 5133,
      "hối_": 5134,
      "hệ_th": 5135,
      "lỗ": 5136,
      "l . ": 5137,
      "liền ": 5138,
      "lấy . ": 5139,
      "mái ": 5140,
      "mất . ": 5141,
      "niên ": 5142,
      "o t": 5143,
      "ray ": 5144,
      "smith": 5145,
      "tú": 5146,
      "tỷ": 5147,
      "tan ": 5148,
      "vi ": 5149,
      "v . ": 5150,
      "vịt ": 5151,
      "xà_": 5152,
      "xông khó": 5153,
      "yế": 5154,
      "âu_đ": 5155,
      "êm th": 5156,
      "ò ": 5157,
      "đồng_hồ": 5158,
      "điều đó ": 5159,
      "được th": 5160,
      "ưa th": 5161,
      "ẩy ": 5162,
      "ẩn . ": 5163,
      "ẻ_c": 5164,
      "ốt ": 5165,
      "n lại ": 5166,
      "chì ": 5167,
      "cha tôi ": 5168,
      "chống ": 5169,
      "nh của ": 5170,
      "nhân . ": 5171,
      "nhãn ": 5172,
      "khă": 5173,
      "khối ": 5174,
      "khi đi ": 5175,
      " đúng ": 5176,
      "_từ": 5177,
      "ông cần ": 5178,
      " cũ": 5179,
      " cá ": 5180,
      " cửa ": 5181,
      " cổ ": 5182,
      " cưới ": 5183,
      "không tốt . ": 5184,
      "không ổn ": 5185,
      "không hút thuốc": 5186,
      "tôi tin ": 5187,
      "bạn ở ": 5188,
      " tôi đang ": 5189,
      "phó": 5190,
      "gia . ": 5191,
      "già ": 5192,
      "_la": 5193,
      "_lời ": 5194,
      "_lực ": 5195,
      "_lẽ ": 5196,
      ", một ": 5197,
      "thu_": 5198,
      "thành ": 5199,
      "ượng . ": 5200,
      "iệm . ": 5201,
      "là những ": 5202,
      "chúng đ": 5203,
      "quy_đ": 5204,
      "có người ": 5205,
      "muốn . ": 5206,
      "tra": 5207,
      "trạm t": 5208,
      "cho các ": 5209,
      "choàng ": 5210,
      "cho cô ấy ": 5211,
      "xe không ? ": 5212,
      "sẽ có ": 5213,
      "sẽ được ": 5214,
      "nó được không ? ": 5215,
      "c_sản ": 5216,
      "nào gần ": 5217,
      "nào quanh đây không ? ": 5218,
      "cho hỏi ": 5219,
      "cho ông . ": 5220,
      "cho nhân_viên ": 5221,
      "ước_": 5222,
      "nghì": 5223,
      "này rất": 5224,
      "vui_lòng cho": 5225,
      "vui_lòng mang ": 5226,
      "giờ tối . ": 5227,
      "anh cần ": 5228,
      "anh thích ": 5229,
      "như_": 5230,
      "ai vậy ? ": 5231,
      "họp": 5232,
      "họng ": 5233,
      "họ đã ": 5234,
      "chúng_tôi cũng ": 5235,
      "iển . ": 5236,
      "iểm th": 5237,
      "sốt . ": 5238,
      "nó vào ": 5239,
      "nó như thế_nào ? ": 5240,
      "với người ": 5241,
      "với các ": 5242,
      "ương_th": 5243,
      "tôi để ": 5244,
      "tôi đang đi ": 5245,
      "ăn tr": 5246,
      "và số điện_thoại ": 5247,
      "và rẽ ": 5248,
      "các c": 5249,
      "người t": 5250,
      "rất ngon ": 5251,
      "rất lạnh ": 5252,
      ", tôi đi ": 5253,
      "bao_xa ? ": 5254,
      " có . ": 5255,
      " có_vẻ ": 5256,
      "bạn có những ": 5257,
      "bạn có nghĩ ": 5258,
      "iền vào": 5259,
      "bạn có_thể chỉ cho tôi ": 5260,
      "của người ": 5261,
      "khoá ": 5262,
      "n đó ": 5263,
      " các đ": 5264,
      "những vậ": 5265,
      "má tôi ": 5266,
      "mát . ": 5267,
      " trong phòng ": 5268,
      "chuyến xe_lửa ": 5269,
      "ất_v": 5270,
      "nào tốt ": 5271,
      "tôi có_thể mang ": 5272,
      " để đi ": 5273,
      " để đi đến ": 5274,
      "màu . ": 5275,
      "của tôi bị ": 5276,
      "ngon_": 5277,
      "mấy ngày ? ": 5278,
      "mua vé ": 5279,
      "năm rồi ": 5280,
      "về nhà": 5281,
      "anh ta t": 5282,
      "gửi lời ": 5283,
      "tôi sẽ mang ": 5284,
      "ứ ba . ": 5285,
      "bộ_đ": 5286,
      "bộ co": 5287,
      "quá ! ": 5288,
      "làm_việc": 5289,
      "m đi . ": 5290,
      "bên phải . ": 5291,
      "bàn đ": 5292,
      ", thưa ông ": 5293,
      "mời ngồi ": 5294,
      "bạn muốn gửi ": 5295,
      " tốt hơn . ": 5296,
      "lớp_": 5297,
      "sự l": 5298,
      "mặt t": 5299,
      "giá vé ": 5300,
      "xe_buýt đ": 5301,
      "mới bắt_đầu ": 5302,
      "ung_cấp ": 5303,
      "làm_ơn cho tôi xem ": 5304,
      "một_chút không ? ": 5305,
      "buổi hòa ": 5306,
      "c thì ": 5307,
      "tôi đã mua ": 5308,
      "nước nóng ": 5309,
      "quan . ": 5310,
      "quan_đ": 5311,
      "bạn có_thể đến ": 5312,
      "yêu": 5313,
      "quảng_": 5314,
      "rượu . ": 5315,
      " californi": 5316,
      "áo len ": 5317,
      "trên chuyến bay ": 5318,
      "bạn thấy": 5319,
      ", đã ": 5320,
      "tiếng anh": 5321,
      " trước tới ": 5322,
      "iếp_đ": 5323,
      "y tới ": 5324,
      "phải đợi ": 5325,
      "tàu . ": 5326,
      "chào bạn ": 5327,
      "nhật_bản ? ": 5328,
      "làm thế_nào ": 5329,
      "chịu . ": 5330,
      "xách": 5331,
      "vẫn chưa ": 5332,
      "ều phải ": 5333,
      "ăn_hộ": 5334,
      "bệnh . ": 5335,
      "bán cho tôi ": 5336,
      "kiểm_tra . ": 5337,
      "lớn hơn không ? ": 5338,
      "xuống xe ": 5339,
      "nhạt ": 5340,
      "tôi đã có ": 5341,
      " tay": 5342,
      "2 người ": 5343,
      "c cùng ": 5344,
      "bắt_đầu ? ": 5345,
      "nghiệp . ": 5346,
      "tay_": 5347,
      "xuất": 5348,
      "ngay_": 5349,
      "ali ": 5350,
      "alô , ": 5351,
      "chủ_yế": 5352,
      "bạn sẽ đ": 5353,
      "nghe đ": 5354,
      "hết hạn ": 5355,
      "ưởng_th": 5356,
      "học_viện ": 5357,
      "cơ_": 5358,
      "ài_g": 5359,
      "bị đau ": 5360,
      "nhé ? ": 5361,
      "tiểu_vương ": 5362,
      "vì_": 5363,
      "sớm hơn ": 5364,
      "két_": 5365,
      "kết_quả": 5366,
      "chắc_chắn . ": 5367,
      "ở đây được không ? ": 5368,
      "đặt phòng ": 5369,
      "bữa ăn sáng ": 5370,
      " thực_sự": 5371,
      "bốn người ": 5372,
      "sau đó , ": 5373,
      "6 giờ . ": 5374,
      "hỏng . ": 5375,
      "nhất_định sẽ ": 5376,
      "kem . ": 5377,
      "thật_": 5378,
      "đặt": 5379,
      "bảng báo_": 5380,
      "bệnh_viện . ": 5381,
      " đến thăm ": 5382,
      "ẻ tín_dụng . ": 5383,
      " đô_la và ": 5384,
      "biết tiếng ": 5385,
      "bảo_hiểm": 5386,
      "không tệ": 5387,
      "chưa . ": 5388,
      "thế_giới ": 5389,
      "kế_hoạch": 5390,
      " tokyo . ": 5391,
      "việc đó . ": 5392,
      "bồi_th": 5393,
      "hải_sản ": 5394,
      "quyết_định . ": 5395,
      "kỹ_": 5396,
      "rưỡi . ": 5397,
      "từ đây đến ": 5398,
      "báo_cáo": 5399,
      "ề_nghị": 5400,
      "ẩn_thận . ": 5401,
      "sai rồi . ": 5402,
      "sinh_nhật của bạn ": 5403,
      "như thế này . ": 5404,
      "our du_lịch": 5405,
      "ạp_chí ": 5406,
      "miễn thuế ": 5407,
      "usd . ": 5408,
      "úc_xá ": 5409,
      "một cuộc gọi ": 5410,
      "tôi chỉ muốn ": 5411,
      "nữa được không ? ": 5412,
      "giải_quyế": 5413,
      "giải_quyết ": 5414,
      "phần_trăm . ": 5415,
      "bếp ": 5416,
      "nút ": 5417,
      "cái đó . ": 5418,
      "11 giờ ": 5419,
      "ngày thứ ": 5420,
      "dọc theo": 5421,
      " độ . ": 5422,
      "u_trương ": 5423,
      "vũng_tà": 5424,
      "việc_làm . ": 5425,
      "giấy_phép ": 5426,
      "ký_túc_xá ": 5427,
      "phù_hợp ": 5428,
      "ịa_điểm ": 5429,
      "xúc_xích": 5430,
      "ngữ . ": 5431,
      "n_nhắn ": 5432,
      "jal ": 5433,
      "ảnh_hưởng ": 5434,
      "thật đáng tiếc ": 5435,
      "hứng_thú đ": 5436,
      "gội đầu và ": 5437,
      "bơi_l": 5438,
      "siêu_thị ": 5439,
      ", mà_còn ": 5440,
      "rất hân_hạ": 5441,
      "oải_má": 5442,
      "bít t": 5443,
      "nâng_": 5444,
      "xe_điện_ngầm ": 5445,
      " cuối tuần ": 5446,
      "à_vạ": 5447,
      "ẻ lên máy_bay": 5448,
      "quay trở_lại ": 5449,
      "xe_hơi . ": 5450,
      "gần cửa_sổ . ": 5451,
      "ầu_thang ": 5452,
      "rõ_ràng ": 5453,
      "khí_hậu ": 5454,
      "viện_bảo_tàng ": 5455,
      "quà_tặng ": 5456,
      "whisk": 5457,
      "mét . ": 5458,
      "số_lượng ": 5459,
      "mousi": 5460,
      "phổ_thông ": 5461,
      "danh_thiếp": 5462,
      "1 đ": 5463,
      "at": 5464,
      "a_t": 5465,
      "a được không ? ": 5466,
      "b . ": 5467,
      "bờ ": 5468,
      "bình . ": 5469,
      "bụng . ": 5470,
      "bớt ": 5471,
      "c_l": 5472,
      "căn ": 5473,
      "cây_": 5474,
      "dấ": 5475,
      "ed": 5476,
      "ega": 5477,
      "f ": 5478,
      "gây ": 5479,
      "gôn ": 5480,
      "gội ": 5481,
      "inh ": 5482,
      "je": 5483,
      "kì ": 5484,
      "l ": 5485,
      "lợ": 5486,
      "lo . ": 5487,
      "lời_": 5488,
      "mã ": 5489,
      "m được không ? ": 5490,
      "mor": 5491,
      "ns": 5492,
      "n_thể ": 5493,
      "nông_th": 5494,
      "nửa t": 5495,
      "nuôi ": 5496,
      "oa ": 5497,
      "rá": 5498,
      "răng . ": 5499,
      "sợ": 5500,
      "tí": 5501,
      "ta ": 5502,
      "tết ": 5503,
      "tiệm ": 5504,
      "tất_nhiên ": 5505,
      "ung_tâm ": 5506,
      "vĩ": 5507,
      "áp_": 5508,
      "ã được ": 5509,
      "ô-": 5510,
      "ùng_": 5511,
      "ăng_t": 5512,
      "động ": 5513,
      "đại_học ": 5514,
      "ảo_": 5515,
      "ấu": 5516,
      "ấm th": 5517,
      "ẩm_": 5518,
      "ận đ": 5519,
      "ật t": 5520,
      "ẳng đến ": 5521,
      "ết t": 5522,
      "ọc": 5523,
      "ố ": 5524,
      "ống . ": 5525,
      "ồ_": 5526,
      "ổ đ": 5527,
      "ỗi đ": 5528,
      "ộn . ": 5529,
      "ủ . ": 5530,
      "ừng đ": 5531,
      "ừ , ": 5532,
      "ữu_": 5533,
      "ựa . ": 5534,
      "i ? ": 5535,
      "ngại ": 5536,
      " tay ": 5537,
      " tặng ": 5538,
      "chi . ": 5539,
      "chật ": 5540,
      "chơi đ": 5541,
      "nh t": 5542,
      "nhắn ": 5543,
      " điều ": 5544,
      "ông th": 5545,
      " cà_phê ": 5546,
      "không hút thuốc ": 5547,
      "tôi chắc_chắn ": 5548,
      "bạn cho tôi ": 5549,
      "bạn mang ": 5550,
      "lành ": 5551,
      "phẫ": 5552,
      "phỏ": 5553,
      "phương_": 5554,
      " thôi ": 5555,
      " tham_": 5556,
      " tháng . ": 5557,
      "giỏi . ": 5558,
      ", ngày ": 5559,
      ", xin hỏi ": 5560,
      "tha": 5561,
      "thực ": 5562,
      "một . ": 5563,
      " trời ": 5564,
      "iệp ": 5565,
      "iệu_": 5566,
      "có nhiều ": 5567,
      "có , nhưng ": 5568,
      "có một cái ": 5569,
      "có nơi nào": 5570,
      "i đây ": 5571,
      "trẻ_em ": 5572,
      "ba tr": 5573,
      "ần . ": 5574,
      "cho bạn th": 5575,
      "này là": 5576,
      "này quá ": 5577,
      "tôi muốn có một ": 5578,
      "tôi muốn ở lại ": 5579,
      "phải làm ": 5580,
      "phải mất ": 5581,
      "giờ đến ": 5582,
      "của t": 5583,
      " có phải ": 5584,
      "chúng_tôi đ": 5585,
      "chúng_tôi có": 5586,
      " của khách_sạn ": 5587,
      "một thời_gian ": 5588,
      "một cái . ": 5589,
      "với giá ": 5590,
      "làm_ơn mang ": 5591,
      "tôi đặt ": 5592,
      "tôi định ": 5593,
      "ăn trưa ": 5594,
      "các đ": 5595,
      "rất ngon . ": 5596,
      "rất khoẻ . ": 5597,
      ", tôi phải ": 5598,
      " có được ": 5599,
      "_trình": 5600,
      "bạn có nghĩ": 5601,
      "bạn có loại ": 5602,
      "bạn có bao_nhiêu ": 5603,
      "bạn có bán ": 5604,
      "đâu ? ": 5605,
      " cái gì đó ": 5606,
      " các t": 5607,
      " các tr": 5608,
      "này được ": 5609,
      "này có_thể ": 5610,
      "này đi đến ": 5611,
      "hơn so với ": 5612,
      " la": 5613,
      " lư": 5614,
      " , và ": 5615,
      "n_lu": 5616,
      "hai mươi đ": 5617,
      "hai dãy ": 5618,
      "đi bộ": 5619,
      "chiếc c": 5620,
      "cái gì ? ": 5621,
      "nào có ": 5622,
      "số 2": 5623,
      "số hàng ": 5624,
      "tôi có_thể gửi ": 5625,
      "tôi có_thể sử_dụng ": 5626,
      "lại cho tôi ": 5627,
      "chỗ . ": 5628,
      "màu": 5629,
      "của tôi , ": 5630,
      "vé đi ": 5631,
      "sao , ": 5632,
      "xem phi": 5633,
      "nữa tôi ": 5634,
      "mấy ngày ": 5635,
      "_định ": 5636,
      "gửi tiền ": 5637,
      "tôi sẽ gọi lại ": 5638,
      "ại_học . ": 5639,
      "t thôi . ": 5640,
      "chúng_ta sẽ": 5641,
      "nghĩ vậy . ": 5642,
      "lần nữa . ": 5643,
      "lần này tôi ": 5644,
      "bày ": 5645,
      "nướng . ": 5646,
      "nước tr": 5647,
      "vâng , đ": 5648,
      "các bạn đ": 5649,
      "ửa_hàng đ": 5650,
      ", thịt ": 5651,
      "mời vào ": 5652,
      "bạn muốn . ": 5653,
      "vào đ": 5654,
      "giả ": 5655,
      " tốt nhất ": 5656,
      "t đồ ": 5657,
      "bị thất_l": 5658,
      "ở đây ? ": 5659,
      "không có gì": 5660,
      "sáng nay ": 5661,
      "quầy th": 5662,
      "ba ngày . ": 5663,
      "tìm_": 5664,
      "tình_": 5665,
      "hiểu": 5666,
      "một cuốn ": 5667,
      "một cuốn sách ": 5668,
      "khác với ": 5669,
      "tou": 5670,
      "trên đường ": 5671,
      "của bạn là gì ? ": 5672,
      "tôi thật ": 5673,
      "tài_": 5674,
      " có_thể được ": 5675,
      "_vega": 5676,
      "tốt không ? ": 5677,
      "tốt nhất": 5678,
      "mùa th": 5679,
      "nhạc_": 5680,
      "tôi đã đặt phòng ": 5681,
      "ông_đ": 5682,
      "chị ấy": 5683,
      "con_trai ": 5684,
      "bắt_đầu . ": 5685,
      "tay": 5686,
      "một túi ": 5687,
      "giới_thiệu": 5688,
      "nếu có ": 5689,
      "xong rồi ": 5690,
      "phẩm . ": 5691,
      "nước_kho": 5692,
      "kyo": 5693,
      "ưa cô": 5694,
      "u_thuyết ": 5695,
      "bảo_v": 5696,
      "tôi bị dị_ứng với ": 5697,
      " trả lại ": 5698,
      "chuyển lời ": 5699,
      "tôi đến từ": 5700,
      " coi ": 5701,
      "vợ tôi ": 5702,
      "bạn sẽ đến ": 5703,
      "là đường ": 5704,
      "nhỏ hơn không ? ": 5705,
      "tự_nhiên ": 5706,
      "một đôi ": 5707,
      "cơm ": 5708,
      "diễn_viên ": 5709,
      "hiểu không ? ": 5710,
      "nik": 5711,
      "uyền ": 5712,
      "10 tháng ": 5713,
      "chờ một_chút . ": 5714,
      "một phòng đôi ": 5715,
      ", có người ": 5716,
      "đúng rồi . ": 5717,
      "đúng vậy , ": 5718,
      "nhiệm_": 5719,
      "lưng ": 5720,
      "kết_quả ": 5721,
      "kết_nối ": 5722,
      "mạnh_": 5723,
      "mùa xuân ": 5724,
      "dàn_": 5725,
      "bao_gồm": 5726,
      "có một nhà_hàng ": 5727,
      "mấy tháng ": 5728,
      "giặt ủi ": 5729,
      ": 00": 5730,
      "ăm đô_la ": 5731,
      "ở đó không ? ": 5732,
      "thuốc này ": 5733,
      "rẻ hơn không ? ": 5734,
      "nguyên_": 5735,
      "một lần . ": 5736,
      "xảy_ra . ": 5737,
      "quán cà_phê ": 5738,
      "thực_hiện ": 5739,
      "màu đỏ ": 5740,
      "sân quần_vợt ": 5741,
      "của công_ty ": 5742,
      "ư_viện ": 5743,
      "những đôi giày ": 5744,
      "sẵn_sàng . ": 5745,
      "làm_ơn đưa ": 5746,
      "chưa t": 5747,
      "wai": 5748,
      "chờ_đ": 5749,
      "buồn . ": 5750,
      "mở_cửa ? ": 5751,
      "1 li ": 5752,
      "rút tiền ": 5753,
      "màu xanh": 5754,
      "dễ vỡ": 5755,
      "lãi_su": 5756,
      "nhẹ ": 5757,
      "nhẹ . ": 5758,
      "iền_lẻ": 5759,
      "pizz": 5760,
      "chăm_chỉ ": 5761,
      "học_tập": 5762,
      "ba mươi phút . ": 5763,
      "bức th": 5764,
      "ạp_chí": 5765,
      " tàu ": 5766,
      "thưa ông , ông ": 5767,
      "hộ_chiếu của tôi . ": 5768,
      "hành_khách ": 5769,
      "chuyên_ngành": 5770,
      "giá_trị ": 5771,
      "vẽ một ": 5772,
      "nhiều thời_gian ": 5773,
      "los_angeles . ": 5774,
      "con_gái ": 5775,
      "bảo_đảm ": 5776,
      "lối đi ": 5777,
      "rất vui được gặp ": 5778,
      "hủy bỏ ": 5779,
      "ật_sự ": 5780,
      "bạn tính ": 5781,
      "san_francisco ": 5782,
      "cháu ": 5783,
      " trở_về ": 5784,
      "ngã_tư": 5785,
      "năm_ngoái . ": 5786,
      "hay thịt ": 5787,
      "thật không may ": 5788,
      " thuận_lợi ": 5789,
      "ngôi nhà ": 5790,
      "dạ_dày": 5791,
      "ạn li ": 5792,
      "nước cam ": 5793,
      "miễn thuế không ? ": 5794,
      "may_mắn . ": 5795,
      "sản_phẩm": 5796,
      " tốt_đẹp . ": 5797,
      "lá thư ": 5798,
      "chọn . ": 5799,
      "nhầm số . ": 5800,
      "nghệ_thuật ": 5801,
      "món tráng_miệng ": 5802,
      "hamburger": 5803,
      "giấy chứng_nhận ": 5804,
      "phát_hành lại ": 5805,
      "kích_cỡ": 5806,
      "vạn_": 5807,
      "ảm_bảo ": 5808,
      "phụ_thuộc ": 5809,
      "kèm với ": 5810,
      "kg . ": 5811,
      "bài_tập ": 5812,
      "vòi_": 5813,
      "phụ_trách ": 5814,
      "bận_rộn ": 5815,
      "làm thủ_tụ": 5816,
      "ý_tưởng ": 5817,
      "như thế_nào . ": 5818,
      "bao_nhiêu thời_gian ? ": 5819,
      "bỏ_lỡ ": 5820,
      "hợp_tác ": 5821,
      "môn thể_thao ": 5822,
      "hệ_thống ": 5823,
      "quan_điể": 5824,
      " trước tới nay ": 5825,
      "% ": 5826,
      ", đó ": 5827,
      ", tiền ": 5828,
      ", để ": 5829,
      "100": 5830,
      "2 tháng ": 5831,
      "50000": 5832,
      "9 tháng ": 5833,
      "ber": 5834,
      "bổ_": 5835,
      "bởi ": 5836,
      "cà": 5837,
      "cầ": 5838,
      "c_tr": 5839,
      "cầu_thang ": 5840,
      "dướ": 5841,
      "dây_": 5842,
      "em th": 5843,
      "gạ": 5844,
      "gái . ": 5845,
      "gà . ": 5846,
      "h , ": 5847,
      "hương ": 5848,
      "hư ": 5849,
      "hữu_": 5850,
      "ir": 5851,
      "lý ": 5852,
      "lái_": 5853,
      "mè": 5854,
      "mứ": 5855,
      "ma ": 5856,
      "nĩa ": 5857,
      "oát ": 5858,
      "por": 5859,
      "ru": 5860,
      "sài_g": 5861,
      "tạ": 5862,
      "tờ": 5863,
      "tủ ": 5864,
      "tel": 5865,
      "tuyết ": 5866,
      "tiếp_theo ": 5867,
      "u cũng ": 5868,
      "váy ": 5869,
      "vải ": 5870,
      "vnd ": 5871,
      "vali ": 5872,
      "wal": 5873,
      "xử": 5874,
      "xa . ": 5875,
      "àu_điện_ngầm ": 5876,
      "ác_": 5877,
      "ây đ": 5878,
      "âm_l": 5879,
      "ê_": 5880,
      "ê . ": 5881,
      "ói ": 5882,
      "ô_": 5883,
      "ù ": 5884,
      "ùa ": 5885,
      "điể": 5886,
      "đầu": 5887,
      "đôi . ": 5888,
      "đội ": 5889,
      "đường đến ": 5890,
      "ở": 5891,
      "ấm_": 5892,
      "ập_": 5893,
      "ắt t": 5894,
      "ắt c": 5895,
      "ẻ c": 5896,
      "ền . ": 5897,
      "ều th": 5898,
      "ốn ": 5899,
      "ội . ": 5900,
      "ời_tr": 5901,
      "ở cùng ": 5902,
      "ức tôi ": 5903,
      "ngoại ": 5904,
      "ngờ ": 5905,
      "nguyệ": 5906,
      " tất_cả": 5907,
      " tới . ": 5908,
      "ché": 5909,
      "chi_t": 5910,
      "khen ": 5911,
      "khí ": 5912,
      " đi đ": 5913,
      " đau ": 5914,
      "_tát ": 5915,
      "ông có_thể": 5916,
      " cuốn sách ": 5917,
      " cố_gắng ": 5918,
      "không nếu tôi ": 5919,
      "tôi ăn ": 5920,
      "tôi xem ": 5921,
      "tôi họ ": 5922,
      "tôi nhất_định ": 5923,
      "tôi năm nay ": 5924,
      "ạn . ": 5925,
      "bạn gọi ": 5926,
      "bạn cũng ": 5927,
      "bạn hãy ": 5928,
      "bạn cảm_thấy": 5929,
      "a vào ": 5930,
      "là ta": 5931,
      "phóng ": 5932,
      " thích": 5933,
      " thẻ tín_dụng ": 5934,
      " thầy_giá": 5935,
      " thông_báo ": 5936,
      "giấy . ": 5937,
      ", là ": 5938,
      ", không th": 5939,
      "thi ": 5940,
      "thay_": 5941,
      "thông_tin ": 5942,
      "thành_t": 5943,
      "uống_": 5944,
      "uốn_t": 5945,
      " trường ": 5946,
      " trung_": 5947,
      " trang_": 5948,
      " trung ": 5949,
      "iếp_": 5950,
      "qua_đ": 5951,
      "có phòng ": 5952,
      "có bao_nhiêu": 5953,
      "có rất nhiều ": 5954,
      "ng_vấ": 5955,
      "có_thể đi ": 5956,
      "muốn đi ": 5957,
      "muốn mua ": 5958,
      "i đang ": 5959,
      "trường đại_học ": 5960,
      "một chỗ ": 5961,
      "một loại ": 5962,
      "một nơi ": 5963,
      "một chỗ ngồi ": 5964,
      "ba tôi ": 5965,
      "nào là ": 5966,
      "sang_tr": 5967,
      "sala": 5968,
      "nghệ ": 5969,
      "tôi muốn xin ": 5970,
      "anh không ": 5971,
      "anh , ": 5972,
      "anh phải không ? ": 5973,
      "giờ được không ? ": 5974,
      "anh đang ": 5975,
      "anh đã": 5976,
      "ở đây đ": 5977,
      "ngài ": 5978,
      " đến đ": 5979,
      " đến không ? ": 5980,
      " đến tokyo ": 5981,
      "chúng_tôi đều ": 5982,
      "ở phí": 5983,
      "ở phía": 5984,
      "ở phía trước ": 5985,
      " của anh ấy ": 5986,
      "một cái đ": 5987,
      "với ông ": 5988,
      "làm_ơn nói ": 5989,
      "tôi đồng_": 5990,
      "các t": 5991,
      "các th": 5992,
      "à lạ": 5993,
      "người trong ": 5994,
      "người khác ": 5995,
      "người nghe": 5996,
      ", tôi sẽ": 5997,
      ", tôi không_thể": 5998,
      " có c": 5999,
      " có được không ? ": 6000,
      "ho . ": 6001,
      "bạn có_thể nói ": 6002,
      "nói rằng ": 6003,
      "vào chiều ": 6004,
      "vào ban_đ": 6005,
      " cái này không ? ": 6006,
      "mua . ": 6007,
      "n đã ": 6008,
      "này trong ": 6009,
      "rồi phải không ? ": 6010,
      "ất_t": 6011,
      "ngày không ? ": 6012,
      "năng_l": 6013,
      "những thứ": 6014,
      " lại . ": 6015,
      " trong vòng ": 6016,
      "hai cái ": 6017,
      "ặt phòng ": 6018,
      "chuyến tham_quan ": 6019,
      "công_cộng ": 6020,
      "biết nói tiếng ": 6021,
      "số chuyến bay ": 6022,
      "số phòng của bạn ": 6023,
      "n_thống ": 6024,
      "bị ảnh_hưởng ": 6025,
      "gọi cho tôi ": 6026,
      "gọi cho bạn ": 6027,
      "vé không ? ": 6028,
      "uống nước ": 6029,
      "mấy người ? ": 6030,
      "năm rồi . ": 6031,
      "ra , tôi ": 6032,
      "m thôi . ": 6033,
      "bằng xe_buýt ": 6034,
      "học , ": 6035,
      "1 kí ": 6036,
      "khách_sạn của bạn ": 6037,
      "tôi sẽ không ": 6038,
      "tôi sẽ gửi ": 6039,
      "còn anh ? ": 6040,
      "gần đâ": 6041,
      "c tám ": 6042,
      "nhật_bản được không ? ": 6043,
      "chiếc xe": 6044,
      "chiếc nhẫn ": 6045,
      "hay t": 6046,
      "khoảng năm ": 6047,
      "ứ hai ": 6048,
      "bạn có cái này ": 6049,
      "như vậy ? ": 6050,
      "nhà_hàng đ": 6051,
      "nhà_ga . ": 6052,
      "làm_sao ": 6053,
      "tôi có_thể đến ": 6054,
      "m được . ": 6055,
      " của bạn là ": 6056,
      "lạnh": 6057,
      ", nhưng tôi không ": 6058,
      "các bạn đi ": 6059,
      "dùng món ": 6060,
      "cũng không ": 6061,
      " cần phải ": 6062,
      "một_ít tr": 6063,
      "đó ? ": 6064,
      "a thôi . ": 6065,
      "y đã ": 6066,
      "không có gì ": 6067,
      "không có người ": 6068,
      "buổi chiề": 6069,
      "buổi chiều": 6070,
      "phúc . ": 6071,
      "tôi đã làm ": 6072,
      "sáng nay . ": 6073,
      "phố . ": 6074,
      "ba lần ": 6075,
      "quan_h": 6076,
      "ành_công . ": 6077,
      "vừa . ": 6078,
      "rau": 6079,
      "bạn có_thể t": 6080,
      "bạn có_thể th": 6081,
      "anh ta là ": 6082,
      "tôi sẽ đ": 6083,
      "một cửa_hàng ": 6084,
      "lấy số ": 6085,
      "mất rồi . ": 6086,
      "toa ": 6087,
      "bạn_đ": 6088,
      "tôi có nên ": 6089,
      "chúng_ta có ": 6090,
      "bạn thường ": 6091,
      ", đường ": 6092,
      "tiếng hoa ": 6093,
      ", tất_cả ": 6094,
      ", tạm_biệt ": 6095,
      "nhiều tr": 6096,
      "tôi thực_sự": 6097,
      "mỗi tháng ": 6098,
      "tàu_điện_ngầm . ": 6099,
      "từ_từ": 6100,
      "mọi việc ": 6101,
      "chị . ": 6102,
      "xách ": 6103,
      "doanh_": 6104,
      "ung_quốc ": 6105,
      " tìm thấy": 6106,
      "u_đãi ": 6107,
      "xe_buýt này có đi đến ": 6108,
      "mười_": 6109,
      "xuống tại ": 6110,
      "chuyện gì vậy ? ": 6111,
      "tôi đã để quên ": 6112,
      "công_ty": 6113,
      "không_thể . ": 6114,
      "làm_việc ? ": 6115,
      "bố_": 6116,
      "không phải là người ": 6117,
      "gian_": 6118,
      "ngay sau khi ": 6119,
      "ối_d": 6120,
      "hoà t": 6121,
      "giống nhau ": 6122,
      "ưa_t": 6123,
      " trở_th": 6124,
      "chạy . ": 6125,
      "nhanh lên ": 6126,
      "ghi đ": 6127,
      "tôi bị mất ": 6128,
      "nhất của ": 6129,
      "trung_quốc": 6130,
      "cám_ơn bạn ": 6131,
      "một trận ": 6132,
      "dừng ở ": 6133,
      "đi theo": 6134,
      "tôi cũng không ": 6135,
      "rượu uý": 6136,
      "ô , tôi ": 6137,
      "vì đã ": 6138,
      "như thế , ": 6139,
      "rất đau . ": 6140,
      "ng_đài ": 6141,
      "ở đây trong ": 6142,
      "phía sau ": 6143,
      "bóng đ": 6144,
      "chìa_": 6145,
      " thực_đơn ": 6146,
      "kịch": 6147,
      " đi thăm ": 6148,
      " cao hơn ": 6149,
      " tiếng hoa ": 6150,
      "rẻ hơn . ": 6151,
      "hành_lý này ": 6152,
      "séc": 6153,
      "hay_là đi ": 6154,
      "sạch . ": 6155,
      "thực_đơn ": 6156,
      "iều_chỉnh ": 6157,
      " đến thành_phố ": 6158,
      "sáu giờ ": 6159,
      "giảm giá không ? ": 6160,
      "mô_t": 6161,
      "chưa được ": 6162,
      "càng sớm càng tốt . ": 6163,
      "lạnh hơn ": 6164,
      "bảo_hiểm không ? ": 6165,
      "cạnh ": 6166,
      "không , tôi không ": 6167,
      "uyết_": 6168,
      "rất thích": 6169,
      "tôi đang tìm một chiếc ": 6170,
      "bữa": 6171,
      "giường ngủ": 6172,
      "làm thế_nào tôi có_thể": 6173,
      "bồ_tát ": 6174,
      "tôi không_thể tìm thấy ": 6175,
      "sân_bay không ? ": 6176,
      "áo_khoác": 6177,
      "bỏ quên ": 6178,
      "sai rồi ": 6179,
      "chính là ": 6180,
      "ái_cây . ": 6181,
      "quốc_khá": 6182,
      "sắp đến ": 6183,
      "ở trạm ": 6184,
      "xe_đạ": 6185,
      "quốc_tế . ": 6186,
      " đón bạn ": 6187,
      "cuộc_sống ": 6188,
      " lúc mấy giờ ? ": 6189,
      "nhà tôi có ": 6190,
      "usd": 6191,
      "nghỉ_phép . ": 6192,
      " đồng_hồ": 6193,
      "nhiệt_độ": 6194,
      "bằng đường_hàng_không . ": 6195,
      ", tôi không muốn ": 6196,
      "ghé ": 6197,
      "giáo_viên . ": 6198,
      "gội đầu . ": 6199,
      "ấp_d": 6200,
      "nhờ bạn ": 6201,
      "bất_cứ lúc ": 6202,
      "thứ_bảy ": 6203,
      "tôi vẫn chưa ": 6204,
      "xem ti_v": 6205,
      "mọi thứ . ": 6206,
      "sản_phẩm mới ": 6207,
      "ở chỗ nào ? ": 6208,
      "dặm ": 6209,
      "fax ": 6210,
      "hán ngữ ": 6211,
      "hạnh_phúc . ": 6212,
      "bữa tiệc": 6213,
      "xác_nhận lại chuyến bay": 6214,
      "abc ": 6215,
      "ật đẹp . ": 6216,
      "khuôn_": 6217,
      " tai_nạn . ": 6218,
      "dạ_dày . ": 6219,
      "cảnh_sát ": 6220,
      "cảnh_sát . ": 6221,
      "à_chua ": 6222,
      "ích_hợp ": 6223,
      "phòng tắm ": 6224,
      "massa": 6225,
      "master": 6226,
      "hứng_thú ": 6227,
      "kĩ ": 6228,
      "hộp_th": 6229,
      "ịnh_kỳ ": 6230,
      "thư_viện ": 6231,
      "máy_ảnh của tôi ": 6232,
      "xà_lách": 6233,
      "sấy khô": 6234,
      "một món quà cho ": 6235,
      "gọi điện_thoại đ": 6236,
      "xe taxi . ": 6237,
      "chăm_sóc ": 6238,
      "bình_thường . ": 6239,
      "súp ": 6240,
      "chuyện . ": 6241,
      " tốt_nghiệp ": 6242,
      "giá thấp ": 6243,
      "yêu_thích": 6244,
      "khai_báo ": 6245,
      "unite": 6246,
      "giáng_sinh ": 6247,
      " trở_lại . ": 6248,
      "las_vega": 6249,
      "sân_khấu ": 6250,
      "ánh_thức tôi ": 6251,
      "không có vấn_đề gì . ": 6252,
      "chìa khóa": 6253,
      "rốt_": 6254,
      "vị_trí": 6255,
      "giấy_t": 6256,
      "sạch_sẽ ": 6257,
      "viết tên ": 6258,
      "huấn_luyện ": 6259,
      "ngôn_ngữ": 6260,
      "chúng_ta cùng đi ": 6261,
      "xây_dựng ": 6262,
      "luôn_lu": 6263,
      "áo thun ": 6264,
      "chủ_tịch ": 6265,
      "môi_trường ": 6266,
      "kỹ_thuật ": 6267,
      " thuận_tiện ": 6268,
      "vịt quay ": 6269,
      "bộ com-l": 6270,
      "buổi hòa nhạc ": 6271,
      "quảng_cá": 6272,
      "bồi_thường ": 6273,
      "kỹ_sư": 6274,
      "hứng_thú đối_với ": 6275,
      "bơi_lội ": 6276,
      "oải_mái . ": 6277,
      "phẫu_th": 6278,
      "phỏng_vấ": 6279,
      "bổ_su": 6280,
      ", cái ": 6281,
      "-t": 6282,
      "03": 6283,
      "1 t": 6284,
      "1 tiếng ": 6285,
      "100 ": 6286,
      "200": 6287,
      "2 tuần ": 6288,
      "39": 6289,
      "40 ": 6290,
      "80": 6291,
      "ad": 6292,
      "as": 6293,
      "axi ": 6294,
      "b ": 6295,
      "bì ": 6296,
      "cử": 6297,
      "c công_ty ": 6298,
      "cà_phê . ": 6299,
      "d_": 6300,
      "dám ": 6301,
      "e , ": 6302,
      "e không ? ": 6303,
      "gấ": 6304,
      "hớt ": 6305,
      "in . ": 6306,
      "in_t": 6307,
      "k . ": 6308,
      "kẻ ": 6309,
      "kể ": 6310,
      "kẹp": 6311,
      "ly": 6312,
      "lin": 6313,
      "lập_t": 6314,
      "lướt ": 6315,
      "mú": 6316,
      "me ": 6317,
      "né": 6318,
      "ne ": 6319,
      "náo_": 6320,
      "nắng . ": 6321,
      "ox": 6322,
      "oky": 6323,
      "rối ": 6324,
      "rắc_": 6325,
      "sở ": 6326,
      "sâu ": 6327,
      "táo ": 6328,
      "tương_l": 6329,
      "tòa nhà ": 6330,
      "xé": 6331,
      "yd": 6332,
      "ài . ": 6333,
      "ây tr": 6334,
      "ì_": 6335,
      "ít th": 6336,
      "ó được không ? ": 6337,
      "ý không ? ": 6338,
      "đại_": 6339,
      "ẫn . ": 6340,
      "ậm ": 6341,
      "ậm_": 6342,
      "ận th": 6343,
      "ắp ": 6344,
      "ắt đ": 6345,
      "ỉnh_th": 6346,
      "ốc_": 6347,
      "ổ . ": 6348,
      "ột_": 6349,
      "ộm . ": 6350,
      "ụ_thể": 6351,
      "ứa tr": 6352,
      "ừng đến ": 6353,
      "ựa ": 6354,
      "i và ": 6355,
      " ta . ": 6356,
      " tóc ": 6357,
      " tệ . ": 6358,
      "chất": 6359,
      "chặt ": 6360,
      "chuộ": 6361,
      "chân . ": 6362,
      "nhanh": 6363,
      "nhu_c": 6364,
      " đại ": 6365,
      " đức ": 6366,
      " đeo": 6367,
      " đỡ ": 6368,
      " đẹp . ": 6369,
      "_tài ": 6370,
      "ông đến ": 6371,
      " cây ": 6372,
      "không ?": 6373,
      "không nói ": 6374,
      "không xa ": 6375,
      "y không ? ": 6376,
      "y , ": 6377,
      "tôi còn ": 6378,
      "tôi làm_việc ": 6379,
      "tôi là th": 6380,
      "bạn tôi ": 6381,
      "bạn nghĩ": 6382,
      "bạn mặ": 6383,
      "bạn dự_định ": 6384,
      "c , ": 6385,
      "có được không ? ": 6386,
      "phật ": 6387,
      " thư": 6388,
      ", chúng_ta ": 6389,
      ", vì ": 6390,
      ", không_thể ": 6391,
      "thu": 6392,
      "thủ": 6393,
      "thay ": 6394,
      "tháng . ": 6395,
      "thông_báo ": 6396,
      "thăm": 6397,
      "ượng_l": 6398,
      "iệt_": 6399,
      "m_phá": 6400,
      "iếc . ": 6401,
      "iếp . ": 6402,
      "là sinh_viên ": 6403,
      "chú ": 6404,
      "que": 6405,
      "quen_": 6406,
      "có bao_nhiêu đ": 6407,
      "vài đ": 6408,
      "muốn ăn ": 6409,
      "trẻ": 6410,
      "trình_": 6411,
      "trượt_t": 6412,
      "cho_d": 6413,
      "cho công_ty ": 6414,
      "cho thuê ": 6415,
      "một hướng_dẫn_viên ": 6416,
      "banh ": 6417,
      "bao_t": 6418,
      "xe được không ? ": 6419,
      "sẽ đưa ": 6420,
      "nó đi ": 6421,
      "nó đã ": 6422,
      "nó đây . ": 6423,
      "cho tôi một cái ": 6424,
      "ướp ": 6425,
      "nghị": 6426,
      "này và ": 6427,
      "tôi muốn mua": 6428,
      "vui_lòng đổi ": 6429,
      "anh phải ": 6430,
      "anh quá ": 6431,
      "anh cũng ": 6432,
      "họ đều ": 6433,
      "chúng_tôi phải ": 6434,
      "nh_giá ": 6435,
      "ở gần ": 6436,
      "ở ngay ": 6437,
      "ở phía trước . ": 6438,
      "sẽ mất ": 6439,
      "ng đó ": 6440,
      "ng đồng_hồ": 6441,
      "khách . ": 6442,
      "nó bị ": 6443,
      "nari": 6444,
      "làm_ơn gửi ": 6445,
      "tôi đề_nghị ": 6446,
      " đi , ": 6447,
      " đi du_lịch . ": 6448,
      "cái . ": 6449,
      "người khác . ": 6450,
      "người trung_quốc ": 6451,
      "phòng là ": 6452,
      "rất gần ": 6453,
      "rất lớn ": 6454,
      "rất khó ": 6455,
      "rất nóng . ": 6456,
      "một_chiều ": 6457,
      ", tôi có_thể": 6458,
      " có tr": 6459,
      "bác ": 6460,
      "nói gì ? ": 6461,
      "bạn để ": 6462,
      "làm nghề gì ? ": 6463,
      " của tôi ? ": 6464,
      " của tôi , ": 6465,
      " cái túi ": 6466,
      "n để ": 6467,
      "xin vui_lòng mang ": 6468,
      "xin vui_lòng mang cho tôi ": 6469,
      " tốt tiếng ": 6470,
      "này để ": 6471,
      "rồi ! ": 6472,
      "cảnh ": 6473,
      "cảm_": 6474,
      "ngày , ": 6475,
      "chỉ có": 6476,
      "những con ": 6477,
      " lo": 6478,
      " lý": 6479,
      " trong nước ": 6480,
      "hai giờ ": 6481,
      "hai lần ": 6482,
      "đi xuống ": 6483,
      "nhà đ": 6484,
      "nhà của bạn ": 6485,
      "hôn . ": 6486,
      "về không ? ": 6487,
      "số là ": 6488,
      "tôi có_thể nói_chuyện với ": 6489,
      " để l": 6490,
      " để tham_quan ": 6491,
      "tốt": 6492,
      "được chứ . ": 6493,
      "bị hoãn ": 6494,
      "chỗ trống ": 6495,
      "trong khi ": 6496,
      "của tôi đã ": 6497,
      "vé ? ": 6498,
      "n_tâm ": 6499,
      "giáo ": 6500,
      "giá của ": 6501,
      "áng ti": 6502,
      "a đã ": 6503,
      "tôi không đi ": 6504,
      "tôi không cần ": 6505,
      "nay không ? ": 6506,
      "năm ngày . ": 6507,
      "năm nay . ": 6508,
      "ra ? ": 6509,
      "về khách_sạn ": 6510,
      "học ? ": 6511,
      "xe_cứ": 6512,
      "lúc 7 giờ ": 6513,
      "nhiều hơn . ": 6514,
      "hawai": 6515,
      "khoảng 3": 6516,
      "ứ gì ": 6517,
      "ứ mấy ? ": 6518,
      "ứ hai . ": 6519,
      "chỗ nào": 6520,
      "chỗ gần ": 6521,
      "tôi có_thể tìm ": 6522,
      "bên ngoài ": 6523,
      "lại được không ? ": 6524,
      "lần nữa ": 6525,
      "nước t": 6526,
      "máy_vi_t": 6527,
      " các loại ": 6528,
      " trên đ": 6529,
      " trên đường ": 6530,
      " trên bản_đồ ": 6531,
      "vé máy_bay": 6532,
      ", thưa cô": 6533,
      "miam": 6534,
      "mời bạn đến ": 6535,
      "vào tuần ": 6536,
      "vào tối nay . ": 6537,
      "giảm đ": 6538,
      " đây là ": 6539,
      "bị cảm ": 6540,
      "a thì": 6541,
      "xe ô_t": 6542,
      "xe_buýt th": 6543,
      "xe_buýt t": 6544,
      "p_mặt ": 6545,
      "nếu ngày_mai ": 6546,
      "hết": 6547,
      "chí_": 6548,
      "mươi . ": 6549,
      "mươi_l": 6550,
      "chắc . ": 6551,
      "úng giờ ": 6552,
      "quầy t": 6553,
      "ba , ": 6554,
      "ba ngày ": 6555,
      "tìm": 6556,
      "quan đến ": 6557,
      "ành_viên ": 6558,
      "bạn có_thể c": 6559,
      "bao_nhiêu tuổi ": 6560,
      "khác nhau . ": 6561,
      "mất bao_nhiêu ": 6562,
      "phụ ": 6563,
      "rượu": 6564,
      "hôm_nay ngày ": 6565,
      "chúng_ta đến ": 6566,
      "dự tiệ": 6567,
      "dựa vào ": 6568,
      "tôi đang ở tại ": 6569,
      "tuỳ": 6570,
      "mỗi năm ": 6571,
      "mỗi ngày đ": 6572,
      "y tại ": 6573,
      "chào buổi sáng ": 6574,
      "khóa c": 6575,
      "từ_": 6576,
      "từ_điển ": 6577,
      "nes": 6578,
      "làm được ": 6579,
      "chị có ": 6580,
      "cái này không ": 6581,
      "cái này không ? ": 6582,
      " công_ty tôi ": 6583,
      " công_tác ": 6584,
      "quyền ": 6585,
      "ành_phố ? ": 6586,
      "hồng_": 6587,
      "hôm_nay đ": 6588,
      "hôm_nay có ": 6589,
      "hôm_nay trời ": 6590,
      "dover": 6591,
      " có_thể l": 6592,
      "cho bạn biết ": 6593,
      "ăn_uống ": 6594,
      "ở đại_học ": 6595,
      "ô_la không ? ": 6596,
      "hiện_đ": 6597,
      "ông_chủ": 6598,
      "u tại ": 6599,
      "u tới ": 6600,
      "phí dịch_vụ": 6601,
      "dịch": 6602,
      "sự khá": 6603,
      "bố_tr": 6604,
      "bốn đ": 6605,
      "dạng ": 6606,
      "một_số người ": 6607,
      "không đẹp ": 6608,
      "sinh_nhật . ": 6609,
      "một chiếc xe_hơi ": 6610,
      "hoàng_": 6611,
      "hoàn_tr": 6612,
      "alo ": 6613,
      "nếu có_thể": 6614,
      "mẹ . ": 6615,
      "giống nhau . ": 6616,
      "trước_": 6617,
      "hàng_hoá ": 6618,
      " thuê": 6619,
      "nhanh lên . ": 6620,
      "bảo_hành ": 6621,
      " trả_lời ": 6622,
      " của c": 6623,
      "chuyển phát ": 6624,
      "bạn có_thể cho tôi xem ": 6625,
      "nội ": 6626,
      "tôi đến đây": 6627,
      " con . ": 6628,
      " con_trai ": 6629,
      "tôi muốn thử ": 6630,
      "vợ_": 6631,
      "trước không ? ": 6632,
      "giảm giá": 6633,
      "bạn không cần ": 6634,
      "đi thăm ": 6635,
      "ưởng_t": 6636,
      "bạn_học tiếng hoa ": 6637,
      "ộ bình_": 6638,
      " đổi tiền ": 6639,
      "bạn có muốn đi ": 6640,
      "tại_sao chúng_ta ": 6641,
      "ổ_họng ": 6642,
      "anh ấy đã ": 6643,
      "đã đến ": 6644,
      "es ": 6645,
      "nha trang ": 6646,
      "uyền_hình ": 6647,
      "hãy đến ": 6648,
      "ký . ": 6649,
      "nhiệt ": 6650,
      "xe_lửa không ? ": 6651,
      "này thành ": 6652,
      "này thì sao ? ": 6653,
      "nhìn ra ": 6654,
      "10 phút . ": 6655,
      "lưu ": 6656,
      "ng_điểm ": 6657,
      "đặt chỗ": 6658,
      "inter": 6659,
      "dài đến ": 6660,
      "bánh_qu": 6661,
      "bạn đã đến ": 6662,
      "our": 6663,
      "móc_t": 6664,
      ", còn anh ? ": 6665,
      "khởi_hành . ": 6666,
      "xin vui_lòng cho chúng_tôi ": 6667,
      "dự_định đ": 6668,
      "ngon không ? ": 6669,
      "hộ_chiếu . ": 6670,
      " trước của tôi ": 6671,
      "mấy tuổi ? ": 6672,
      "nhật được không ? ": 6673,
      "uốc_lá ": 6674,
      "dễ_d": 6675,
      "vinh ": 6676,
      "công_ty chúng_tôi ": 6677,
      "ở đó ? ": 6678,
      "bảy giờ . ": 6679,
      ", tôi sẽ dùng ": 6680,
      "vào thẻ ": 6681,
      "lâu không gặp ": 6682,
      "nhất_định phải ": 6683,
      "chuyến bay của hãng hàng_không ": 6684,
      "phát_hiện ": 6685,
      "mệt_m": 6686,
      "mệnh_giá ": 6687,
      "n_hình . ": 6688,
      "viết": 6689,
      "quán ba": 6690,
      "đặt_hàng ": 6691,
      "bảng anh . ": 6692,
      "ở trong phòng ": 6693,
      "học tiếng anh ": 6694,
      "sư_ph": 6695,
      "chưa có ": 6696,
      "mãi_": 6697,
      "ở nhà không ? ": 6698,
      "ăn cơm . ": 6699,
      "bảo_hiểm . ": 6700,
      "cạo ": 6701,
      "tôi đang tìm một ": 6702,
      "trở_l": 6703,
      "lúc đ": 6704,
      "lúc tám ": 6705,
      "phần_l": 6706,
      "sở_thú ": 6707,
      "khó không ? ": 6708,
      "anh ta có ": 6709,
      "anh ta đi ": 6710,
      "ú_vị": 6711,
      "chờ . ": 6712,
      "vì vậy , ": 6713,
      "ửa_sổ . ": 6714,
      "11 . ": 6715,
      "bài hát ": 6716,
      "làm điều đó . ": 6717,
      "buồn_n": 6718,
      "một ly nước . ": 6719,
      "quyết_định": 6720,
      "1 lần ": 6721,
      "màu xanh . ": 6722,
      "xuất_nhập_khẩ": 6723,
      "bưu_phí ": 6724,
      "đi thẳng về ": 6725,
      "hút thuốc hay ": 6726,
      "xem thực_đơn ": 6727,
      " trả phòng ": 6728,
      " cái đó . ": 6729,
      "ngồi . ": 6730,
      "khứ_hồi ": 6731,
      " thật là ": 6732,
      "thành_phố hồ chí ": 6733,
      "ăng_ký . ": 6734,
      "học đại_học ": 6735,
      "nguyễn . ": 6736,
      "_nhiên . ": 6737,
      "dầu gội ": 6738,
      "nhà_vệ_sinh": 6739,
      "gặp được ": 6740,
      "quản_lý": 6741,
      "son . ": 6742,
      "u_tốc_": 6743,
      "mua đồ ": 6744,
      "núi . ": 6745,
      "ổi đặt chỗ": 6746,
      "ống_kính ": 6747,
      "dọn_d": 6748,
      "dường_như": 6749,
      "nối máy ": 6750,
      "quý khách ": 6751,
      "giá_cả ": 6752,
      "dặm . ": 6753,
      "tôi tên là ": 6754,
      "chú_ý": 6755,
      "ngành gì ? ": 6756,
      "giao hàng ": 6757,
      " trở_về": 6758,
      "năm tờ ": 6759,
      "ký_tên ": 6760,
      "abc . ": 6761,
      "vườn ": 6762,
      "là cái gì ? ": 6763,
      "giặt_": 6764,
      "gặp lại bạn . ": 6765,
      "kéo dài ": 6766,
      "bị mất . ": 6767,
      "khách_sạn hilton . ": 6768,
      "rảnh không ? ": 6769,
      "một_tí": 6770,
      "một_tí . ": 6771,
      " đi bộ . ": 6772,
      "một trăm đô_la . ": 6773,
      "1234 . ": 6774,
      "yêu_cầu của ": 6775,
      "brow": 6776,
      "vé khứ_hồi ": 6777,
      "áy_náy . ": 6778,
      "xung_quanh": 6779,
      "iện_tí": 6780,
      "yên_tâm ": 6781,
      "dây đ": 6782,
      "quẹo ": 6783,
      " tốt_đẹp ": 6784,
      " cảnh_sát ": 6785,
      "oải_mái ": 6786,
      "xà_lách ": 6787,
      "nghiên_cứu_": 6788,
      "rẻ_t": 6789,
      "nghệ_thuậ": 6790,
      "naka . ": 6791,
      "xuống xe tại ": 6792,
      " đóng_cửa ? ": 6793,
      "ồn_ào . ": 6794,
      "bình_thường ": 6795,
      "trong trường_hợp ": 6796,
      "trong trường_hợp": 6797,
      "sử_dụng điện_thoại ": 6798,
      "bồn_tắm ": 6799,
      "washington ": 6800,
      "bạn làm_việc ở đâu ? ": 6801,
      "cho_phép ": 6802,
      "bóng_đá ": 6803,
      "chảy má": 6804,
      "nghiêm_trọng ": 6805,
      "visa ": 6806,
      "ần_thiết ": 6807,
      "nhức đầu ": 6808,
      "món quà . ": 6809,
      "hết_sứ": 6810,
      "dự_định đi ": 6811,
      "căn_cứ ": 6812,
      "kiêng ": 6813,
      "nhãn_hiệu ": 6814,
      "nhuộm t": 6815,
      "hàn_quốc ": 6816,
      "trước đây tôi ": 6817,
      "dưa_": 6818,
      "ít_nhất ": 6819,
      "nghỉ_hè ": 6820,
      "viết thư ": 6821,
      "bức tranh ": 6822,
      "mục_đích ": 6823,
      "ập thể_dục ": 6824,
      "san_diego . ": 6825,
      "vặn ": 6826,
      "ngoại_t": 6827,
      "anh ta thích ": 6828,
      "c trả phòng ": 6829,
      "da thật ": 6830,
      "khăn_t": 6831,
      "phó_": 6832,
      "quy_định ": 6833,
      "nghìn ": 6834,
      "những vật có ": 6835,
      "sự lựa_chọn ": 6836,
      "bảng báo_giá": 6837,
      "nông_thôn ": 6838,
      "tour ": 6839,
      "nước_khoáng ": 6840,
      "oxfor": 6841,
      "ỉnh_thoả": 6842,
      "ượng_lộ bình_": 6843,
      "quen_biết ": 6844,
      "xe_cứu_th": 6845,
      "quầy tiếp_t": 6846,
      "' ": 6847,
      ", có_thể": 6848,
      ", tối ": 6849,
      ", các bạn ": 6850,
      "21": 6851,
      "28": 6852,
      "33": 6853,
      "30000": 6854,
      "40000": 6855,
      "50 . ": 6856,
      "5 đô_la . ": 6857,
      "60": 6858,
      "6 tháng ": 6859,
      "7 tháng ": 6860,
      "98": 6861,
      "_ý": 6862,
      "_ra ": 6863,
      "_car": 6864,
      "aki": 6865,
      "bật ": 6866,
      "cườ": 6867,
      "câu": 6868,
      "cửa_sổ ": 6869,
      "d , ": 6870,
      "d không ? ": 6871,
      "di_t": 6872,
      "gá": 6873,
      "ga t": 6874,
      "gãy ": 6875,
      "gởi ": 6876,
      "găng_t": 6877,
      "h ": 6878,
      "hò": 6879,
      "hùng ": 6880,
      "hẹp ": 6881,
      "hình . ": 6882,
      "hơi đ": 6883,
      "kính": 6884,
      "lò": 6885,
      "lâu . ": 6886,
      "liên_t": 6887,
      "mi . ": 6888,
      "mô ": 6889,
      "mục ": 6890,
      "muối ": 6891,
      "mong_": 6892,
      "mật_": 6893,
      "mưa . ": 6894,
      "mưa_t": 6895,
      "nả": 6896,
      "no . ": 6897,
      "nis": 6898,
      "on": 6899,
      "oi_": 6900,
      "on . ": 6901,
      "pla": 6902,
      "rè": 6903,
      "ros": 6904,
      "rẻ . ": 6905,
      "sổ": 6906,
      "sườ": 6907,
      "su . ": 6908,
      "suối ": 6909,
      "sâu_": 6910,
      "tiên_": 6911,
      "tla": 6912,
      "tuyệ": 6913,
      "vo": 6914,
      "vi_": 6915,
      "vần ": 6916,
      "ves": 6917,
      "vượt ": 6918,
      "vất_v": 6919,
      "wil": 6920,
      "xanh ": 6921,
      "xã ": 6922,
      "yu": 6923,
      "àu ": 6924,
      "àm_phá": 6925,
      "ít": 6926,
      "ôi_t": 6927,
      "đế": 6928,
      "đoán ": 6929,
      "đèn ": 6930,
      "địa_chỉ": 6931,
      "đi đường ": 6932,
      "ưng_": 6933,
      "ưong ": 6934,
      "ạ . ": 6935,
      "ần_": 6936,
      "ật": 6937,
      "ết": 6938,
      "ể_": 6939,
      "ỉ ": 6940,
      "ỉnh . ": 6941,
      "ốm ": 6942,
      "ốc . ": 6943,
      "ỗng ": 6944,
      "ội_": 6945,
      "ờ , ": 6946,
      "ở các ": 6947,
      "ở trước ": 6948,
      "ứ t": 6949,
      "ứu ": 6950,
      "ựng ": 6951,
      "ng-": 6952,
      "ngu": 6953,
      "ngô ": 6954,
      "ngại . ": 6955,
      " tá": 6956,
      " tiết ": 6957,
      " tạo ": 6958,
      " tiếp_theo ": 6959,
      " túi_xách": 6960,
      " tuyệt_vời . ": 6961,
      "chù": 6962,
      "chừng ": 6963,
      "chủ ": 6964,
      "chóng ": 6965,
      "nhờ": 6966,
      "nh_tr": 6967,
      "nhặt ": 6968,
      "khuy": 6969,
      "khu_": 6970,
      "khẩn_": 6971,
      " đầu ": 6972,
      " đấy . ": 6973,
      " đánh ": 6974,
      "_tải ": 6975,
      "ông ? ": 6976,
      "ông đi ": 6977,
      "ông đã ": 6978,
      " cắt ": 6979,
      "không ph": 6980,
      "không hiểu ": 6981,
      "không giỏi ": 6982,
      "tôi mang ": 6983,
      "tôi gặp ": 6984,
      "tôi xin_lỗi , nhưng ": 6985,
      "tôi cũng đ": 6986,
      "tôi mong ": 6987,
      "bạn không ? ": 6988,
      "bạn của ": 6989,
      "bạn bị ": 6990,
      "bạn của tôi ": 6991,
      "bạn xem ": 6992,
      "bạn vẫn ": 6993,
      "bạn không_thể": 6994,
      "bạn cảm_thấy ": 6995,
      "bạn làm gì ? ": 6996,
      "có còn ": 6997,
      "có cơ_hội ": 6998,
      "làn ": 6999,
      " tôi thích ": 7000,
      " tôi đã": 7001,
      "phiên_": 7002,
      " thổi ": 7003,
      " theo": 7004,
      " thức_ăn ": 7005,
      " thông_tin ": 7006,
      "_thực ": 7007,
      ", phải ": 7008,
      ", bạn có_thể ": 7009,
      ", bạn muốn ": 7010,
      ", mà ": 7011,
      ", sau đó": 7012,
      "thẻ": 7013,
      "thẳng ": 7014,
      "thay_đổi ": 7015,
      "thuốc . ": 7016,
      "thầy ": 7017,
      "thanh_toán ": 7018,
      "ượt_": 7019,
      " treo ": 7020,
      " trang_tr": 7021,
      "n_vọng ": 7022,
      "là người đ": 7023,
      "chúng được ": 7024,
      "có gì": 7025,
      "có loại ": 7026,
      "i để ": 7027,
      "trang ": 7028,
      "trừ ": 7029,
      "tral": 7030,
      "trễ . ": 7031,
      "tree": 7032,
      "cho c": 7033,
      "i_mừng ": 7034,
      "i_só": 7035,
      "iền_t": 7036,
      "một chai ": 7037,
      "một năm . ": 7038,
      "một bức ": 7039,
      "ba cái ": 7040,
      "xe , ": 7041,
      "xe li": 7042,
      "nó có_thể ": 7043,
      "nó trông ": 7044,
      "y_nhiên ": 7045,
      "nào cho ": 7046,
      "nào mà ": 7047,
      "nào ở đây không ? ": 7048,
      "cho anh ": 7049,
      "cho ai ? ": 7050,
      "san ": 7051,
      "sai_só": 7052,
      "nghẹ": 7053,
      "này phải không ? ": 7054,
      "này là bao_nhiêu ? ": 7055,
      "tôi muốn cái ": 7056,
      "tôi muốn gọi ": 7057,
      "tôi muốn gọi điện_thoại ": 7058,
      "hào ": 7059,
      "vui_lòng đến ": 7060,
      "vui_lòng đặt ": 7061,
      "anh_th": 7062,
      "ngày tôi ": 7063,
      "ong . ": 7064,
      "xin hãy ": 7065,
      "iêu . ": 7066,
      "ở lên ": 7067,
      "ở ngoài ": 7068,
      "ở khu ": 7069,
      "gì về ": 7070,
      "iểm . ": 7071,
      " của chúng_ta ": 7072,
      " của anh . ": 7073,
      " của nhật_bản ": 7074,
      " của ai ? ": 7075,
      " của mình . ": 7076,
      "nó là th": 7077,
      "nó ở bên ": 7078,
      "một công_ty ": 7079,
      "làm_ơn giúp tôi ": 7080,
      "làm_ơn hãy đ": 7081,
      "ươi ": 7082,
      "ươi . ": 7083,
      "tôi đi đến ": 7084,
      "tôi đoán ": 7085,
      "tôi đang đ": 7086,
      "việt ": 7087,
      "bảy": 7088,
      "bản_thân ": 7089,
      " đi ra ngoài ": 7090,
      "và hai ": 7091,
      "rất lạnh . ": 7092,
      "một_mình": 7093,
      ", tôi đến ": 7094,
      "_trặ": 7095,
      "_trang ": 7096,
      "sáu": 7097,
      "sát ": 7098,
      "sáu đ": 7099,
      "bạn có một ": 7100,
      "bạn có nghĩ rằng ": 7101,
      "bán_": 7102,
      "khoá": 7103,
      "khoang ": 7104,
      "bạn đừng ": 7105,
      "làm nó ": 7106,
      " của tôi ở đâu ? ": 7107,
      " của tôi đến ": 7108,
      " của tôi trên ": 7109,
      "ổi tiền ": 7110,
      "vào ngày_mai không ? ": 7111,
      "n đồ": 7112,
      "n đi . ": 7113,
      "n đẹp ": 7114,
      "n đấy . ": 7115,
      "xin vui_lòng giữ ": 7116,
      " cá_": 7117,
      " cá_nhân ": 7118,
      " tốt": 7119,
      "này đều ": 7120,
      "rồi , nhưng ": 7121,
      "ngày hôm_qua . ": 7122,
      "ngày hết hạn ": 7123,
      "hơn nhiều ": 7124,
      "hơn một_chút ": 7125,
      "hơn một_chút . ": 7126,
      "buôn_": 7127,
      " thế . ": 7128,
      " lu": 7129,
      "mái_t": 7130,
      "hai ngày ": 7131,
      "hai phần ": 7132,
      "đi bộ ": 7133,
      "chuyến xe_buýt ": 7134,
      "nào đi ": 7135,
      "tôi có_thể biết tên ": 7136,
      "kia đ": 7137,
      "n_thị_": 7138,
      "ấy thế_nào ? ": 7139,
      "được rồi . ": 7140,
      "chỗ của tôi . ": 7141,
      "chỗ đặt": 7142,
      "trong vài ": 7143,
      "ngoài_": 7144,
      " thế_giới . ": 7145,
      "sao lại ": 7146,
      "việc gì ? ": 7147,
      "mấy lần ": 7148,
      "chứ , ": 7149,
      "mua vé": 7150,
      "_điển . ": 7151,
      "mang đi ": 7152,
      "tôi không hiểu ": 7153,
      "tôi không thích": 7154,
      "gì đã ": 7155,
      "bằng tiền ": 7156,
      "1 người ": 7157,
      "khách_sạn không ? ": 7158,
      "khách_sạn này ": 7159,
      "nên đi ": 7160,
      "tôi sẽ chờ ": 7161,
      "tôi sẽ ở lại ": 7162,
      "còn về": 7163,
      "gần đó không ? ": 7164,
      "nhật_bản th": 7165,
      "viên thuốc ": 7166,
      "lúc 0": 7167,
      "lúc 6 giờ ": 7168,
      "khoảng ba ": 7169,
      "khoảng 3 ": 7170,
      "chỗ bạn ": 7171,
      "chỗ này ": 7172,
      "t thì ": 7173,
      "quá rồi . ": 7174,
      "quá nhiều . ": 7175,
      "quá nóng ": 7176,
      "tôi có_thể trả ": 7177,
      "tôi có_thể đón ": 7178,
      "tôi có_thể đến đó ": 7179,
      "quốc . ": 7180,
      "bên này ": 7181,
      " của bạn ? ": 7182,
      "lạc đường ": 7183,
      "nước đ": 7184,
      "nhà không ? ": 7185,
      "vâng , có ": 7186,
      "các vị ": 7187,
      " trên chuyến bay ": 7188,
      " trên tầng ": 7189,
      "bắc ": 7190,
      ", thứ_": 7191,
      "mời anh ": 7192,
      "mời các bạn ": 7193,
      "bạn muốn loại ": 7194,
      "vào t": 7195,
      "giải ": 7196,
      " tốt rồi . ": 7197,
      "đó là": 7198,
      "đây là một ": 7199,
      "giúp_": 7200,
      "êm không ? ": 7201,
      "không có gì . ": 7202,
      "không có chi ": 7203,
      "buổi tiệ": 7204,
      "m_thắng_cả": 7205,
      "tôi đã không ": 7206,
      "chào . ": 7207,
      "sáng sớm ": 7208,
      "tìm đ": 7209,
      " trước không ? ": 7210,
      "nước không ? ": 7211,
      "bạn có_thể tìm ": 7212,
      "tôi sẽ đưa ": 7213,
      "mà bạn ": 7214,
      "một cây ": 7215,
      "yên_l": 7216,
      "lấy nó ": 7217,
      "em muốn ": 7218,
      "rượu_": 7219,
      " cam ": 7220,
      "nơi này . ": 7221,
      "trên tầng ": 7222,
      ", đừng ": 7223,
      "nhỏ , ": 7224,
      "của bạn là ": 7225,
      "tôi muốn đặt trước ": 7226,
      "nhiều c": 7227,
      "màu vàng ": 7228,
      "gọi đường ": 7229,
      "gọi điện_thoại . ": 7230,
      "nhật_bản bằng ": 7231,
      "làm tốt ": 7232,
      "cái này bằng ": 7233,
      "cái này quá ": 7234,
      "bao_nhiêu người ? ": 7235,
      "một cái gì đó ": 7236,
      "một cái gì đó": 7237,
      "ăn_ch": 7238,
      "làm_ơn cho chúng_tôi ": 7239,
      "tối na": 7240,
      "tối nay . ": 7241,
      "tốt lắm . ": 7242,
      "bán vé ": 7243,
      "bán hết rồi . ": 7244,
      "hạ ": 7245,
      "iễn_đ": 7246,
      "ường đại_": 7247,
      "quần_je": 7248,
      "hiệu th": 7249,
      "tôi đã đến ": 7250,
      "khi nào vậy ? ": 7251,
      "từ nhật_bản . ": 7252,
      " tay . ": 7253,
      "phí cho ": 7254,
      "trả thêm ": 7255,
      "sự giúp_đỡ": 7256,
      "oàn_": 7257,
      "gói đ": 7258,
      "tax": 7259,
      "tami": 7260,
      "xuất_cả": 7261,
      "giao_": 7262,
      "bạn đến không ? ": 7263,
      "không đủ ": 7264,
      " đặt_hàng ": 7265,
      "tuần sau ": 7266,
      "ối_với bạn ": 7267,
      "hoàn lại ": 7268,
      "giày . ": 7269,
      "kỳ . ": 7270,
      "đừng khách_sáo . ": 7271,
      "tại_sao ? ": 7272,
      "tại_sao": 7273,
      "xong rồi . ": 7274,
      "là một người ": 7275,
      "hàng_không ? ": 7276,
      "hàng_hoá": 7277,
      "dùng đ": 7278,
      "xem có ": 7279,
      "nộp": 7280,
      "nội_tr": 7281,
      "giúp tôi . ": 7282,
      " con đ": 7283,
      "tôi cần một ": 7284,
      "tôi cần mua ": 7285,
      "tôi muốn thay_đổi ": 7286,
      "vợ tôi . ": 7287,
      "chụp hình": 7288,
      "hút ": 7289,
      " tới ? ": 7290,
      "nghe tin ": 7291,
      " tính": 7292,
      "ưởng . ": 7293,
      "tôi cũng rất ": 7294,
      "i_vi ": 7295,
      "chúng_tôi có một ": 7296,
      "12 giờ ": 7297,
      "anh ấy đến ": 7298,
      "việc đó ": 7299,
      "iền_mặt . ": 7300,
      "tiểu_trương ": 7301,
      "tiểu_thuyết ": 7302,
      "thế . ": 7303,
      "hoặc": 7304,
      "khi nào thì": 7305,
      "này có dừng lại ": 7306,
      "áo_choàng ": 7307,
      " được tr": 7308,
      "này thì ": 7309,
      "này thành": 7310,
      "viết chữ ": 7311,
      "một_số t": 7312,
      "một_số đồ": 7313,
      "mạnh . ": 7314,
      "tôi muốn đặt một phòng ": 7315,
      "nh đẹp ": 7316,
      "intel": 7317,
      "không thấy ": 7318,
      "không thành ": 7319,
      "bạn đã đi ": 7320,
      "lấy cái ": 7321,
      "báo_giá ": 7322,
      "đây có phải đ": 7323,
      "món . ": 7324,
      " thực_sự ": 7325,
      "nó có một ": 7326,
      "uốc_lá . ": 7327,
      "mua cái này ": 7328,
      "kịch_": 7329,
      "lý_do ": 7330,
      "vitami": 7331,
      "xếp_": 7332,
      "áo đ": 7333,
      "ông có_thể cho tôi biết ": 7334,
      "lâu rồi ": 7335,
      "chủ_nhật": 7336,
      "quay số ": 7337,
      "20 . ": 7338,
      "7 giờ . ": 7339,
      "bảo_tàng . ": 7340,
      "mở_cửa t": 7341,
      "rời khỏ": 7342,
      "xảy_ra t": 7343,
      "vui_lòng cho chúng_tôi ": 7344,
      "ý_nghĩ": 7345,
      "ý_nghĩa ": 7346,
      "thực_phẩm ": 7347,
      "gói nó ": 7348,
      "làm phiền bạn . ": 7349,
      "giảm giá cho tôi ": 7350,
      "cho_biết tên ": 7351,
      "bản báo_cáo ": 7352,
      "tin_nhắn ": 7353,
      "ví của tôi . ": 7354,
      "khoản phí ": 7355,
      "ai đang ": 7356,
      "tổng_đài ": 7357,
      "khóa học ": 7358,
      "khoẻ , ": 7359,
      "ten": 7360,
      "những cái này . ": 7361,
      "p đại_học ": 7362,
      "một người bạn ": 7363,
      "rất thú_vị . ": 7364,
      "rượu_vang . ": 7365,
      "bữa tr": 7366,
      "âm_nhạc . ": 7367,
      "chúng_tôi sẽ đến ": 7368,
      "30 phút . ": 7369,
      "mình đi ": 7370,
      "sức_khoẻ . ": 7371,
      "ầy_đ": 7372,
      "hoa_s": 7373,
      "phong_cách ": 7374,
      "phong_bì ": 7375,
      "thịt b": 7376,
      "thịt bò": 7377,
      "khu_vự": 7378,
      "ược tiếng ": 7379,
      "làm thế_nào tôi có_thể ": 7380,
      "trước đây . ": 7381,
      "u cơm ": 7382,
      "bạn có_thể đề_nghị ": 7383,
      "từ đây": 7384,
      "lặn . ": 7385,
      "lịch": 7386,
      "séc du_lịch": 7387,
      "uế . ": 7388,
      "biết đường đến ": 7389,
      " tối nay ? ": 7390,
      "nổi_tiếng . ": 7391,
      "sức khỏe ": 7392,
      "sắp đi ": 7393,
      "liên_quan đến ": 7394,
      "tiền_mặt . ": 7395,
      "ngồi đ": 7396,
      "xảy_ra ? ": 7397,
      "ại_lý ": 7398,
      " tàu_điện_ngầm ": 7399,
      "giùm ": 7400,
      "xem_xét ": 7401,
      "iếp_tục ": 7402,
      "chicago . ": 7403,
      "tác_": 7404,
      "_lạnh . ": 7405,
      "một cuộc hẹn ": 7406,
      "nguyễn_": 7407,
      "nơi nào đó ": 7408,
      "tôi có_thể thử": 7409,
      "tôi có_thể thử ": 7410,
      "ực của ": 7411,
      "chấp_nhận đ": 7412,
      "mua đồ . ": 7413,
      "bất_cứ thứ ": 7414,
      "bến_": 7415,
      "kênh ": 7416,
      "o trương ": 7417,
      "ở trên tầng ": 7418,
      "nấu cơm ": 7419,
      "lốp ": 7420,
      "suốt đ": 7421,
      "điều này ": 7422,
      "15 phút ": 7423,
      "entral": 7424,
      "jazz": 7425,
      "chữ_": 7426,
      "hội_viên ": 7427,
      "mất bao_lâu để đến ": 7428,
      "việc_làm ": 7429,
      "chiếc áo này ": 7430,
      "chào ông ! ": 7431,
      "dạo này ": 7432,
      "giấy_bạc ": 7433,
      " cuộc_sống ": 7434,
      ", nếu không ": 7435,
      " đâu , ": 7436,
      "đây là thẻ ": 7437,
      "lịch_sử ": 7438,
      "âu_lạc_bộ": 7439,
      "mũi ": 7440,
      "ật đẹp ": 7441,
      ", thì tôi ": 7442,
      "giúp_đỡ . ": 7443,
      "xúc_xích ": 7444,
      "ục_trặ": 7445,
      "vận_chuyể": 7446,
      "quá đắt . ": 7447,
      "sản_xuất": 7448,
      "phong_cảnh ": 7449,
      "không tốt lắm . ": 7450,
      "ạn li . ": 7451,
      "làm kinh_doanh phải không ? ": 7452,
      "à_chua . ": 7453,
      "miễn thuế . ": 7454,
      "may_mắn ": 7455,
      "danh_la": 7456,
      "chuyến tàu": 7457,
      "tìm thấy nó . ": 7458,
      "hồ_chí_": 7459,
      "567": 7460,
      "chết đ": 7461,
      "quẹo tr": 7462,
      "mọi người đều ": 7463,
      ", có_lẽ ": 7464,
      "_nhân . ": 7465,
      "chỗ ngồi_": 7466,
      "một cuộn phim ": 7467,
      "liên_lạc với ": 7468,
      "sơ_c": 7469,
      "ồn_ào ": 7470,
      "màu_sắc ": 7471,
      "vào tối mai . ": 7472,
      "mười lăm phút . ": 7473,
      "son m": 7474,
      " đường_ray ": 7475,
      "ban_công ": 7476,
      ", tôi có_thể giúp gì ": 7477,
      "iếp_theo đến ": 7478,
      "lúc bảy giờ . ": 7479,
      "lưu_ki": 7480,
      "khiếu_n": 7481,
      "cá_nhân của tôi . ": 7482,
      "suzuki . ": 7483,
      "giới_thiệu một_chút , đây là ": 7484,
      " từ đây đến ": 7485,
      "miễn_phí . ": 7486,
      "kích_thước ": 7487,
      "ặt trước . ": 7488,
      "ẻ điện_thoại ": 7489,
      "tôi họ tr": 7490,
      "pho_mát ": 7491,
      "lãnh_đ": 7492,
      "rạp_chiếu phim ": 7493,
      "ứa con ": 7494,
      "nhanh_chó": 7495,
      "người_ta ": 7496,
      "ngày mốt ": 7497,
      "ơn_giản ": 7498,
      "nghỉ hưu rồi . ": 7499,
      "lúc đó ": 7500,
      "bóng_chày ": 7501,
      "yên_tĩnh . ": 7502,
      ", thưa ông ? ": 7503,
      "iếp_đãi ": 7504,
      "chào bạn ! ": 7505,
      "ngay_cả ": 7506,
      "chủ_yếu ": 7507,
      "dấu_": 7508,
      "lời_nói ": 7509,
      "vâng , đúng ": 7510,
      "bức thư ": 7511,
      "phụ_thuộc vào ": 7512,
      "làm thủ_tục trả phòng ": 7513,
      "sài_gòn ": 7514,
      "xử_l": 7515,
      "bạn cảm_thấy thế_nào ? ": 7516,
      "qua_đời ": 7517,
      "à lạt ": 7518,
      "rau cả": 7519,
      "gian_hàng ": 7520,
      " trở_thành ": 7521,
      "bữa tối ": 7522,
      "giấy_tờ ": 7523,
      "bổ_sung ": 7524,
      "vợ_chồng ": 7525,
      "interne": 7526,
      "mãi_mãi ": 7527,
      "sườn ": 7528,
      "ôi_tối ": 7529,
      "danh_lam_thắng_cả": 7530,
      ", tuần ": 7531,
      ", cô ấy ": 7532,
      "1000 ": 7533,
      "500 ": 7534,
      "65": 7535,
      "; ": 7536,
      "ao": 7537,
      "ao ": 7538,
      "bơi . ": 7539,
      "bề_": 7540,
      "bèn ": 7541,
      "bẩn ": 7542,
      "bất_t": 7543,
      "cu": 7544,
      "c cái ": 7545,
      "cất_cánh ": 7546,
      "cuối_cù": 7547,
      "dáng ": 7548,
      "em đ": 7549,
      "era": 7550,
      "gậ": 7551,
      "gắ": 7552,
      "gợ": 7553,
      "gối ": 7554,
      "gà ? ": 7555,
      "hỗ": 7556,
      "hại ": 7557,
      "hận ": 7558,
      "hấp_d": 7559,
      "ine": 7560,
      "ko ": 7561,
      "kiệ": 7562,
      "ki . ": 7563,
      "kiên_": 7564,
      "lo ": 7565,
      "leo ": 7566,
      "lông_": 7567,
      "lô ": 7568,
      "lệ_": 7569,
      "mỏ": 7570,
      "m tối ": 7571,
      "mỡ ": 7572,
      "nj": 7573,
      "nổi ": 7574,
      "nền ": 7575,
      "o th": 7576,
      "o đến ": 7577,
      "o được không ? ": 7578,
      "ope": 7579,
      "pu": 7580,
      "pou": 7581,
      "rằ": 7582,
      "râu ": 7583,
      "sòng ": 7584,
      "s không ? ": 7585,
      "tập ": 7586,
      "tắm ": 7587,
      "tới đó ": 7588,
      "tạm_biệt . ": 7589,
      "tiết_kiệm ": 7590,
      "vịnh ": 7591,
      "vương . ": 7592,
      "văn . ": 7593,
      "vương_th": 7594,
      "wi": 7595,
      "wa . ": 7596,
      "wes": 7597,
      "x ": 7598,
      "xó": 7599,
      "xú": 7600,
      "xúc ": 7601,
      "xanh . ": 7602,
      "yos": 7603,
      "yok": 7604,
      "ánh": 7605,
      "áp . ": 7606,
      "ê-": 7607,
      "ít . ": 7608,
      "ít t": 7609,
      "ít đ": 7610,
      "òn . ": 7611,
      "ói_": 7612,
      "ó có ": 7613,
      "ôm_": 7614,
      "ôi_": 7615,
      "õi ": 7616,
      "úi . ": 7617,
      "điện ": 7618,
      "đánh_": 7619,
      "đầu_tiên ": 7620,
      "đi đâu ": 7621,
      "đại_lộ ": 7622,
      "điều đó": 7623,
      "ơi đó ": 7624,
      "ạ ": 7625,
      "ạm . ": 7626,
      "ại đến ": 7627,
      "ạm c": 7628,
      "ầm_l": 7629,
      "ẩm ": 7630,
      "ật th": 7631,
      "ật tốt ": 7632,
      "ắt_": 7633,
      "ắm đ": 7634,
      "ắt_l": 7635,
      "ề_tài ": 7636,
      "ể lại ": 7637,
      "ỉ . ": 7638,
      "ỉnh ": 7639,
      "ọc t": 7640,
      "ốc": 7641,
      "ồi_": 7642,
      "ổ_c": 7643,
      "ộ_trình ": 7644,
      "ở tokyo . ": 7645,
      "ỡ . ": 7646,
      "ức t": 7647,
      "ừa ": 7648,
      "ừ th": 7649,
      "ử_t": 7650,
      "ngũ": 7651,
      "ngộ": 7652,
      "ngờ": 7653,
      "ngang ": 7654,
      "ngọn ": 7655,
      "ngưỡ": 7656,
      "ngưng ": 7657,
      "n không ? ": 7658,
      " tuyến ": 7659,
      " tuyệt_vời ": 7660,
      "chăn ": 7661,
      "chích ": 7662,
      "chanh . ": 7663,
      "chữa ": 7664,
      "chạm ": 7665,
      "chợ ": 7666,
      "chung_c": 7667,
      "nhiễ": 7668,
      "nhầm_l": 7669,
      "khu tr": 7670,
      " đang đ": 7671,
      " đều": 7672,
      "ông đ": 7673,
      "ông xem ": 7674,
      "ông thích ": 7675,
      " cò": 7676,
      " cứ": 7677,
      "không cao ": 7678,
      "tôi và ": 7679,
      "tôi ước ": 7680,
      "tôi gọi ": 7681,
      "tôi mua ": 7682,
      "tôi dùng ": 7683,
      "tôi phải đ": 7684,
      "tôi sinh ": 7685,
      "tôi xin_lỗi , ": 7686,
      "tôi biết . ": 7687,
      "tôi hoàn_toàn ": 7688,
      "tôi nói tiếng hoa ": 7689,
      "bạn ăn ": 7690,
      "bạn chơi ": 7691,
      "bạn biết": 7692,
      "bạn nói đ": 7693,
      "bạn khoẻ không ? ": 7694,
      "o - ": 7695,
      "có thời_gian ": 7696,
      "phé": 7697,
      "u không ? ": 7698,
      "u và ": 7699,
      " thị": 7700,
      " thu_": 7701,
      " thành_công ": 7702,
      " thật đẹp . ": 7703,
      "_thời ": 7704,
      "_thân ": 7705,
      "_thuậ": 7706,
      "gian ": 7707,
      "giận ": 7708,
      "giận . ": 7709,
      ", m": 7710,
      ", và": 7711,
      ", như": 7712,
      ", làm_ơn ": 7713,
      ", rất ": 7714,
      ", hay ": 7715,
      ", hôm_nay ": 7716,
      ", chị ": 7717,
      ", sau khi ": 7718,
      "thực_t": 7719,
      "thường_xuyên ": 7720,
      "thành_phố . ": 7721,
      "thức uống ": 7722,
      "mộ ": 7723,
      "uốc tr": 7724,
      "_thể . ": 7725,
      "ượt . ": 7726,
      "ược c": 7727,
      " trường_": 7728,
      "n_cậ": 7729,
      "iện_": 7730,
      "là 1": 7731,
      "là nơi ": 7732,
      "là mấy giờ ? ": 7733,
      "là một trong những ": 7734,
      "chút th": 7735,
      "quân ": 7736,
      "qua t": 7737,
      "quí ": 7738,
      "có , chúng_tôi ": 7739,
      "có bác_sĩ ": 7740,
      "có nơi nào ": 7741,
      "ng_ngày_càng ": 7742,
      "ơn . ": 7743,
      "tro": 7744,
      "trễ": 7745,
      "trọ": 7746,
      "trung_": 7747,
      "trắng ": 7748,
      "trứng ": 7749,
      "cho cô": 7750,
      "cho thêm ": 7751,
      "một năm ": 7752,
      "ba đ": 7753,
      "bay đ": 7754,
      "xe có ": 7755,
      "xe ? ": 7756,
      " đây có ": 7757,
      "sẽ đi đến ": 7758,
      "chúng_ta t": 7759,
      "chúng_ta th": 7760,
      "nói đi ": 7761,
      "nó đi . ": 7762,
      "cho tôi hai ": 7763,
      "cho tôi 1 ": 7764,
      "cho tôi một_số ": 7765,
      "cho tôi một chiếc ": 7766,
      "cho là ": 7767,
      "cho những ": 7768,
      "cho anh . ": 7769,
      "sato . ": 7770,
      "này sẽ ": 7771,
      "tôi muốn làm ": 7772,
      "tôi muốn hỏi ": 7773,
      "tôi muốn một_số ": 7774,
      "tôi muốn tìm ": 7775,
      "tôi muốn mở": 7776,
      "tôi muốn mở ": 7777,
      "hà ": 7778,
      "giờ để ": 7779,
      "anh của ": 7780,
      "anh có_thể": 7781,
      "anh đã ": 7782,
      "anh cảm_thấy ": 7783,
      "ch hóa ": 7784,
      "ngàn đ": 7785,
      "xin đừng ": 7786,
      " đến tokyo . ": 7787,
      "chúng_tôi chỉ ": 7788,
      "chúng_tôi không có ": 7789,
      "ở bắc_kinh ": 7790,
      "ở nước_ngoài . ": 7791,
      "người đến ": 7792,
      "người đó ": 7793,
      "người đi ": 7794,
      "gì nữa không ? ": 7795,
      " của chúng_ta . ": 7796,
      "sống . ": 7797,
      "sốt c": 7798,
      "ng đi . ": 7799,
      "ng đã ": 7800,
      "nó cho bạn ": 7801,
      "nó không phải ": 7802,
      "nó không đ": 7803,
      "nó là một ": 7804,
      "với t": 7805,
      "với nhau . ": 7806,
      "làm_ơn lấy ": 7807,
      "làm_ơn chỉ cho tôi ": 7808,
      "làm_ơn cắt ": 7809,
      "làm_ơn mang cho tôi ": 7810,
      "nhập": 7811,
      "nhận_": 7812,
      "nhật th": 7813,
      "a_s": 7814,
      "ăn tối . ": 7815,
      " đi bằng ": 7816,
      " đi theo ": 7817,
      " đi làm . ": 7818,
      "phòng của bạn . ": 7819,
      "khi chúng_tôi đến ": 7820,
      "một_cách": 7821,
      "một_mình . ": 7822,
      "biến_": 7823,
      "giờ sáng ": 7824,
      ", tôi thích ": 7825,
      ", tôi không_thể ": 7826,
      "sáng_t": 7827,
      "sáng đến ": 7828,
      "bạn có bản_đồ": 7829,
      "bán . ": 7830,
      "iền vào thẻ ": 7831,
      "đâu cũng ": 7832,
      "bạn có_thể sửa ": 7833,
      "khoa_": 7834,
      "nói , ": 7835,
      "nói cho tôi ": 7836,
      "nói về ": 7837,
      "ường không ? ": 7838,
      "bạn được . ": 7839,
      "vào sáng_mai ": 7840,
      "xin vui_lòng đến ": 7841,
      " cá . ": 7842,
      " tốc_": 7843,
      " tốc_đ": 7844,
      "rồi hả ? ": 7845,
      "cảnh": 7846,
      "ch_hoá ": 7847,
      "ngày lễ": 7848,
      "năm c": 7849,
      "những loại ": 7850,
      "những bộ quần_áo ": 7851,
      " lâu ": 7852,
      " lực ": 7853,
      "hai giờ . ": 7854,
      "đi lên ": 7855,
      "đi nhanh ": 7856,
      "chuyến xe_lửa đến ": 7857,
      "000 . ": 7858,
      "chiếc th": 7859,
      "cái này có": 7860,
      "nào được ": 7861,
      "nào đó ": 7862,
      "nào đó": 7863,
      "nào tốt không ? ": 7864,
      "biết , ": 7865,
      "biết khi nào ": 7866,
      "số 1": 7867,
      "tôi có_thể hỏi ": 7868,
      "kinh . ": 7869,
      "lại tiền ": 7870,
      "tối_qua ": 7871,
      "ấy th": 7872,
      "bị viêm ": 7873,
      "chỗ tr": 7874,
      "mà tôi đã ": 7875,
      "của tôi được không ? ": 7876,
      "gọi cho ": 7877,
      "sao bạn ": 7878,
      "n_tập ": 7879,
      "giá cao ": 7880,
      "xem qua ": 7881,
      "uống thêm ": 7882,
      "việc này": 7883,
      "mấy năm ": 7884,
      "a đang ": 7885,
      "phí . ": 7886,
      "chứa ": 7887,
      "mang đến ": 7888,
      "tôi không phải ": 7889,
      "tôi không cảm_thấy ": 7890,
      "tôi không chắc ": 7891,
      "rất cao . ": 7892,
      "rất cám_ơn ": 7893,
      "gì đó . ": 7894,
      "năm giờ ": 7895,
      "năm nào ? ": 7896,
      "ra nước_ngoài ": 7897,
      "về việc ": 7898,
      "bằng th": 7899,
      "1 chiếc ": 7900,
      "c đường . ": 7901,
      "gửi bưu_": 7902,
      "tôi sẽ phải ": 7903,
      "gần nhất . ": 7904,
      "gần đây": 7905,
      "nhiều lắm . ": 7906,
      "har": 7907,
      "hai đến ": 7908,
      "hay c": 7909,
      "khoảng sáu ": 7910,
      "khoảng hai trăm đ": 7911,
      "bạn có đi ": 7912,
      "nhà_hát . ": 7913,
      "quá , tôi ": 7914,
      "chúng_ta phải ": 7915,
      "chúng_ta hãy đ": 7916,
      "tôi có_thể t": 7917,
      "ô_la trong ": 7918,
      "bên này . ": 7919,
      "bên ngoài . ": 7920,
      "ờ khai ": 7921,
      " của bạn như thế_nào ? ": 7922,
      "lạ . ": 7923,
      "lần thứ ": 7924,
      "máy_ảnh . ": 7925,
      "ích của ": 7926,
      "nhà bạn có ": 7927,
      "các anh ": 7928,
      "dùng loại ": 7929,
      "mời vào . ": 7930,
      "bạn muốn mua ": 7931,
      "ý với ": 7932,
      "vào thời_gian ": 7933,
      " tốt cho ": 7934,
      "t đi . ": 7935,
      "t đẹp ": 7936,
      "lớn đ": 7937,
      "sự thay_đổi ": 7938,
      "đó không phải ": 7939,
      "giá không ? ": 7940,
      "đây là lần đầu_tiên ": 7941,
      "p_b": 7942,
      "quá_": 7943,
      "kết ": 7944,
      "một_chút": 7945,
      "anh ấy không ": 7946,
      "phố cổ ": 7947,
      "quầy đ": 7948,
      "nước nóng . ": 7949,
      "m_truyền_hình ": 7950,
      "cana": 7951,
      "ộng với ": 7952,
      "bạn có_thể . ": 7953,
      "tôi sẽ th": 7954,
      "tôi sẽ trở_lại ": 7955,
      "phát_t": 7956,
      "mà bạn muốn ": 7957,
      "ường_cao_t": 7958,
      "một co": 7959,
      "một căn phòng ": 7960,
      "mấy giờ rồi ? ": 7961,
      "vì sự ": 7962,
      "y thật ": 7963,
      "khác nhau ": 7964,
      "mất bao_nhiêu": 7965,
      "mất bao_lâu ": 7966,
      "hôm_nay là ngày ": 7967,
      "tôi có hai ": 7968,
      "bạn thử": 7969,
      "bạn thì sao ? ": 7970,
      "tôi đang ở ": 7971,
      ", tiể": 7972,
      ", tiếng ": 7973,
      ", từ ": 7974,
      ", tổng_cộng ": 7975,
      "của bạn ? ": 7976,
      "biểu_đ": 7977,
      "tuy ": 7978,
      "chuyến bay số ": 7979,
      "biệt ": 7980,
      " đồ_đ": 7981,
      " đồ_dùng ": 7982,
      "orl": 7983,
      "bạn sẽ ở lại ": 7984,
      "từ đây ": 7985,
      "mọi người . ": 7986,
      "chị có_thể ": 7987,
      "chịu tr": 7988,
      "hành_lý không ? ": 7989,
      "xin hỏi ông ": 7990,
      "xin hỏi , ông ": 7991,
      "hồi_": 7992,
      "hồng . ": 7993,
      "bao_nhiêu ngày ? ": 7994,
      "ngoài trời ": 7995,
      "bệnh": 7996,
      "bộ sưu_t": 7997,
      "mùi ": 7998,
      "bán hết ": 7999,
      " tìm": 8000,
      " tìm đ": 8001,
      "lớn không ? ": 8002,
      "ường đó ": 8003,
      "xe_lửa . ": 8004,
      "5 phút . ": 8005,
      "rồi , phải không ? ": 8006,
      "hiệu_l": 8007,
      "ông_minh ": 8008,
      "khi nào bạn đi ": 8009,
      "u ta ": 8010,
      "eri": 8011,
      "sản . ": 8012,
      "không_thể đ": 8013,
      "tìm ai ? ": 8014,
      "sau được không ? ": 8015,
      "không được": 8016,
      "giới_thiệ": 8017,
      "ngay bây_giờ không ? ": 8018,
      "thật không ? ": 8019,
      "thật áy_náy ": 8020,
      " cô gái ": 8021,
      "tuần sau": 8022,
      "bác_sĩ không ? ": 8023,
      ", bạn sẽ": 8024,
      ", bạn nên ": 8025,
      "mẹ tôi . ": 8026,
      "sống với ": 8027,
      "sống trong ": 8028,
      "bill": 8029,
      "dùng . ": 8030,
      "dùm . ": 8031,
      "dùng để ": 8032,
      " công_ngh": 8033,
      "mở . ": 8034,
      "ghi_": 8035,
      "mười giờ ": 8036,
      "mười phút . ": 8037,
      " của tr": 8038,
      "biết cách ": 8039,
      "bữa sáng ": 8040,
      "sân_vận_động ": 8041,
      "giúp tôi được không ? ": 8042,
      "tôi muốn tham_quan ": 8043,
      "tôi muốn thực_hiện ": 8044,
      "trước , ": 8045,
      "nói_d": 8046,
      "nói_chuyện . ": 8047,
      "giới_thiệu một ": 8048,
      "số điện_thoại . ": 8049,
      "cắp . ": 8050,
      "bạn_học": 8051,
      "chiều nay . ": 8052,
      " đổi nó ": 8053,
      "bạn có muốn uống ": 8054,
      "bạn có muốn dùng ": 8055,
      "anh_hùng ": 8056,
      "chúng_tôi có rất nhiều ": 8057,
      "tiểu_v": 8058,
      "thế thôi . ": 8059,
      "chút nào . ": 8060,
      "hợp với tôi . ": 8061,
      "tôi muốn mua một_số ": 8062,
      "một phòng có ": 8063,
      ", có lúc ": 8064,
      "3 giờ . ": 8065,
      "như thế ? ": 8066,
      "đúng rồi ": 8067,
      "đúng rồi , ": 8068,
      "khi nào thì ": 8069,
      "két ": 8070,
      "tôi nên đi ": 8071,
      "ở đây để ": 8072,
      "nhân_viên bán hàng ": 8073,
      "tôi muốn đặt phòng ": 8074,
      "ghế . ": 8075,
      "ầu_tư ": 8076,
      "món ăn đ": 8077,
      ", chúng_tôi sẽ ": 8078,
      " từ_": 8079,
      "lời khuyên ": 8080,
      "lời nhắn ": 8081,
      "trung . ": 8082,
      "trung_tâ": 8083,
      "nhạc jazz": 8084,
      "ại đây ": 8085,
      "9 : 00 ": 8086,
      "văn_phòng_": 8087,
      "mấy đ": 8088,
      "giặt ủ": 8089,
      "mua cái ": 8090,
      "dễ_thương ": 8091,
      "kịch . ": 8092,
      "mart": 8093,
      "lý_": 8094,
      " đã được ": 8095,
      "như vậy không ": 8096,
      " tiếng hoa . ": 8097,
      "giữ_": 8098,
      "giữa . ": 8099,
      "giữa đ": 8100,
      "với bạn không ? ": 8101,
      "bận lắm . ": 8102,
      "lâu rồi . ": 8103,
      "gần nhất ở đâu vậy ? ": 8104,
      "chủ_nhật . ": 8105,
      "bật đ": 8106,
      "quay lại . ": 8107,
      "hành_lý ở đâu ? ": 8108,
      "hóa đơn . ": 8109,
      "một thùng ": 8110,
      "một thẻ ": 8111,
      "séc . ": 8112,
      "nguyê": 8113,
      "một lần nữa ": 8114,
      "tàu không ? ": 8115,
      "chật . ": 8116,
      "chuyển đi ": 8117,
      "lắm không ? ": 8118,
      "lắm , nhưng ": 8119,
      "xác_đ": 8120,
      "dao ": 8121,
      "túi của tôi . ": 8122,
      "viết . ": 8123,
      "nóng không ? ": 8124,
      "đặt trước ": 8125,
      "thứ_l": 8126,
      "thực_sự": 8127,
      "màu đỏ . ": 8128,
      "bệnh_việ": 8129,
      "bạn nên đi ": 8130,
      "gì đó không ổn ": 8131,
      "sưng ": 8132,
      "mãi . ": 8133,
      "ví_d": 8134,
      "học tốt tiếng ": 8135,
      "nổ lực ": 8136,
      "những điều ": 8137,
      "quanh đây ": 8138,
      "bút ": 8139,
      "búp_b": 8140,
      "trả bằng ": 8141,
      "và tôi muốn ": 8142,
      "trạm xe_buýt ": 8143,
      "hoa_hồng ": 8144,
      "bạn có thẻ ": 8145,
      "8 giờ . ": 8146,
      "kí ? ": 8147,
      "chờ tôi ": 8148,
      "có đủ": 8149,
      "bánh_mì nướng ": 8150,
      "bánh_mì kẹp": 8151,
      " toa thuốc ": 8152,
      "làm được . ": 8153,
      "để tôi xem ": 8154,
      "làm thế_nào để đến ": 8155,
      "99 đô_la ": 8156,
      "bạn có biết nhà_hàng ": 8157,
      "tôi muốn một_ít kem ": 8158,
      "màu xanh không ? ": 8159,
      "từ đâu ? ": 8160,
      "úi_xách ": 8161,
      "úi_xách . ": 8162,
      "dãy nhà ": 8163,
      "ông muốn gửi ": 8164,
      "tôi có_thể có một ": 8165,
      "ái_cực_": 8166,
      "chăm_chỉ": 8167,
      "như thế này ": 8168,
      "ở trường ": 8169,
      "nghỉ_ngơi cho ": 8170,
      "bưu_điện . ": 8171,
      "bức đ": 8172,
      "cuộc th": 8173,
      "khắc ": 8174,
      "usd ": 8175,
      " tài_l": 8176,
      "giùm tôi . ": 8177,
      "xem_ra": 8178,
      "lần đầu": 8179,
      "chính_ph": 8180,
      "khó_chịu . ": 8181,
      "máy_tính . ": 8182,
      "đưa cho tôi ": 8183,
      "hộ_chiếu của tôi ": 8184,
      "và cà_phê . ": 8185,
      "gặp các bạn ": 8186,
      "lễ_hội ": 8187,
      "vô_": 8188,
      "vô_t": 8189,
      "nữa cũng ": 8190,
      "tôi có_thể thanh_toán ": 8191,
      "ghét ": 8192,
      "ghé thăm ": 8193,
      "lầu số ": 8194,
      "nhiều thời_gian . ": 8195,
      "mục_t": 8196,
      "ngoại_ngữ . ": 8197,
      "con_số ": 8198,
      "mới_": 8199,
      "hai trăm ": 8200,
      "000 đồng . ": 8201,
      "bên trong . ": 8202,
      "sự_quán ": 8203,
      "sự_kiện ": 8204,
      "lễ quốc_khá": 8205,
      "rẽ trái tại đ": 8206,
      "dây an_toàn ": 8207,
      "jane": 8208,
      "jack": 8209,
      " cuộc gọi ": 8210,
      "mất bao_lâu để ": 8211,
      "quần_vợt . ": 8212,
      "có , tôi có ": 8213,
      "iễn lã": 8214,
      "bóng_r": 8215,
      "vào sáng sớm ": 8216,
      "vào sáng ngày_mai . ": 8217,
      "minh_khai ": 8218,
      "bắt_đầu từ ": 8219,
      "phù_hợp với ": 8220,
      "ịa_điểm th": 8221,
      "chính_xác . ": 8222,
      "còn_lại ": 8223,
      "sơn móng ": 8224,
      "nam_mô": 8225,
      "nam_mô ": 8226,
      "hai tuần . ": 8227,
      "chiếc đồng_hồ": 8228,
      "nghĩa là gì ? ": 8229,
      "một lát . ": 8230,
      "lưu_niệm ": 8231,
      "geor": 8232,
      "ựa_chọn . ": 8233,
      "không còn sớm ": 8234,
      "một chuyến . ": 8235,
      "ở góc th": 8236,
      "mười đô_la . ": 8237,
      "sinh_nhật vui_vẻ ": 8238,
      "bút_chì ": 8239,
      "giám_đốc công_ty ": 8240,
      "nước cam . ": 8241,
      "ời_gian để": 8242,
      "ời_gian để ": 8243,
      "broad": 8244,
      "jal_": 8245,
      "m của anh . ": 8246,
      "địa_chỉ này . ": 8247,
      "trực_tiếp": 8248,
      "dân_số": 8249,
      " đọc sách ": 8250,
      " càng sớm càng tốt . ": 8251,
      "iện_tử . ": 8252,
      "có việc gì ": 8253,
      "ban nhạc ": 8254,
      "vào buổi sáng . ": 8255,
      "luân_đôn . ": 8256,
      "tỉ_giá_hối_đoái ": 8257,
      "tính tiền ": 8258,
      "động_": 8259,
      "phong thư ": 8260,
      " cảnh_sát . ": 8261,
      "bên cạnh ": 8262,
      "bí_": 8263,
      "tham_gia": 8264,
      "ở lại đây ": 8265,
      "anh ta đã ": 8266,
      "hiệu_sách ": 8267,
      "khiêu_vũ": 8268,
      "khiêu_vũ ": 8269,
      "món tráng_miệng . ": 8270,
      "lập gia_đình ": 8271,
      " cất_cánh ? ": 8272,
      "bạn muốn dùng gì cho ": 8273,
      "nhiều tiền ": 8274,
      "năm 198": 8275,
      "ngày hôm_nay không ? ": 8276,
      "ngày_mai được không ? ": 8277,
      "hợp_lý . ": 8278,
      "gol": 8279,
      "mexi": 8280,
      "nhà bạn ở đâu ? ": 8281,
      "mua được vé ": 8282,
      "green_": 8283,
      "mềm ": 8284,
      "tóc của tôi ": 8285,
      "kinh_nghiệm ": 8286,
      "bị đánh_cắp ": 8287,
      "bị đánh_cắp . ": 8288,
      "trở_về ": 8289,
      "seattle . ": 8290,
      "khủng_": 8291,
      "thưa bà ": 8292,
      "cho đêm nay . ": 8293,
      "mail ": 8294,
      "yên_tâm . ": 8295,
      "kể từ ": 8296,
      "bản_sao ": 8297,
      "đây là địa_chỉ ": 8298,
      "mắt_cá ": 8299,
      "chủ_nhật tuần ": 8300,
      "ách_nhiệm ": 8301,
      "cậu ấy ": 8302,
      "t-xki ": 8303,
      "t_cọc ": 8304,
      "dễ_chịu ": 8305,
      "visa . ": 8306,
      "máy điều hòa không_khí": 8307,
      "khối nhà ": 8308,
      "bộ_đồ ": 8309,
      "ăn_hộ ": 8310,
      "tay_áo ": 8311,
      "két_sắt ": 8312,
      "không tệ , ": 8313,
      "rất hân_hạnh được ": 8314,
      "bít tết ": 8315,
      "nâng_cao ": 8316,
      "danh_thiếp của tôi . ": 8317,
      "ổ đầy ": 8318,
      "hai dãy nhà . ": 8319,
      "bị thất_lạc . ": 8320,
      "nhiệm_vụ ": 8321,
      "nguyên_nhân ": 8322,
      "chờ_đợi ": 8323,
      "dây_chuyền ": 8324,
      "tôi họ nguyễn . ": 8325,
      " đến tokyo vào ngày ": 8326,
      "quan_hệ": 8327,
      "ối_diện ": 8328,
      "ghé qua ": 8329,
      "hứng_thú với ": 8330,
      "khai_báo không ? ": 8331,
      "las_vegas ": 8332,
      "luôn_luôn ": 8333,
      "tương_lai ": 8334,
      "có bao_nhiêu điểm ": 8335,
      "áng tin_cậ": 8336,
      ", thưa cô . ": 8337,
      "miami . ": 8338,
      "xe_buýt tham_quan ": 8339,
      "sự khác_biệt ": 8340,
      "bố_trí ": 8341,
      "quán bar ": 8342,
      "phần_lớn ": 8343,
      "dọn_dẹp ": 8344,
      "nghiên_cứu_sinh ": 8345,
      "trong trường_hợp đó ": 8346,
      "dưa_h": 8347,
      "những vật có giá_trị": 8348,
      "ỉnh_thoảng ": 8349,
      "ượng_lộ bình_an . ": 8350,
      "di_tích ": 8351,
      "rèn_l": 8352,
      "buôn_bán ": 8353,
      "n_thị_minh_khai ": 8354,
      "quần_jean ": 8355,
      "bến_xe ": 8356,
      "ục_trặc ": 8357,
      "dấu_hiệu ": 8358,
      "ngưỡng_": 8359,
      "rẽ trái tại đèn ": 8360,
      "! tôi ": 8361,
      ", được ": 8362,
      ", cô ": 8363,
      ", cái này ": 8364,
      ", được chứ ? ": 8365,
      "-n": 8366,
      "0 , ": 8367,
      "1 , ": 8368,
      "26": 8369,
      "2 , ": 8370,
      "2 tiếng ": 8371,
      "2 lần ": 8372,
      "3 lần ": 8373,
      "5 , ": 8374,
      "500": 8375,
      "8 tháng ": 8376,
      "80000": 8377,
      "? tôi ": 8378,
      "_giá ": 8379,
      "au_": 8380,
      "bl": 8381,
      "bầ": 8382,
      "bụ": 8383,
      "bướ": 8384,
      "bong_": 8385,
      "bông_t": 8386,
      "bầu_": 8387,
      "cũ": 8388,
      "c có ": 8389,
      "ca . ": 8390,
      "cử ": 8391,
      "cin": 8392,
      "cố_": 8393,
      "cấp . ": 8394,
      "de": 8395,
      "dã": 8396,
      "dẫ": 8397,
      "dụ": 8398,
      "dòng ": 8399,
      "danh ": 8400,
      "da_": 8401,
      "dũng ": 8402,
      "dâu ": 8403,
      "dis": 8404,
      "dục ": 8405,
      "dồi_": 8406,
      "eu": 8407,
      "e ? ": 8408,
      "fe": 8409,
      "gố": 8410,
      "gương ": 8411,
      "gương_": 8412,
      "hù": 8413,
      "hậu ": 8414,
      "hơn_": 8415,
      "i-": 8416,
      "im . ": 8417,
      "ichi": 8418,
      "ju": 8419,
      "ku": 8420,
      "kông ": 8421,
      "ko_": 8422,
      "kê ": 8423,
      "ko_ta": 8424,
      "lĩ": 8425,
      "lẽ": 8426,
      "lụ": 8427,
      "lan ": 8428,
      "luộc ": 8429,
      "luyệ": 8430,
      "lấy_": 8431,
      "lựa_chọn ": 8432,
      "lọ ": 8433,
      "lâu_đ": 8434,
      "mậ": 8435,
      "muố": 8436,
      "mùng ": 8437,
      "mập ": 8438,
      "muối . ": 8439,
      "nt": 8440,
      "ny": 8441,
      "nỗ": 8442,
      "niề": 8443,
      "nắng ": 8444,
      "ns ": 8445,
      "nơi đó ": 8446,
      "oạn ": 8447,
      "o có ": 8448,
      "okyo . ": 8449,
      "oa thuốc ": 8450,
      "pr": 8451,
      "pto": 8452,
      "ra tôi ": 8453,
      "rỗi ": 8454,
      "rớt ": 8455,
      "sửa_": 8456,
      "sư ": 8457,
      "sco": 8458,
      "sổ ": 8459,
      "ste": 8460,
      "sâm_": 8461,
      "sân_th": 8462,
      "sàn ": 8463,
      "syd": 8464,
      "tả": 8465,
      "tắ": 8466,
      "t tôi ": 8467,
      "tuy": 8468,
      "tân_": 8469,
      "tuyệt_vời . ": 8470,
      "tấm th": 8471,
      "uê": 8472,
      "u tiền ": 8473,
      "u đến ? ": 8474,
      "vá": 8475,
      "vế": 8476,
      "vội . ": 8477,
      "xí": 8478,
      "xấu ": 8479,
      "xăng . ": 8480,
      "ành . ": 8481,
      "ành đ": 8482,
      "ái_l": 8483,
      "ánh th": 8484,
      "ân_l": 8485,
      "ây t": 8486,
      "âu th": 8487,
      "ân_thể ": 8488,
      "ã đến ": 8489,
      "ìm thấy ": 8490,
      "ính_": 8491,
      "óng_c": 8492,
      "ôla": 8493,
      "ùng . ": 8494,
      "úng đ": 8495,
      "ý , ": 8496,
      "đá ": 8497,
      "đem ": 8498,
      "đông_": 8499,
      "điền vào ": 8500,
      "đúng . ": 8501,
      "được": 8502,
      "điều_kiện ": 8503,
      "ĩ ": 8504,
      "ĩa . ": 8505,
      "ơ . ": 8506,
      "ưu_đãi ": 8507,
      "ạt đ": 8508,
      "ắng đ": 8509,
      "ặt_": 8510,
      "ặc_": 8511,
      "ặt . ": 8512,
      "ết . ": 8513,
      "ể_l": 8514,
      "ịch": 8515,
      "ọc . ": 8516,
      "ỏa th": 8517,
      "ồng đ": 8518,
      "ộm_": 8519,
      "ời đến ": 8520,
      "ủ không ? ": 8521,
      "ứng đ": 8522,
      "ừ đâ": 8523,
      "ự_nhiên ": 8524,
      "。 ": 8525,
      "？ ": 8526,
      "ngược ": 8527,
      "ngăn ": 8528,
      "ngắm ": 8529,
      "n ? ": 8530,
      "ng rồi . ": 8531,
      ". . ": 8532,
      " tại_": 8533,
      " tăng ": 8534,
      " tất_cả ": 8535,
      " tại đ": 8536,
      " tiêu_": 8537,
      " tiền_lẻ . ": 8538,
      " tấm . ": 8539,
      "chằng ": 8540,
      "chu_đ": 8541,
      "chấp ": 8542,
      "nho ": 8543,
      "nhổ ": 8544,
      "nhánh ": 8545,
      "nhắc ": 8546,
      "khé": 8547,
      "khăn . ": 8548,
      "khuyế": 8549,
      " đem ": 8550,
      " đủ ": 8551,
      " đẹp": 8552,
      " đúng không ? ": 8553,
      "_tính ": 8554,
      " cử": 8555,
      " câu ": 8556,
      " căn_": 8557,
      " cà_phê . ": 8558,
      " cẩn_thận ": 8559,
      "không nếu ": 8560,
      "không lạnh ": 8561,
      "không khó ": 8562,
      "không yêu ": 8563,
      "không hút thuốc . ": 8564,
      "không hoạt_động . ": 8565,
      "tôi là": 8566,
      "tôi với ": 8567,
      "tôi từ": 8568,
      "tôi hơi ": 8569,
      "tôi chỉ cần ": 8570,
      "tôi nhớ ": 8571,
      "tôi cao ": 8572,
      "tôi làm_việc ở ": 8573,
      "tôi rất tiếc ": 8574,
      "tôi sợ ": 8575,
      "tôi vừa_mới ": 8576,
      "tôi bảo_đảm ": 8577,
      "tôi sai rồi ": 8578,
      "bạn với ": 8579,
      "bạn ở đây ": 8580,
      "bạn không có ": 8581,
      "bạn nhìn ": 8582,
      "bạn nói . ": 8583,
      "bạn họ gì ? ": 8584,
      "bạn khỏe không ? ": 8585,
      "có_": 8586,
      "có cả": 8587,
      "phạm ": 8588,
      "phiền_": 8589,
      "phương_t": 8590,
      "phô_": 8591,
      " the": 8592,
      " thay ": 8593,
      " thứ_": 8594,
      " thiết_": 8595,
      " thời_tiế": 8596,
      " thanh_toán ": 8597,
      " thời_gian . ": 8598,
      "_thần ": 8599,
      "_thức ": 8600,
      "giường . ": 8601,
      "_lợi ": 8602,
      "_lập ": 8603,
      ", bạn có ": 8604,
      ", anh ta ": 8605,
      ", bạn sẽ ": 8606,
      ", bà ": 8607,
      ", mọi người ": 8608,
      ", bao_gồm ": 8609,
      ", do đó ": 8610,
      ", chúng_ta cùng đi ": 8611,
      "thá": 8612,
      "thà ": 8613,
      "thức ": 8614,
      "thấp ": 8615,
      "thành": 8616,
      "tháp ": 8617,
      "thuế ": 8618,
      "thôi , ": 8619,
      "thượng_hải ": 8620,
      "thảo_luận ": 8621,
      "thức_dậy ": 8622,
      "thiết_bị ": 8623,
      "uốc đ": 8624,
      "ến . ": 8625,
      "ược tr": 8626,
      " tru": 8627,
      " trái ": 8628,
      " trị ": 8629,
      " trẻ ": 8630,
      " trực_t": 8631,
      " trễ . ": 8632,
      " trận_đấu ": 8633,
      "n_b": 8634,
      "iến_": 8635,
      "iết . ": 8636,
      "là \" ": 8637,
      "là sinh_nhật": 8638,
      "ười ": 8639,
      "qua th": 8640,
      "quen . ": 8641,
      "quấy_": 8642,
      "có phải đ": 8643,
      "có vài ": 8644,
      "có một tr": 8645,
      "có vấn_đề ": 8646,
      "có mở_cửa ": 8647,
      "có xe_buýt nào": 8648,
      "và có ": 8649,
      "và tôi . ": 8650,
      "ng_tiền ": 8651,
      "ng_m": 8652,
      "ng_phổ_thông ": 8653,
      "có_thể có ": 8654,
      "i để": 8655,
      "i đó . ": 8656,
      "trần ": 8657,
      "treo ": 8658,
      "trương_": 8659,
      "trang_": 8660,
      "trái_cây ": 8661,
      "trò_chơi ": 8662,
      "cho . ": 8663,
      "một lúc ": 8664,
      "một chuyến bay ": 8665,
      "một chiều ": 8666,
      "một quyển ": 8667,
      "một bác_sĩ ": 8668,
      "một chuyến đi ": 8669,
      "một xe taxi ": 8670,
      "một chiếc t": 8671,
      "ba đô_la ": 8672,
      "xe của ông ": 8673,
      " đâu có ": 8674,
      "sẽ . ": 8675,
      "sẽ trả tiền ": 8676,
      "nói đến ": 8677,
      "nó tới ": 8678,
      "cho tôi cái ": 8679,
      "cho tôi đến ": 8680,
      "cho tôi gửi lời ": 8681,
[...]
