{
  "version": "1.0",
  "truncation": null,
  "padding": null,
  "added_tokens": [
    {
      "id": 0,
      "content": "[SOS]",
      "single_word": false,
      "lstrip": false,
      "rstrip": false,
      "normalized": false,
      "special": true
    },
    {
      "id": 1,
      "content": "[EOS]",
      "single_word": false,
      "lstrip": false,
      "rstrip": false,
      "normalized": false,
      "special": true
    },
    {
      "id": 2,
      "content": "[PAD]",
      "single_word": false,
      "lstrip": false,
      "rstrip": false,
      "normalized": false,
      "special": true
    },
    {
      "id": 3,
      "content": "[UNK]",
      "single_word": false,
      "lstrip": false,
      "rstrip": false,
      "normalized": false,
      "special": true
    }
  ],
  "normalizer": null,
  "pre_tokenizer": null,
  "post_processor": {
    "type": "TemplateProcessing",
    "single": [
      {
        "SpecialToken": {
          "id": "[SOS]",
          "type_id": 0
        }
      },
      {
        "Sequence": {
          "id": "A",
          "type_id": 0
        }
      },
      {
        "SpecialToken": {
          "id": "[EOS]",
          "type_id": 0
        }
      }
    ],
    "pair": [
      {
        "Sequence": {
          "id": "A",
          "type_id": 0
        }
      },
      {
        "Sequence": {
          "id": "B",
          "type_id": 1
        }
      }
    ],
    "special_tokens": {
      "[EOS]": {
        "id": "[EOS]",
        "ids": [
          1
        ],
        "tokens": [
          "[EOS]"
        ]
      },
      "[SOS]": {
        "id": "[SOS]",
        "ids": [
          0
        ],
        "tokens": [
          "[SOS]"
        ]
      }
    }
  },
  "decoder": null,
  "model": {
    "type": "BPE",
    "dropout": null,
    "unk_token": "[UNK]",
    "continuing_subword_prefix": null,
    "end_of_word_suffix": null,
    "fuse_unk": false,
    "byte_fallback": false,
    "ignore_merges": false,
    "vocab": {
      "[SOS]": 0,
      "[EOS]": 1,
      "[PAD]": 2,
      "[UNK]": 3,
      " ": 4,
      "!": 5,
      "\"": 6,
      "%": 7,
      "(": 8,
      ")": 9,
      ",": 10,
      "-": 11,
      ".": 12,
      "/": 13,
      "0": 14,
      "1": 15,
      "2": 16,
      "3": 17,
      "4": 18,
      "5": 19,
      "6": 20,
      "7": 21,
      "8": 22,
      "9": 23,
      ":": 24,
      ";": 25,
      "?": 26,
      "@": 27,
      "A": 28,
      "B": 29,
      "C": 30,
      "D": 31,
      "E": 32,
      "F": 33,
      "G": 34,
      "H": 35,
      "I": 36,
      "J": 37,
      "K": 38,
      "L": 39,
      "M": 40,
      "N": 41,
      "O": 42,
      "P": 43,
      "Q": 44,
      "R": 45,
      "S": 46,
      "T": 47,
      "U": 48,
      "V": 49,
      "W": 50,
      "X": 51,
      "Y": 52,
      "Z": 53,
      "a": 54,
      "b": 55,
      "c": 56,
      "d": 57,
      "e": 58,
      "f": 59,
      "g": 60,
      "h": 61,
      "i": 62,
      "j": 63,
      "k": 64,
      "l": 65,
      "m": 66,
      "n": 67,
      "o": 68,
      "p": 69,
      "r": 70,
      "s": 71,
      "t": 72,
      "u": 73,
      "v": 74,
      "w": 75,
      "x": 76,
      "y": 77,
      "z": 78,
      "à": 79,
      "è": 80,
      "ì": 81,
      "ē": 82,
      "ī": 83,
      "ǎ": 84,
      "ǒ": 85,
      "“": 86,
      "”": 87,
      "•": 88,
      "…": 89,
      "、": 90,
      "。": 91,
      "《": 92,
      "》": 93,
      "一": 94,
      "丁": 95,
      "七": 96,
      "万": 97,
      "丈": 98,
      "三": 99,
      "上": 100,
      "下": 101,
      "不": 102,
      "与": 103,
      "丐": 104,
      "专": 105,
      "且": 106,
      "世": 107,
      "丘": 108,
      "丙": 109,
      "业": 110,
      "东": 111,
      "丝": 112,
      "丢": 113,
      "两": 114,
      "严": 115,
      "丧": 116,
      "个": 117,
      "中": 118,
      "丰": 119,
      "串": 120,
      "临": 121,
      "丸": 122,
      "丹": 123,
      "为": 124,
      "主": 125,
      "丽": 126,
      "举": 127,
      "乃": 128,
      "久": 129,
      "么": 130,
      "义": 131,
      "之": 132,
      "乎": 133,
      "乏": 134,
      "乐": 135,
      "乒": 136,
      "乓": 137,
      "乔": 138,
      "乘": 139,
      "乙": 140,
      "九": 141,
      "乞": 142,
      "也": 143,
      "习": 144,
      "乡": 145,
      "书": 146,
      "买": 147,
      "乱": 148,
      "乳": 149,
      "了": 150,
      "予": 151,
      "争": 152,
      "事": 153,
      "二": 154,
      "于": 155,
      "亏": 156,
      "云": 157,
      "互": 158,
      "五": 159,
      "井": 160,
      "亚": 161,
      "些": 162,
      "亡": 163,
      "交": 164,
      "亥": 165,
      "产": 166,
      "亨": 167,
      "享": 168,
      "京": 169,
      "亭": 170,
      "亮": 171,
      "亲": 172,
      "人": 173,
      "亿": 174,
      "什": 175,
      "仁": 176,
      "仅": 177,
      "今": 178,
      "介": 179,
      "仍": 180,
      "从": 181,
      "仑": 182,
      "仔": 183,
      "他": 184,
      "仗": 185,
      "付": 186,
      "仙": 187,
      "代": 188,
      "令": 189,
      "以": 190,
      "仪": 191,
      "们": 192,
      "仰": 193,
      "件": 194,
      "价": 195,
      "任": 196,
      "份": 197,
      "企": 198,
      "伊": 199,
      "伍": 200,
      "伎": 201,
      "伏": 202,
      "休": 203,
      "众": 204,
      "优": 205,
      "伙": 206,
      "会": 207,
      "伞": 208,
      "伟": 209,
      "传": 210,
      "伤": 211,
      "伦": 212,
      "伪": 213,
      "伯": 214,
      "估": 215,
      "伴": 216,
      "伸": 217,
      "似": 218,
      "伽": 219,
      "但": 220,
      "位": 221,
      "低": 222,
      "住": 223,
      "佑": 224,
      "体": 225,
      "何": 226,
      "佗": 227,
      "余": 228,
      "佛": 229,
      "作": 230,
      "你": 231,
      "佣": 232,
      "佩": 233,
      "佳": 234,
      "使": 235,
      "侄": 236,
      "來": 237,
      "侈": 238,
      "例": 239,
      "侍": 240,
      "供": 241,
      "依": 242,
      "侠": 243,
      "侥": 244,
      "侦": 245,
      "侧": 246,
      "侨": 247,
      "侯": 248,
      "侵": 249,
      "便": 250,
      "促": 251,
      "俄": 252,
      "俊": 253,
      "俗": 254,
      "保": 255,
      "信": 256,
      "俩": 257,
      "修": 258,
      "俯": 259,
      "俱": 260,
      "俳": 261,
      "倍": 262,
      "倒": 263,
      "倔": 264,
      "候": 265,
      "借": 266,
      "倦": 267,
      "倩": 268,
      "值": 269,
      "倾": 270,
      "假": 271,
      "偏": 272,
      "做": 273,
      "停": 274,
      "健": 275,
      "偶": 276,
      "偷": 277,
      "偿": 278,
      "傅": 279,
      "傍": 280,
      "储": 281,
      "催": 282,
      "傲": 283,
      "傻": 284,
      "像": 285,
      "僵": 286,
      "僻": 287,
      "億": 288,
      "儿": 289,
      "允": 290,
      "元": 291,
      "兄": 292,
      "充": 293,
      "先": 294,
      "光": 295,
      "克": 296,
      "免": 297,
      "兑": 298,
      "兒": 299,
      "兔": 300,
      "党": 301,
      "入": 302,
      "內": 303,
      "全": 304,
      "兩": 305,
      "八": 306,
      "公": 307,
      "六": 308,
      "兰": 309,
      "共": 310,
      "关": 311,
      "兴": 312,
      "兵": 313,
      "其": 314,
      "具": 315,
      "典": 316,
      "兹": 317,
      "养": 318,
      "兼": 319,
      "兽": 320,
      "内": 321,
      "冈": 322,
      "册": 323,
      "再": 324,
      "冒": 325,
      "冗": 326,
      "写": 327,
      "军": 328,
      "农": 329,
      "冠": 330,
      "冢": 331,
      "冬": 332,
      "冰": 333,
      "冲": 334,
      "决": 335,
      "况": 336,
      "冷": 337,
      "冻": 338,
      "净": 339,
      "准": 340,
      "凉": 341,
      "凌": 342,
      "减": 343,
      "凑": 344,
      "凝": 345,
      "几": 346,
      "凡": 347,
      "凤": 348,
      "凭": 349,
      "凯": 350,
      "凰": 351,
      "凳": 352,
      "凶": 353,
      "凸": 354,
      "凹": 355,
      "出": 356,
      "击": 357,
      "刀": 358,
      "刁": 359,
      "分": 360,
      "切": 361,
      "刊": 362,
      "刑": 363,
      "划": 364,
      "列": 365,
      "刘": 366,
      "则": 367,
      "刚": 368,
      "创": 369,
      "初": 370,
      "判": 371,
      "別": 372,
      "利": 373,
      "别": 374,
      "刮": 375,
      "到": 376,
      "制": 377,
      "刷": 378,
      "券": 379,
      "刹": 380,
      "刺": 381,
      "刻": 382,
      "剁": 383,
      "剂": 384,
      "剃": 385,
      "削": 386,
      "前": 387,
      "剑": 388,
      "剔": 389,
      "剖": 390,
      "剥": 391,
      "剧": 392,
      "剩": 393,
      "剪": 394,
      "副": 395,
      "割": 396,
      "力": 397,
      "劝": 398,
      "办": 399,
      "功": 400,
      "加": 401,
      "务": 402,
      "劣": 403,
      "动": 404,
      "助": 405,
      "努": 406,
      "劫": 407,
      "励": 408,
      "劲": 409,
      "劳": 410,
      "势": 411,
      "勃": 412,
      "勇": 413,
      "勉": 414,
      "勒": 415,
      "勤": 416,
      "勺": 417,
      "勿": 418,
      "包": 419,
      "化": 420,
      "北": 421,
      "匙": 422,
      "匹": 423,
      "区": 424,
      "医": 425,
      "十": 426,
      "千": 427,
      "升": 428,
      "午": 429,
      "半": 430,
      "华": 431,
      "协": 432,
      "卓": 433,
      "单": 434,
      "卖": 435,
      "南": 436,
      "博": 437,
      "卜": 438,
      "占": 439,
      "卡": 440,
      "卢": 441,
      "卤": 442,
      "卧": 443,
      "卫": 444,
      "印": 445,
      "危": 446,
      "即": 447,
      "却": 448,
      "卵": 449,
      "卷": 450,
      "卸": 451,
      "厂": 452,
      "厄": 453,
      "厅": 454,
      "历": 455,
      "厉": 456,
      "压": 457,
      "厌": 458,
      "厕": 459,
      "厘": 460,
      "厚": 461,
      "原": 462,
      "厢": 463,
      "厦": 464,
      "厨": 465,
      "去": 466,
      "叁": 467,
      "参": 468,
      "又": 469,
      "叉": 470,
      "及": 471,
      "友": 472,
      "双": 473,
      "反": 474,
      "发": 475,
      "叔": 476,
      "取": 477,
      "受": 478,
      "变": 479,
      "叠": 480,
      "口": 481,
      "古": 482,
      "句": 483,
      "另": 484,
      "只": 485,
      "叫": 486,
      "召": 487,
      "叭": 488,
      "可": 489,
      "台": 490,
      "史": 491,
      "右": 492,
      "叶": 493,
      "号": 494,
      "司": 495,
      "叻": 496,
      "吃": 497,
      "各": 498,
      "吆": 499,
      "合": 500,
      "吉": 501,
      "吊": 502,
      "吋": 503,
      "同": 504,
      "名": 505,
      "后": 506,
      "吐": 507,
      "向": 508,
      "吓": 509,
      "吗": 510,
      "君": 511,
      "吝": 512,
      "吞": 513,
      "否": 514,
      "吧": 515,
      "吩": 516,
      "含": 517,
      "听": 518,
      "启": 519,
      "吱": 520,
      "吴": 521,
      "吵": 522,
      "吸": 523,
      "吹": 524,
      "吻": 525,
      "呀": 526,
      "呆": 527,
      "呈": 528,
      "告": 529,
      "呕": 530,
      "员": 531,
      "呢": 532,
      "周": 533,
      "味": 534,
      "呵": 535,
      "呼": 536,
      "命": 537,
      "咀": 538,
      "和": 539,
      "咐": 540,
      "咖": 541,
      "咙": 542,
      "咨": 543,
      "咬": 544,
      "咱": 545,
      "咳": 546,
      "咸": 547,
      "咽": 548,
      "哀": 549,
      "品": 550,
      "哇": 551,
      "哈": 552,
      "响": 553,
      "哎": 554,
      "哒": 555,
      "哟": 556,
      "哥": 557,
      "哦": 558,
      "哨": 559,
      "哩": 560,
      "哪": 561,
      "哭": 562,
      "哮": 563,
      "哲": 564,
      "哼": 565,
      "唁": 566,
      "唆": 567,
      "唇": 568,
      "唐": 569,
      "唔": 570,
      "唤": 571,
      "售": 572,
      "唯": 573,
      "唱": 574,
      "唷": 575,
      "商": 576,
      "啊": 577,
      "啡": 578,
      "啤": 579,
      "啦": 580,
      "啬": 581,
      "喀": 582,
      "喂": 583,
      "善": 584,
      "喇": 585,
      "喉": 586,
      "喔": 587,
      "喘": 588,
      "喜": 589,
      "喝": 590,
      "喷": 591,
      "嗎": 592,
      "嗓": 593,
      "嗨": 594,
      "嗯": 595,
      "嗽": 596,
      "嘈": 597,
      "嘘": 598,
      "嘛": 599,
      "嘲": 600,
      "嘴": 601,
      "嘻": 602,
      "嘿": 603,
      "噌": 604,
      "噎": 605,
      "噘": 606,
      "噢": 607,
      "器": 608,
      "嚏": 609,
      "嚼": 610,
      "囊": 611,
      "四": 612,
      "回": 613,
      "因": 614,
      "团": 615,
      "园": 616,
      "困": 617,
      "围": 618,
      "固": 619,
      "国": 620,
      "图": 621,
      "圆": 622,
      "圈": 623,
      "國": 624,
      "土": 625,
      "圣": 626,
      "在": 627,
      "地": 628,
      "场": 629,
      "圾": 630,
      "址": 631,
      "均": 632,
      "坊": 633,
      "坎": 634,
      "坏": 635,
      "坐": 636,
      "坑": 637,
      "块": 638,
      "坚": 639,
      "坞": 640,
      "坡": 641,
      "坦": 642,
      "坷": 643,
      "垂": 644,
      "垃": 645,
      "型": 646,
      "垒": 647,
      "垢": 648,
      "垫": 649,
      "垮": 650,
      "埃": 651,
      "埋": 652,
      "城": 653,
      "域": 654,
      "培": 655,
      "基": 656,
      "堂": 657,
      "堆": 658,
      "堕": 659,
      "堡": 660,
      "堪": 661,
      "堵": 662,
      "塑": 663,
      "塔": 664,
      "塘": 665,
      "塞": 666,
      "填": 667,
      "境": 668,
      "墓": 669,
      "墙": 670,
      "增": 671,
      "墟": 672,
      "墨": 673,
      "壁": 674,
      "壤": 675,
      "士": 676,
      "壮": 677,
      "声": 678,
      "壳": 679,
      "壶": 680,
      "处": 681,
      "备": 682,
      "复": 683,
      "夏": 684,
      "夕": 685,
      "外": 686,
      "多": 687,
      "夜": 688,
      "够": 689,
      "夠": 690,
      "大": 691,
      "天": 692,
      "太": 693,
      "夫": 694,
      "央": 695,
      "失": 696,
      "头": 697,
      "夷": 698,
      "夸": 699,
      "夹": 700,
      "奇": 701,
      "奈": 702,
      "奋": 703,
      "奏": 704,
      "契": 705,
      "奔": 706,
      "奖": 707,
      "套": 708,
      "奢": 709,
      "奥": 710,
      "女": 711,
      "奴": 712,
      "奶": 713,
      "她": 714,
      "好": 715,
      "如": 716,
      "妆": 717,
      "妇": 718,
      "妈": 719,
      "妓": 720,
      "妙": 721,
      "妥": 722,
      "妨": 723,
      "妮": 724,
      "妳": 725,
      "妹": 726,
      "妻": 727,
      "姆": 728,
      "始": 729,
      "姐": 730,
      "姑": 731,
      "姓": 732,
      "委": 733,
      "姜": 734,
      "姨": 735,
      "姻": 736,
      "姿": 737,
      "威": 738,
      "娃": 739,
      "娇": 740,
      "娘": 741,
      "娜": 742,
      "娱": 743,
      "娲": 744,
      "娴": 745,
      "娶": 746,
      "婆": 747,
      "婚": 748,
      "婴": 749,
      "婿": 750,
      "媒": 751,
      "媚": 752,
      "媳": 753,
      "嫁": 754,
      "嫂": 755,
      "嫌": 756,
      "嫩": 757,
      "嬉": 758,
      "嬴": 759,
      "子": 760,
      "孔": 761,
      "孕": 762,
      "字": 763,
      "存": 764,
      "孙": 765,
      "孝": 766,
      "孟": 767,
      "季": 768,
      "孤": 769,
      "学": 770,
      "孩": 771,
      "宁": 772,
      "它": 773,
      "宅": 774,
      "守": 775,
      "安": 776,
      "完": 777,
      "宏": 778,
      "宗": 779,
      "官": 780,
      "定": 781,
      "宜": 782,
      "宝": 783,
      "实": 784,
      "宠": 785,
      "审": 786,
      "客": 787,
      "宣": 788,
      "室": 789,
      "宪": 790,
      "宫": 791,
      "宰": 792,
      "害": 793,
      "宴": 794,
      "宵": 795,
      "家": 796,
      "容": 797,
      "宽": 798,
      "宾": 799,
      "宿": 800,
      "寂": 801,
      "寄": 802,
      "密": 803,
      "寇": 804,
      "富": 805,
      "寒": 806,
      "寓": 807,
      "寛": 808,
      "察": 809,
      "寸": 810,
      "对": 811,
      "寺": 812,
      "寻": 813,
      "导": 814,
      "寿": 815,
      "封": 816,
      "射": 817,
      "将": 818,
      "尊": 819,
      "小": 820,
      "少": 821,
      "尔": 822,
      "尖": 823,
      "尘": 824,
      "尚": 825,
      "尝": 826,
      "尤": 827,
      "就": 828,
      "尺": 829,
      "尼": 830,
      "尽": 831,
      "尾": 832,
      "尿": 833,
      "局": 834,
      "层": 835,
      "居": 836,
      "屈": 837,
      "届": 838,
      "屋": 839,
      "屎": 840,
      "屏": 841,
      "屑": 842,
      "展": 843,
      "属": 844,
      "履": 845,
      "山": 846,
      "岁": 847,
      "岔": 848,
      "岗": 849,
      "岘": 850,
      "岛": 851,
      "岩": 852,
      "岬": 853,
      "岳": 854,
      "岸": 855,
      "峡": 856,
      "峰": 857,
      "崇": 858,
      "崖": 859,
      "崭": 860,
      "巅": 861,
      "川": 862,
      "州": 863,
      "巡": 864,
      "巢": 865,
      "工": 866,
      "左": 867,
      "巧": 868,
      "巨": 869,
      "差": 870,
      "己": 871,
      "已": 872,
      "巴": 873,
      "巷": 874,
      "巾": 875,
      "币": 876,
      "市": 877,
      "布": 878,
      "帅": 879,
      "帆": 880,
      "师": 881,
      "希": 882,
      "帐": 883,
      "帕": 884,
      "帖": 885,
      "帘": 886,
      "帝": 887,
      "带": 888,
      "席": 889,
      "帮": 890,
      "常": 891,
      "帽": 892,
      "幅": 893,
      "幌": 894,
      "幕": 895,
      "幢": 896,
      "干": 897,
      "平": 898,
      "年": 899,
      "并": 900,
      "幸": 901,
      "幻": 902,
      "幼": 903,
      "幽": 904,
      "广": 905,
      "庄": 906,
      "庆": 907,
      "床": 908,
      "序": 909,
      "库": 910,
      "应": 911,
      "底": 912,
      "店": 913,
      "庙": 914,
      "府": 915,
      "庞": 916,
      "废": 917,
      "度": 918,
      "座": 919,
      "庭": 920,
      "康": 921,
      "廉": 922,
      "廊": 923,
      "廓": 924,
      "延": 925,
      "廷": 926,
      "建": 927,
      "开": 928,
      "异": 929,
      "弃": 930,
      "弄": 931,
      "弊": 932,
      "式": 933,
      "引": 934,
      "弗": 935,
      "弟": 936,
      "张": 937,
      "弥": 938,
      "弦": 939,
      "弯": 940,
      "弱": 941,
      "弹": 942,
      "强": 943,
      "归": 944,
      "当": 945,
      "录": 946,
      "形": 947,
      "彩": 948,
      "影": 949,
      "彻": 950,
      "彼": 951,
      "往": 952,
      "征": 953,
      "径": 954,
      "待": 955,
      "很": 956,
      "律": 957,
      "徐": 958,
      "徒": 959,
      "得": 960,
      "循": 961,
      "微": 962,
      "德": 963,
      "徽": 964,
      "心": 965,
      "必": 966,
      "忆": 967,
      "忌": 968,
      "忍": 969,
      "志": 970,
      "忘": 971,
      "忙": 972,
      "忠": 973,
      "忧": 974,
      "快": 975,
      "念": 976,
      "忽": 977,
      "怀": 978,
      "态": 979,
      "怎": 980,
      "怒": 981,
      "怕": 982,
      "怖": 983,
      "怜": 984,
      "思": 985,
      "怡": 986,
      "急": 987,
      "性": 988,
      "怨": 989,
      "怪": 990,
      "总": 991,
      "恋": 992,
      "恐": 993,
      "恢": 994,
      "恤": 995,
      "恨": 996,
      "恩": 997,
      "恭": 998,
      "息": 999,
      "恳": 1000,
      "恶": 1001,
      "恼": 1002,
      "悄": 1003,
      "悉": 1004,
      "悔": 1005,
      "悠": 1006,
      "患": 1007,
      "您": 1008,
      "悬": 1009,
      "悲": 1010,
      "悼": 1011,
      "情": 1012,
      "惊": 1013,
      "惜": 1014,
      "惠": 1015,
      "惦": 1016,
      "惧": 1017,
      "惨": 1018,
      "惩": 1019,
      "惫": 1020,
      "惭": 1021,
      "惯": 1022,
      "想": 1023,
      "惹": 1024,
      "愁": 1025,
      "愈": 1026,
      "愉": 1027,
      "意": 1028,
      "愕": 1029,
      "愚": 1030,
      "愛": 1031,
      "感": 1032,
      "愤": 1033,
      "愧": 1034,
      "愿": 1035,
      "慈": 1036,
      "慎": 1037,
      "慕": 1038,
      "慢": 1039,
      "慧": 1040,
      "慰": 1041,
      "憋": 1042,
      "憾": 1043,
      "懂": 1044,
      "懈": 1045,
      "懒": 1046,
      "懦": 1047,
      "戈": 1048,
      "戌": 1049,
      "戏": 1050,
      "成": 1051,
      "我": 1052,
      "戒": 1053,
      "或": 1054,
      "战": 1055,
      "戚": 1056,
      "截": 1057,
      "戴": 1058,
      "户": 1059,
      "房": 1060,
      "所": 1061,
      "扁": 1062,
      "扇": 1063,
      "手": 1064,
      "才": 1065,
      "扎": 1066,
      "扑": 1067,
      "扒": 1068,
      "打": 1069,
      "扔": 1070,
      "托": 1071,
      "扣": 1072,
      "执": 1073,
      "扩": 1074,
      "扫": 1075,
      "扬": 1076,
      "扭": 1077,
      "扮": 1078,
      "扰": 1079,
      "扶": 1080,
      "批": 1081,
      "找": 1082,
      "承": 1083,
      "技": 1084,
      "抄": 1085,
      "把": 1086,
      "抓": 1087,
      "投": 1088,
      "抖": 1089,
      "抗": 1090,
      "折": 1091,
      "抛": 1092,
      "抢": 1093,
      "护": 1094,
      "报": 1095,
      "披": 1096,
      "抬": 1097,
      "抱": 1098,
      "抵": 1099,
      "抹": 1100,
      "押": 1101,
      "抽": 1102,
      "担": 1103,
      "拆": 1104,
      "拉": 1105,
      "拌": 1106,
      "拍": 1107,
      "拐": 1108,
      "拒": 1109,
      "拔": 1110,
      "拖": 1111,
      "拘": 1112,
      "招": 1113,
      "拜": 1114,
      "拟": 1115,
      "拥": 1116,
      "拦": 1117,
      "拧": 1118,
      "拨": 1119,
      "择": 1120,
      "括": 1121,
      "拭": 1122,
      "拯": 1123,
      "拳": 1124,
      "拴": 1125,
      "拷": 1126,
      "拼": 1127,
      "拾": 1128,
      "拿": 1129,
      "持": 1130,
      "挂": 1131,
      "指": 1132,
      "按": 1133,
      "挑": 1134,
      "挖": 1135,
      "挛": 1136,
      "挡": 1137,
      "挣": 1138,
      "挤": 1139,
      "挥": 1140,
      "挨": 1141,
      "挪": 1142,
      "振": 1143,
      "挺": 1144,
      "捂": 1145,
      "捆": 1146,
      "捕": 1147,
      "捞": 1148,
      "损": 1149,
      "捡": 1150,
      "换": 1151,
      "据": 1152,
      "捷": 1153,
      "授": 1154,
      "掉": 1155,
      "掌": 1156,
      "掏": 1157,
      "排": 1158,
      "掘": 1159,
      "探": 1160,
      "接": 1161,
      "控": 1162,
      "推": 1163,
      "措": 1164,
      "描": 1165,
      "提": 1166,
      "插": 1167,
      "握": 1168,
      "援": 1169,
      "搂": 1170,
      "搅": 1171,
      "搓": 1172,
      "搜": 1173,
      "搞": 1174,
      "搬": 1175,
      "搭": 1176,
      "携": 1177,
      "摄": 1178,
      "摆": 1179,
      "摇": 1180,
      "摊": 1181,
      "摔": 1182,
      "摘": 1183,
      "摩": 1184,
      "摸": 1185,
      "撑": 1186,
      "撒": 1187,
      "撞": 1188,
      "撬": 1189,
      "播": 1190,
      "撰": 1191,
      "擅": 1192,
      "操": 1193,
      "擎": 1194,
      "擦": 1195,
      "攀": 1196,
      "支": 1197,
      "收": 1198,
      "改": 1199,
      "攻": 1200,
      "放": 1201,
      "政": 1202,
      "故": 1203,
      "效": 1204,
      "敌": 1205,
      "敏": 1206,
      "救": 1207,
      "教": 1208,
      "敞": 1209,
      "敢": 1210,
      "散": 1211,
      "敦": 1212,
      "敬": 1213,
      "数": 1214,
      "敲": 1215,
      "整": 1216,
      "敷": 1217,
      "文": 1218,
      "斐": 1219,
      "斑": 1220,
      "斗": 1221,
      "料": 1222,
      "斜": 1223,
      "斤": 1224,
      "断": 1225,
      "斯": 1226,
      "新": 1227,
      "方": 1228,
      "施": 1229,
      "旁": 1230,
      "旅": 1231,
      "旋": 1232,
      "族": 1233,
      "旗": 1234,
      "无": 1235,
      "既": 1236,
      "日": 1237,
      "旦": 1238,
      "旧": 1239,
      "旨": 1240,
      "早": 1241,
      "旬": 1242,
      "旱": 1243,
      "时": 1244,
      "旺": 1245,
      "昂": 1246,
      "昆": 1247,
      "昌": 1248,
      "明": 1249,
      "昏": 1250,
      "易": 1251,
      "昔": 1252,
      "星": 1253,
      "映": 1254,
      "春": 1255,
      "昨": 1256,
      "是": 1257,
      "昵": 1258,
      "显": 1259,
      "晃": 1260,
      "晒": 1261,
      "晓": 1262,
      "晕": 1263,
      "晖": 1264,
      "晚": 1265,
      "晤": 1266,
      "晨": 1267,
      "普": 1268,
      "景": 1269,
      "晰": 1270,
      "晴": 1271,
      "晶": 1272,
      "智": 1273,
      "晾": 1274,
      "暂": 1275,
      "暇": 1276,
      "暑": 1277,
      "暖": 1278,
      "暗": 1279,
      "暴": 1280,
      "曝": 1281,
      "曲": 1282,
      "曳": 1283,
      "更": 1284,
      "曼": 1285,
      "曾": 1286,
      "替": 1287,
      "最": 1288,
      "月": 1289,
      "有": 1290,
      "朋": 1291,
      "服": 1292,
      "朗": 1293,
      "望": 1294,
      "朝": 1295,
      "期": 1296,
      "木": 1297,
      "未": 1298,
      "末": 1299,
      "本": 1300,
      "术": 1301,
      "朱": 1302,
      "朴": 1303,
      "朵": 1304,
      "机": 1305,
      "杀": 1306,
      "杂": 1307,
      "权": 1308,
      "杆": 1309,
      "杉": 1310,
      "李": 1311,
      "杏": 1312,
      "材": 1313,
      "村": 1314,
      "杖": 1315,
      "杜": 1316,
      "束": 1317,
      "条": 1318,
      "来": 1319,
      "杨": 1320,
      "杭": 1321,
      "杯": 1322,
      "杰": 1323,
      "東": 1324,
      "松": 1325,
      "板": 1326,
      "极": 1327,
      "构": 1328,
      "析": 1329,
      "枕": 1330,
      "林": 1331,
      "枚": 1332,
      "果": 1333,
      "枝": 1334,
      "枪": 1335,
      "架": 1336,
      "柏": 1337,
      "某": 1338,
      "染": 1339,
      "柔": 1340,
      "柚": 1341,
      "柜": 1342,
      "柠": 1343,
      "查": 1344,
      "柯": 1345,
      "柱": 1346,
      "柴": 1347,
      "柿": 1348,
      "标": 1349,
      "栈": 1350,
      "栋": 1351,
      "树": 1352,
      "栓": 1353,
      "校": 1354,
      "样": 1355,
      "核": 1356,
      "根": 1357,
      "格": 1358,
      "栽": 1359,
      "桂": 1360,
      "桃": 1361,
      "框": 1362,
      "案": 1363,
      "桌": 1364,
      "桑": 1365,
      "桔": 1366,
      "档": 1367,
      "桥": 1368,
      "桨": 1369,
      "桶": 1370,
      "梅": 1371,
      "條": 1372,
      "梦": 1373,
      "梨": 1374,
      "梭": 1375,
      "梯": 1376,
      "械": 1377,
      "梳": 1378,
      "检": 1379,
      "棉": 1380,
      "棋": 1381,
      "棍": 1382,
      "棒": 1383,
      "棕": 1384,
      "棚": 1385,
      "森": 1386,
      "棵": 1387,
      "椅": 1388,
      "植": 1389,
      "椎": 1390,
      "椒": 1391,
      "椭": 1392,
      "椰": 1393,
      "楚": 1394,
      "楷": 1395,
      "楼": 1396,
      "概": 1397,
      "榄": 1398,
      "榜": 1399,
      "榨": 1400,
      "榻": 1401,
      "槌": 1402,
      "槟": 1403,
      "槽": 1404,
      "模": 1405,
      "横": 1406,
      "樱": 1407,
      "橄": 1408,
      "橇": 1409,
      "橘": 1410,
      "橙": 1411,
      "橡": 1412,
      "橱": 1413,
      "檀": 1414,
      "檬": 1415,
      "欠": 1416,
      "次": 1417,
      "欢": 1418,
      "欣": 1419,
      "欧": 1420,
      "欲": 1421,
      "款": 1422,
      "歇": 1423,
      "歉": 1424,
      "歌": 1425,
      "止": 1426,
      "正": 1427,
      "此": 1428,
      "步": 1429,
      "武": 1430,
      "歪": 1431,
      "死": 1432,
      "殊": 1433,
      "残": 1434,
      "殡": 1435,
      "殴": 1436,
      "段": 1437,
      "殿": 1438,
      "毅": 1439,
      "母": 1440,
      "每": 1441,
      "毒": 1442,
      "比": 1443,
      "毕": 1444,
      "毛": 1445,
      "毡": 1446,
      "毫": 1447,
      "毯": 1448,
      "毽": 1449,
      "氏": 1450,
      "民": 1451,
      "氓": 1452,
      "气": 1453,
      "水": 1454,
      "永": 1455,
      "汁": 1456,
      "求": 1457,
      "汇": 1458,
      "汉": 1459,
      "汗": 1460,
      "池": 1461,
      "污": 1462,
      "汤": 1463,
      "汰": 1464,
      "汹": 1465,
      "汽": 1466,
      "沃": 1467,
      "沉": 1468,
      "沐": 1469,
      "沒": 1470,
      "沙": 1471,
      "沛": 1472,
      "沟": 1473,
      "没": 1474,
      "沫": 1475,
      "沮": 1476,
      "河": 1477,
      "沸": 1478,
      "油": 1479,
      "治": 1480,
      "沿": 1481,
      "泉": 1482,
      "法": 1483,
      "泛": 1484,
      "泡": 1485,
      "波": 1486,
      "泥": 1487,
      "注": 1488,
      "泰": 1489,
      "泳": 1490,
      "泵": 1491,
      "泻": 1492,
      "泼": 1493,
      "泽": 1494,
      "洁": 1495,
      "洋": 1496,
      "洒": 1497,
      "洗": 1498,
      "洛": 1499,
      "洞": 1500,
      "津": 1501,
      "洲": 1502,
      "活": 1503,
      "洽": 1504,
      "派": 1505,
      "流": 1506,
      "浅": 1507,
      "浆": 1508,
      "测": 1509,
      "济": 1510,
      "浏": 1511,
      "浑": 1512,
      "浓": 1513,
      "浜": 1514,
      "浦": 1515,
      "浪": 1516,
      "浮": 1517,
      "浴": 1518,
      "海": 1519,
      "浸": 1520,
      "涂": 1521,
      "涅": 1522,
      "消": 1523,
      "涉": 1524,
      "涌": 1525,
      "涕": 1526,
      "涛": 1527,
      "涟": 1528,
      "涤": 1529,
      "润": 1530,
      "涨": 1531,
      "涮": 1532,
      "液": 1533,
      "涵": 1534,
      "淇": 1535,
      "淋": 1536,
      "淘": 1537,
      "淡": 1538,
      "深": 1539,
      "混": 1540,
      "添": 1541,
      "清": 1542,
      "渍": 1543,
      "渔": 1544,
      "渡": 1545,
      "渣": 1546,
      "温": 1547,
      "港": 1548,
      "渴": 1549,
      "游": 1550,
      "渺": 1551,
      "湍": 1552,
      "湖": 1553,
      "湛": 1554,
      "湾": 1555,
      "湿": 1556,
      "溃": 1557,
      "源": 1558,
      "溜": 1559,
      "溢": 1560,
      "溯": 1561,
      "溶": 1562,
      "滋": 1563,
      "滑": 1564,
      "滚": 1565,
      "满": 1566,
      "滤": 1567,
      "滨": 1568,
      "滩": 1569,
      "滴": 1570,
      "漂": 1571,
      "漏": 1572,
      "演": 1573,
      "漠": 1574,
      "漪": 1575,
      "漫": 1576,
      "漱": 1577,
      "潘": 1578,
      "潜": 1579,
      "潭": 1580,
      "潮": 1581,
      "澄": 1582,
      "澈": 1583,
      "澜": 1584,
      "澡": 1585,
      "澳": 1586,
      "激": 1587,
      "瀑": 1588,
      "灌": 1589,
      "火": 1590,
      "灭": 1591,
      "灯": 1592,
      "灰": 1593,
      "灵": 1594,
      "灾": 1595,
      "炉": 1596,
      "炎": 1597,
      "炒": 1598,
      "炖": 1599,
      "炭": 1600,
      "炸": 1601,
      "点": 1602,
      "為": 1603,
      "炼": 1604,
      "烂": 1605,
      "烈": 1606,
      "烊": 1607,
      "烘": 1608,
      "烛": 1609,
      "烟": 1610,
      "烤": 1611,
      "烦": 1612,
      "烧": 1613,
      "烩": 1614,
      "烫": 1615,
      "热": 1616,
      "烯": 1617,
      "烷": 1618,
      "烹": 1619,
      "焕": 1620,
      "焙": 1621,
      "焚": 1622,
      "焦": 1623,
      "然": 1624,
      "煌": 1625,
      "煎": 1626,
      "煤": 1627,
      "照": 1628,
      "煮": 1629,
      "熄": 1630,
      "熊": 1631,
      "熏": 1632,
      "熙": 1633,
      "熟": 1634,
      "熨": 1635,
      "熬": 1636,
      "燕": 1637,
      "燥": 1638,
      "爆": 1639,
      "爪": 1640,
      "爬": 1641,
      "爱": 1642,
      "爵": 1643,
      "父": 1644,
      "爷": 1645,
      "爸": 1646,
      "爹": 1647,
      "爽": 1648,
      "片": 1649,
      "版": 1650,
      "牌": 1651,
      "牙": 1652,
      "牛": 1653,
      "牟": 1654,
      "牡": 1655,
      "物": 1656,
      "牲": 1657,
      "牵": 1658,
      "特": 1659,
      "牺": 1660,
      "犬": 1661,
      "犯": 1662,
      "状": 1663,
      "狂": 1664,
      "狄": 1665,
      "狗": 1666,
      "狠": 1667,
      "独": 1668,
      "狭": 1669,
      "狱": 1670,
      "狼": 1671,
      "猜": 1672,
      "猪": 1673,
      "猫": 1674,
      "献": 1675,
      "猴": 1676,
      "率": 1677,
      "玉": 1678,
      "王": 1679,
      "玛": 1680,
      "玩": 1681,
      "玫": 1682,
      "环": 1683,
      "现": 1684,
      "玲": 1685,
      "玳": 1686,
      "玻": 1687,
      "珊": 1688,
      "珍": 1689,
      "珑": 1690,
      "珠": 1691,
      "珫": 1692,
      "班": 1693,
      "球": 1694,
      "理": 1695,
      "琉": 1696,
      "琳": 1697,
      "琴": 1698,
      "琵": 1699,
      "琶": 1700,
      "琼": 1701,
      "瑁": 1702,
      "瑕": 1703,
      "瑚": 1704,
      "瑜": 1705,
      "瑞": 1706,
      "瑟": 1707,
      "瑰": 1708,
      "瑶": 1709,
      "璃": 1710,
      "瓜": 1711,
      "瓣": 1712,
      "瓦": 1713,
      "瓶": 1714,
      "瓷": 1715,
      "甘": 1716,
      "甚": 1717,
      "甜": 1718,
      "生": 1719,
      "用": 1720,
      "甩": 1721,
      "田": 1722,
      "由": 1723,
      "甲": 1724,
      "申": 1725,
      "电": 1726,
      "男": 1727,
      "画": 1728,
      "畅": 1729,
      "界": 1730,
      "畏": 1731,
      "留": 1732,
      "略": 1733,
      "番": 1734,
      "疆": 1735,
      "疏": 1736,
      "疑": 1737,
      "疖": 1738,
      "疗": 1739,
      "疡": 1740,
      "疤": 1741,
      "疫": 1742,
      "疯": 1743,
      "疲": 1744,
      "疵": 1745,
      "疸": 1746,
      "疹": 1747,
      "疼": 1748,
      "疾": 1749,
      "病": 1750,
      "症": 1751,
      "痉": 1752,
      "痊": 1753,
      "痒": 1754,
      "痕": 1755,
      "痛": 1756,
      "痰": 1757,
      "瘀": 1758,
      "瘤": 1759,
      "瘦": 1760,
      "瘪": 1761,
      "癌": 1762,
      "登": 1763,
      "白": 1764,
      "百": 1765,
      "皂": 1766,
      "的": 1767,
      "皇": 1768,
      "皎": 1769,
      "皮": 1770,
      "皱": 1771,
      "盆": 1772,
      "盈": 1773,
      "益": 1774,
      "盎": 1775,
      "盏": 1776,
      "盐": 1777,
      "监": 1778,
      "盒": 1779,
      "盔": 1780,
      "盖": 1781,
      "盗": 1782,
      "盘": 1783,
      "盛": 1784,
      "盟": 1785,
      "盥": 1786,
      "目": 1787,
      "盯": 1788,
      "盲": 1789,
      "直": 1790,
      "相": 1791,
      "盼": 1792,
      "盾": 1793,
      "省": 1794,
      "眉": 1795,
      "看": 1796,
      "真": 1797,
      "眠": 1798,
      "眩": 1799,
      "眷": 1800,
      "眺": 1801,
      "眼": 1802,
      "着": 1803,
      "睛": 1804,
      "睡": 1805,
      "督": 1806,
      "睫": 1807,
      "瞧": 1808,
      "瞰": 1809,
      "矛": 1810,
      "知": 1811,
      "矫": 1812,
      "短": 1813,
      "矮": 1814,
      "石": 1815,
      "矶": 1816,
      "矿": 1817,
      "码": 1818,
      "砂": 1819,
      "研": 1820,
      "破": 1821,
      "础": 1822,
      "硅": 1823,
      "硕": 1824,
      "硬": 1825,
      "确": 1826,
      "碌": 1827,
      "碍": 1828,
      "碎": 1829,
      "碑": 1830,
      "碗": 1831,
      "碟": 1832,
      "碧": 1833,
      "碰": 1834,
      "碳": 1835,
      "磁": 1836,
      "磅": 1837,
      "磊": 1838,
      "磕": 1839,
      "磨": 1840,
      "礁": 1841,
      "示": 1842,
      "礼": 1843,
      "社": 1844,
      "祈": 1845,
      "祖": 1846,
      "祝": 1847,
      "神": 1848,
      "祠": 1849,
      "祥": 1850,
      "票": 1851,
      "祭": 1852,
      "祷": 1853,
      "祸": 1854,
      "禁": 1855,
      "福": 1856,
      "离": 1857,
      "秀": 1858,
      "私": 1859,
      "秃": 1860,
      "秋": 1861,
      "种": 1862,
      "科": 1863,
      "秒": 1864,
      "秘": 1865,
      "租": 1866,
      "秤": 1867,
      "秩": 1868,
      "积": 1869,
      "称": 1870,
      "移": 1871,
      "稀": 1872,
      "程": 1873,
      "稍": 1874,
      "税": 1875,
      "稚": 1876,
      "稠": 1877,
      "稣": 1878,
      "稳": 1879,
      "稻": 1880,
      "稿": 1881,
      "穆": 1882,
      "穴": 1883,
      "究": 1884,
      "穷": 1885,
      "空": 1886,
      "穿": 1887,
      "突": 1888,
      "窃": 1889,
      "窄": 1890,
      "窗": 1891,
      "窝": 1892,
      "立": 1893,
      "站": 1894,
      "竞": 1895,
      "竟": 1896,
      "章": 1897,
      "竣": 1898,
      "童": 1899,
      "端": 1900,
      "竹": 1901,
      "笋": 1902,
      "笑": 1903,
      "笔": 1904,
      "符": 1905,
      "笨": 1906,
      "第": 1907,
      "等": 1908,
      "筋": 1909,
      "筏": 1910,
      "筑": 1911,
      "筒": 1912,
      "答": 1913,
      "策": 1914,
      "筛": 1915,
      "筝": 1916,
      "筷": 1917,
      "筹": 1918,
      "签": 1919,
      "简": 1920,
      "算": 1921,
      "管": 1922,
      "箭": 1923,
      "箱": 1924,
      "篇": 1925,
      "篮": 1926,
      "篷": 1927,
      "簿": 1928,
      "籍": 1929,
      "籣": 1930,
      "米": 1931,
      "类": 1932,
      "粉": 1933,
      "粒": 1934,
      "粗": 1935,
      "粘": 1936,
      "粤": 1937,
      "粥": 1938,
      "粮": 1939,
      "精": 1940,
      "糊": 1941,
      "糕": 1942,
      "糖": 1943,
      "糙": 1944,
      "糟": 1945,
      "系": 1946,
      "素": 1947,
      "索": 1948,
      "紧": 1949,
      "紫": 1950,
      "累": 1951,
      "絮": 1952,
      "繁": 1953,
      "纠": 1954,
      "红": 1955,
      "纤": 1956,
      "约": 1957,
      "级": 1958,
      "纪": 1959,
      "纬": 1960,
      "纯": 1961,
      "纱": 1962,
      "纲": 1963,
      "纳": 1964,
      "纵": 1965,
      "纷": 1966,
      "纸": 1967,
      "纹": 1968,
      "纺": 1969,
      "纽": 1970,
      "线": 1971,
      "练": 1972,
      "组": 1973,
      "绅": 1974,
      "细": 1975,
      "织": 1976,
      "终": 1977,
      "绊": 1978,
      "绍": 1979,
      "经": 1980,
      "绑": 1981,
      "绒": 1982,
      "结": 1983,
      "绕": 1984,
      "绘": 1985,
      "给": 1986,
      "绚": 1987,
      "络": 1988,
      "绝": 1989,
      "绞": 1990,
      "统": 1991,
      "继": 1992,
      "绩": 1993,
      "绪": 1994,
      "续": 1995,
      "绳": 1996,
      "维": 1997,
      "绵": 1998,
      "绷": 1999,
      "综": 2000,
      "绿": 2001,
      "缆": 2002,
      "缎": 2003,
      "缓": 2004,
      "编": 2005,
      "缝": 2006,
      "缠": 2007,
      "缤": 2008,
      "缩": 2009,
      "缸": 2010,
      "缺": 2011,
      "罐": 2012,
      "网": 2013,
      "罕": 2014,
      "罗": 2015,
      "罚": 2016,
      "罢": 2017,
      "罩": 2018,
      "罪": 2019,
      "置": 2020,
      "署": 2021,
      "羊": 2022,
      "美": 2023,
      "羔": 2024,
      "羞": 2025,
      "羡": 2026,
      "群": 2027,
      "羽": 2028,
      "翁": 2029,
      "翔": 2030,
      "翰": 2031,
      "翻": 2032,
      "翼": 2033,
      "耀": 2034,
      "老": 2035,
      "考": 2036,
      "者": 2037,
      "而": 2038,
      "耐": 2039,
      "耗": 2040,
      "耙": 2041,
      "耳": 2042,
      "耶": 2043,
      "聊": 2044,
      "聋": 2045,
      "职": 2046,
      "联": 2047,
      "聘": 2048,
      "聚": 2049,
      "聪": 2050,
      "聯": 2051,
      "肃": 2052,
      "肉": 2053,
      "肌": 2054,
      "肖": 2055,
      "肚": 2056,
      "肝": 2057,
      "肠": 2058,
      "股": 2059,
      "肤": 2060,
      "肥": 2061,
      "肩": 2062,
      "肪": 2063,
      "肯": 2064,
      "育": 2065,
      "肴": 2066,
      "肺": 2067,
      "肾": 2068,
      "肿": 2069,
      "胀": 2070,
      "胁": 2071,
      "胃": 2072,
      "胆": 2073,
      "背": 2074,
      "胎": 2075,
      "胖": 2076,
      "胜": 2077,
      "胞": 2078,
      "胡": 2079,
      "胭": 2080,
      "胳": 2081,
      "胶": 2082,
      "胸": 2083,
      "能": 2084,
      "脂": 2085,
      "脆": 2086,
      "脉": 2087,
      "脊": 2088,
      "脏": 2089,
      "脑": 2090,
      "脖": 2091,
      "脚": 2092,
      "脱": 2093,
      "脸": 2094,
      "脾": 2095,
      "腊": 2096,
      "腌": 2097,
      "腐": 2098,
      "腕": 2099,
      "腰": 2100,
      "腹": 2101,
      "腻": 2102,
      "腾": 2103,
      "腿": 2104,
      "膀": 2105,
      "膊": 2106,
      "膏": 2107,
      "膜": 2108,
      "膝": 2109,
      "膨": 2110,
      "膳": 2111,
      "臀": 2112,
      "臂": 2113,
      "臣": 2114,
      "自": 2115,
      "至": 2116,
      "致": 2117,
      "臼": 2118,
      "舌": 2119,
      "舍": 2120,
      "舒": 2121,
      "舞": 2122,
      "舟": 2123,
      "航": 2124,
      "般": 2125,
      "舱": 2126,
      "船": 2127,
      "艇": 2128,
      "艘": 2129,
      "艮": 2130,
      "良": 2131,
      "艰": 2132,
      "色": 2133,
      "艳": 2134,
      "艺": 2135,
      "艾": 2136,
      "节": 2137,
      "芒": 2138,
      "芝": 2139,
      "芥": 2140,
      "芦": 2141,
      "芬": 2142,
      "芭": 2143,
      "芯": 2144,
      "花": 2145,
      "芳": 2146,
      "芹": 2147,
      "芽": 2148,
      "苍": 2149,
      "苏": 2150,
      "苗": 2151,
      "苞": 2152,
      "苣": 2153,
      "若": 2154,
      "苦": 2155,
      "英": 2156,
      "苴": 2157,
      "苹": 2158,
      "范": 2159,
      "茄": 2160,
      "茅": 2161,
      "茉": 2162,
      "茜": 2163,
      "茶": 2164,
      "草": 2165,
      "荐": 2166,
      "荒": 2167,
      "荔": 2168,
      "荡": 2169,
      "荣": 2170,
      "荤": 2171,
      "药": 2172,
      "荷": 2173,
      "莉": 2174,
      "莎": 2175,
      "莓": 2176,
      "莫": 2177,
      "莱": 2178,
      "莲": 2179,
      "莴": 2180,
      "获": 2181,
      "莹": 2182,
      "菇": 2183,
      "菌": 2184,
      "菜": 2185,
      "菠": 2186,
      "菩": 2187,
      "菲": 2188,
      "萄": 2189,
      "萌": 2190,
      "萎": 2191,
      "萝": 2192,
      "营": 2193,
      "萧": 2194,
      "萨": 2195,
      "萬": 2196,
      "落": 2197,
      "著": 2198,
      "葡": 2199,
      "董": 2200,
      "葬": 2201,
      "葱": 2202,
      "蒂": 2203,
      "蒙": 2204,
      "蒜": 2205,
      "蒲": 2206,
      "蒸": 2207,
      "蓄": 2208,
      "蓝": 2209,
      "蓬": 2210,
      "蔬": 2211,
      "蔼": 2212,
      "蕃": 2213,
      "蕉": 2214,
      "蕾": 2215,
      "薄": 2216,
      "薪": 2217,
      "薯": 2218,
      "薰": 2219,
      "藏": 2220,
      "藻": 2221,
      "蘑": 2222,
      "蘸": 2223,
      "虎": 2224,
      "虑": 2225,
      "虚": 2226,
      "虫": 2227,
      "虹": 2228,
      "虽": 2229,
      "虾": 2230,
      "蚝": 2231,
      "蚤": 2232,
      "蚪": 2233,
      "蛀": 2234,
      "蛇": 2235,
      "蛋": 2236,
      "蛎": 2237,
      "蛙": 2238,
      "蛛": 2239,
      "蛤": 2240,
      "蛮": 2241,
      "蛰": 2242,
      "蜂": 2243,
      "蜘": 2244,
      "蜜": 2245,
      "蜡": 2246,
      "蝌": 2247,
      "蝴": 2248,
      "蝶": 2249,
      "螃": 2250,
      "融": 2251,
      "螺": 2252,
      "蟹": 2253,
      "蠢": 2254,
      "血": 2255,
      "行": 2256,
      "衔": 2257,
      "街": 2258,
      "衣": 2259,
      "补": 2260,
      "表": 2261,
      "衩": 2262,
      "衫": 2263,
      "衬": 2264,
      "衷": 2265,
      "袄": 2266,
      "袋": 2267,
      "袍": 2268,
      "袖": 2269,
      "袜": 2270,
      "被": 2271,
      "袭": 2272,
      "裁": 2273,
      "裂": 2274,
      "装": 2275,
      "裕": 2276,
      "裙": 2277,
      "裤": 2278,
      "裹": 2279,
      "褐": 2280,
      "褪": 2281,
      "褶": 2282,
      "西": 2283,
      "要": 2284,
      "见": 2285,
      "观": 2286,
      "规": 2287,
      "视": 2288,
      "览": 2289,
      "觉": 2290,
      "角": 2291,
      "解": 2292,
      "触": 2293,
      "言": 2294,
      "詹": 2295,
      "誉": 2296,
      "請": 2297,
      "警": 2298,
      "计": 2299,
      "订": 2300,
      "认": 2301,
      "讨": 2302,
      "让": 2303,
      "训": 2304,
      "议": 2305,
      "讯": 2306,
      "记": 2307,
      "讲": 2308,
      "讶": 2309,
      "许": 2310,
      "论": 2311,
      "设": 2312,
      "访": 2313,
      "诀": 2314,
      "证": 2315,
      "评": 2316,
      "识": 2317,
      "诈": 2318,
      "诉": 2319,
      "诊": 2320,
      "词": 2321,
      "译": 2322,
      "试": 2323,
      "诗": 2324,
      "诚": 2325,
      "话": 2326,
      "诞": 2327,
      "询": 2328,
      "该": 2329,
      "详": 2330,
      "语": 2331,
      "误": 2332,
      "诱": 2333,
      "说": 2334,
      "诵": 2335,
      "请": 2336,
      "诸": 2337,
      "诺": 2338,
      "读": 2339,
      "课": 2340,
      "谁": 2341,
      "调": 2342,
      "谄": 2343,
      "谅": 2344,
      "谈": 2345,
      "谊": 2346,
      "谋": 2347,
      "谎": 2348,
      "谓": 2349,
      "谜": 2350,
      "谢": 2351,
      "谦": 2352,
      "谨": 2353,
      "谬": 2354,
      "谱": 2355,
      "谷": 2356,
      "豆": 2357,
      "豚": 2358,
      "象": 2359,
      "豪": 2360,
      "貌": 2361,
      "貢": 2362,
      "貨": 2363,
      "贝": 2364,
      "贞": 2365,
      "负": 2366,
      "贡": 2367,
      "财": 2368,
      "责": 2369,
      "贤": 2370,
      "败": 2371,
      "账": 2372,
      "货": 2373,
      "质": 2374,
      "贩": 2375,
      "贪": 2376,
      "贫": 2377,
      "购": 2378,
      "贮": 2379,
      "贴": 2380,
      "贵": 2381,
      "贷": 2382,
      "贸": 2383,
      "费": 2384,
      "贺": 2385,
      "贼": 2386,
      "贾": 2387,
      "赁": 2388,
      "资": 2389,
      "赋": 2390,
      "赌": 2391,
      "赏": 2392,
      "赔": 2393,
      "赖": 2394,
      "赚": 2395,
      "赛": 2396,
      "赞": 2397,
      "赠": 2398,
      "赢": 2399,
      "赫": 2400,
      "走": 2401,
      "赴": 2402,
      "赵": 2403,
      "赶": 2404,
      "起": 2405,
      "趁": 2406,
      "超": 2407,
      "越": 2408,
      "趟": 2409,
      "趣": 2410,
      "足": 2411,
      "趴": 2412,
      "趾": 2413,
      "跃": 2414,
      "跌": 2415,
      "跑": 2416,
      "距": 2417,
      "跟": 2418,
      "跤": 2419,
      "跨": 2420,
      "跪": 2421,
      "路": 2422,
      "跳": 2423,
      "践": 2424,
      "踏": 2425,
      "踝": 2426,
      "踢": 2427,
      "踩": 2428,
      "踪": 2429,
      "蹈": 2430,
      "蹲": 2431,
      "身": 2432,
      "躺": 2433,
      "车": 2434,
      "轨": 2435,
      "转": 2436,
      "轮": 2437,
      "软": 2438,
      "轰": 2439,
      "轻": 2440,
      "载": 2441,
      "轿": 2442,
      "较": 2443,
      "辅": 2444,
      "辆": 2445,
      "辈": 2446,
      "辉": 2447,
      "辑": 2448,
      "输": 2449,
      "辖": 2450,
      "辛": 2451,
      "辜": 2452,
      "辞": 2453,
      "辣": 2454,
      "辨": 2455,
      "辩": 2456,
      "辰": 2457,
      "边": 2458,
      "辽": 2459,
      "达": 2460,
      "迁": 2461,
      "迅": 2462,
      "过": 2463,
      "迈": 2464,
      "迎": 2465,
      "运": 2466,
      "近": 2467,
      "返": 2468,
      "还": 2469,
      "这": 2470,
      "进": 2471,
      "远": 2472,
      "违": 2473,
      "连": 2474,
      "迟": 2475,
      "迦": 2476,
      "迪": 2477,
      "迫": 2478,
      "述": 2479,
      "迷": 2480,
      "迹": 2481,
      "追": 2482,
      "退": 2483,
      "送": 2484,
      "适": 2485,
      "逃": 2486,
      "选": 2487,
      "逊": 2488,
      "透": 2489,
      "逐": 2490,
      "递": 2491,
      "途": 2492,
      "逗": 2493,
      "通": 2494,
      "逛": 2495,
      "逝": 2496,
      "速": 2497,
      "造": 2498,
      "逮": 2499,
      "遇": 2500,
      "遍": 2501,
      "道": 2502,
      "遗": 2503,
      "遥": 2504,
      "遭": 2505,
      "遮": 2506,
      "遵": 2507,
      "避": 2508,
      "邀": 2509,
      "那": 2510,
      "邦": 2511,
      "邮": 2512,
      "邸": 2513,
      "邻": 2514,
      "郁": 2515,
      "郊": 2516,
      "郎": 2517,
      "郑": 2518,
      "郡": 2519,
      "部": 2520,
      "郭": 2521,
      "都": 2522,
      "酉": 2523,
      "配": 2524,
      "酒": 2525,
      "酪": 2526,
      "酬": 2527,
      "酯": 2528,
      "酱": 2529,
      "酷": 2530,
      "酸": 2531,
      "酿": 2532,
      "醇": 2533,
      "醉": 2534,
      "醋": 2535,
      "醒": 2536,
      "采": 2537,
      "释": 2538,
      "里": 2539,
      "重": 2540,
      "野": 2541,
      "量": 2542,
      "金": 2543,
      "釜": 2544,
      "针": 2545,
      "钉": 2546,
      "钓": 2547,
      "钞": 2548,
      "钟": 2549,
      "钢": 2550,
      "钥": 2551,
      "钩": 2552,
      "钮": 2553,
      "钱": 2554,
      "钳": 2555,
      "钻": 2556,
      "铁": 2557,
      "铃": 2558,
      "铅": 2559,
      "铜": 2560,
      "铮": 2561,
      "银": 2562,
      "铺": 2563,
      "链": 2564,
      "销": 2565,
      "锁": 2566,
      "锅": 2567,
      "锋": 2568,
      "错": 2569,
      "锚": 2570,
      "锥": 2571,
      "锦": 2572,
      "键": 2573,
      "锻": 2574,
      "镀": 2575,
      "镇": 2576,
      "镍": 2577,
      "镑": 2578,
      "镖": 2579,
      "镜": 2580,
      "镫": 2581,
      "镯": 2582,
      "镰": 2583,
      "镶": 2584,
      "長": 2585,
      "长": 2586,
      "门": 2587,
      "闪": 2588,
      "闭": 2589,
      "问": 2590,
      "闯": 2591,
      "闰": 2592,
      "闲": 2593,
      "间": 2594,
      "闷": 2595,
      "闹": 2596,
      "闻": 2597,
      "阁": 2598,
      "阂": 2599,
      "阅": 2600,
      "阑": 2601,
      "阔": 2602,
      "队": 2603,
      "阪": 2604,
      "阮": 2605,
      "防": 2606,
      "阳": 2607,
      "阴": 2608,
      "阵": 2609,
      "阶": 2610,
      "阻": 2611,
      "阿": 2612,
      "陀": 2613,
      "附": 2614,
      "际": 2615,
      "陆": 2616,
      "陈": 2617,
      "陋": 2618,
      "陌": 2619,
      "降": 2620,
      "限": 2621,
      "院": 2622,
      "除": 2623,
      "险": 2624,
      "陪": 2625,
      "陶": 2626,
      "隆": 2627,
      "随": 2628,
      "隐": 2629,
      "隔": 2630,
      "障": 2631,
      "难": 2632,
      "雀": 2633,
      "雄": 2634,
      "雅": 2635,
      "集": 2636,
      "雇": 2637,
      "雕": 2638,
      "雨": 2639,
      "雪": 2640,
      "零": 2641,
      "雷": 2642,
      "雹": 2643,
      "雾": 2644,
      "需": 2645,
      "震": 2646,
      "霉": 2647,
      "霍": 2648,
      "霜": 2649,
      "霞": 2650,
      "露": 2651,
      "霾": 2652,
      "青": 2653,
      "静": 2654,
      "非": 2655,
      "靠": 2656,
      "靡": 2657,
      "面": 2658,
      "革": 2659,
      "靴": 2660,
      "靶": 2661,
      "鞋": 2662,
      "鞍": 2663,
      "鞭": 2664,
      "韦": 2665,
      "韩": 2666,
      "音": 2667,
      "页": 2668,
      "顶": 2669,
      "项": 2670,
      "顺": 2671,
      "须": 2672,
      "顾": 2673,
      "顿": 2674,
      "颁": 2675,
      "预": 2676,
      "领": 2677,
      "颈": 2678,
      "颊": 2679,
      "颐": 2680,
      "频": 2681,
      "颖": 2682,
      "颗": 2683,
      "题": 2684,
      "颚": 2685,
      "颜": 2686,
      "额": 2687,
      "颠": 2688,
      "颤": 2689,
      "风": 2690,
      "飓": 2691,
      "飘": 2692,
      "飞": 2693,
      "食": 2694,
      "飯": 2695,
      "餃": 2696,
      "餐": 2697,
      "饨": 2698,
      "饪": 2699,
      "饭": 2700,
      "饮": 2701,
      "饰": 2702,
      "饱": 2703,
      "饲": 2704,
      "饵": 2705,
      "饺": 2706,
      "饼": 2707,
      "饿": 2708,
      "馁": 2709,
      "馄": 2710,
      "馅": 2711,
      "馆": 2712,
      "馋": 2713,
      "馏": 2714,
      "首": 2715,
      "香": 2716,
      "马": 2717,
      "驰": 2718,
      "驱": 2719,
      "驳": 2720,
      "驶": 2721,
      "驻": 2722,
      "驼": 2723,
      "驾": 2724,
      "骂": 2725,
      "骄": 2726,
      "骆": 2727,
      "验": 2728,
      "骑": 2729,
      "骗": 2730,
      "骚": 2731,
      "骨": 2732,
      "高": 2733,
      "髦": 2734,
      "髮": 2735,
      "鬓": 2736,
      "鬼": 2737,
      "魔": 2738,
      "鱼": 2739,
      "鱿": 2740,
      "鲁": 2741,
      "鲈": 2742,
      "鲍": 2743,
      "鲑": 2744,
      "鲜": 2745,
      "鲣": 2746,
      "鲤": 2747,
      "鲨": 2748,
      "鲸": 2749,
      "鳄": 2750,
      "鳍": 2751,
      "鳎": 2752,
      "鳕": 2753,
      "鳗": 2754,
      "鸟": 2755,
      "鸡": 2756,
      "鸣": 2757,
      "鸭": 2758,
      "鸯": 2759,
      "鸳": 2760,
      "鸿": 2761,
      "鹅": 2762,
      "鹿": 2763,
      "麦": 2764,
      "麵": 2765,
      "麸": 2766,
      "麻": 2767,
      "黄": 2768,
      "黎": 2769,
      "黑": 2770,
      "默": 2771,
      "黛": 2772,
      "鼓": 2773,
      "鼠": 2774,
      "鼻": 2775,
      "鼾": 2776,
      "齐": 2777,
      "齿": 2778,
      "龄": 2779,
      "龈": 2780,
      "龋": 2781,
      "龙": 2782,
      "！": 2783,
      "（": 2784,
      "）": 2785,
      "，": 2786,
      "－": 2787,
      "：": 2788,
      "；": 2789,
      "？": 2790,
      " 。": 2791,
      "我 ": 2792,
      " ？": 2793,
      "的 ": 2794,
      " 的 ": 2795,
      "你 ": 2796,
      "吗 ？": 2797,
      " 我 ": 2798,
      " 吗 ？": 2799,
      " ，": 2800,
      "是 ": 2801,
      "在 ": 2802,
      "个 ": 2803,
      " ， ": 2804,
      " 了": 2805,
      " 一": 2806,
      "有 ": 2807,
      "不 ": 2808,
      "要 ": 2809,
      " 是 ": 2810,
      "能 ": 2811,
      "请 ": 2812,
      "们 ": 2813,
      "么 ": 2814,
      " 个 ": 2815,
      "想 ": 2816,
      " 你 ": 2817,
      " 在 ": 2818,
      " 了 。": 2819,
      " 这": 2820,
      "去 ": 2821,
      " 不 ": 2822,
      "我 想 ": 2823,
      "我们 ": 2824,
      "什么 ": 2825,
      " 一 ": 2826,
      "到 ": 2827,
      "很 ": 2828,
      " 有 ": 2829,
      "可以": 2830,
      "给 我 ": 2831,
      "这 ": 2832,
      "天 ": 2833,
      " 好": 2834,
      " 的": 2835,
      "可以 ": 2836,
      "来 ": 2837,
      "会 ": 2838,
      "些 ": 2839,
      "和 ": 2840,
      "他 ": 2841,
      " 你": 2842,
      " 很 ": 2843,
      "点 ": 2844,
      " 多": 2845,
      "就 ": 2846,
      "上 ": 2847,
      " 我 的 ": 2848,
      "你 能 ": 2849,
      " 和 ": 2850,
      "这个 ": 2851,
      " 了 ": 2852,
      " 的 。": 2853,
      "把 ": 2854,
      " ， 我 ": 2855,
      "时候": 2856,
      " 一 个 ": 2857,
      " 美": 2858,
      " ,": 2859,
      " 这 ": 2860,
      " 要 ": 2861,
      " 去 ": 2862,
      " 一下": 2863,
      "一 ": 2864,
      "人 ": 2865,
      " 在 哪": 2866,
      " 这个 ": 2867,
      "什么": 2868,
      "喜欢": 2869,
      "儿 ": 2870,
      "得 ": 2871,
      "谢谢": 2872,
      "看 ": 2873,
      " 钱": 2874,
      " 大": 2875,
      "电话": 2876,
      "里 ": 2877,
      " 什么 ": 2878,
      " 公": 2879,
      " 美元": 2880,
      "知道": 2881,
      "再 ": 2882,
      "房间": 2883,
      " 还": 2884,
      " 怎": 2885,
      "时间": 2886,
      "我 要 ": 2887,
      "时候 ": 2888,
      "太 ": 2889,
      "日本": 2890,
      "张 ": 2891,
      "工作": 2892,
      "我 的 ": 2893,
      "请 给 我 ": 2894,
      "说 ": 2895,
      "多 ": 2896,
      "这 是 ": 2897,
      "您 ": 2898,
      " ， 你 ": 2899,
      " 没": 2900,
      "几 ": 2901,
      "好 ": 2902,
      "那 ": 2903,
      "什么 ？": 2904,
      "子 ": 2905,
      "车 ": 2906,
      "现在 ": 2907,
      " , ": 2908,
      "喜欢 ": 2909,
      "我 能 ": 2910,
      "哪 ": 2911,
      "呢 ？": 2912,
      "你 的 ": 2913,
      " 吧": 2914,
      "少 钱": 2915,
      "今天 ": 2916,
      "给 ": 2917,
      " 你 的 ": 2918,
      "用 ": 2919,
      " 到 ": 2920,
      "星期": 2921,
      "都 ": 2922,
      " ?": 2923,
      "它 ": 2924,
      "家 ": 2925,
      " 号": 2926,
      "东西": 2927,
      "两 ": 2928,
      "如果": 2929,
      "件 ": 2930,
      "你们 ": 2931,
      "打 ": 2932,
      "我 想 要 ": 2933,
      "从 ": 2934,
      " .": 2935,
      "请 问": 2936,
      " 上": 2937,
      "我 不 ": 2938,
      " 的 吗 ？": 2939,
      " 我们 ": 2940,
      "是 的 ": 2941,
      "少 钱 ？": 2942,
      " ！": 2943,
      "么样": 2944,
      "月 ": 2945,
      "来 。": 2946,
      "谢谢 。": 2947,
      " 过": 2948,
      " 公司": 2949,
      "后 ": 2950,
      "告诉": 2951,
      " 能 ": 2952,
      "买 ": 2953,
      "次 ": 2954,
      " 了 ， ": 2955,
      " 有": 2956,
      "一 个 ": 2957,
      "二十": 2958,
      "他们 ": 2959,
      " 了 吗 ？": 2960,
      "叫 ": 2961,
      "三 ": 2962,
      "是 我 ": 2963,
      "行李": 2964,
      " 出": 2965,
      "需要 ": 2966,
      "先生": 2967,
      "朋友": 2968,
      "你 有 ": 2969,
      " 好 吗 ？": 2970,
      "地方": 2971,
      " 时间": 2972,
      "航班": 2973,
      "怎么 ": 2974,
      "没有 ": 2975,
      " 就 ": 2976,
      "我们": 2977,
      "五 ": 2978,
      "酒店": 2979,
      "也 ": 2980,
      " 一些 ": 2981,
      "吃 ": 2982,
      "常 ": 2983,
      "好 的 ": 2984,
      "下 ": 2985,
      "种 ": 2986,
      " 不 起": 2987,
      "么样 ？": 2988,
      "座位": 2989,
      " 在 哪 ？": 2990,
      "好 。": 2991,
      "请 你 ": 2992,
      "对 不 起": 2993,
      "已经": 2994,
      "真 ": 2995,
      "什么 时候 ": 2996,
      " 的 ？": 2997,
      "时 ": 2998,
      "你 要 ": 2999,
      "条 ": 3000,
      " 走": 3001,
      "坐 ": 3002,
      "多少": 3003,
      "那 个 ": 3004,
      " 你 。": 3005,
      "做 ": 3006,
      "给 你 ": 3007,
      "人 。": 3008,
      "每 ": 3009,
      "我 是 ": 3010,
      "票 。": 3011,
      "她 ": 3012,
      "明天 ": 3013,
      " 着": 3014,
      "年 ": 3015,
      "应该": 3016,
      "附近": 3017,
      "我 在 ": 3018,
      " 怎么 ": 3019,
      " 多少 钱 ？": 3020,
      "十 ": 3021,
      "旅行": 3022,
      "子 。": 3023,
      "能 给 我 ": 3024,
      "学 ": 3025,
      " 小": 3026,
      " 上 ": 3027,
      "但是 ": 3028,
      "没 ": 3029,
      " 吧 。": 3030,
      "为 ": 3031,
      "国 ": 3032,
      "车 。": 3033,
      "日本 ": 3034,
      "告诉 我 ": 3035,
      "巴士": 3036,
      "最 ": 3037,
      "帮 我 ": 3038,
      "过 ": 3039,
      "， ": 3040,
      "知道 ": 3041,
      "前 ": 3042,
      "两 个 ": 3043,
      "拿 ": 3044,
      "我 可以 ": 3045,
      " 里": 3046,
      "衣服": 3047,
      " 呢 ？": 3048,
      " 怎么样 ？": 3049,
      " 谢谢 。": 3050,
      "让 我 ": 3051,
      "你 可以 ": 3052,
      " 没 ": 3053,
      " 先生": 3054,
      "对 ": 3055,
      "开始": 3056,
      "我 想 要": 3057,
      " 一下 ": 3058,
      "预订": 3059,
      "儿 ？": 3060,
      "觉得 ": 3061,
      " 下": 3062,
      " 比": 3063,
      "今天": 3064,
      "别 ": 3065,
      "打 电话": 3066,
      " 美元 。": 3067,
      " 不": 3068,
      "机 ": 3069,
      "把 它 ": 3070,
      "咖啡": 3071,
      "约 ": 3072,
      "边 ": 3073,
      "我 。": 3074,
      "本 ": 3075,
      "里 ？": 3076,
      "已经 ": 3077,
      "长 时间": 3078,
      "分钟": 3079,
      "被 ": 3080,
      " 会 ": 3081,
      "起 ": 3082,
      "个 。": 3083,
      "今晚": 3084,
      "天气": 3085,
      " 多 ": 3086,
      "希望": 3087,
      "航空": 3088,
      " 一点": 3089,
      "最近": 3090,
      "高兴": 3091,
      "语 ": 3092,
      "还 ": 3093,
      "非常 ": 3094,
      " 了 ？": 3095,
      " 工作": 3096,
      "杯 ": 3097,
      "下午": 3098,
      " 你们 ": 3099,
      "为什么 ": 3100,
      "很多 ": 3101,
      "意思": 3102,
      "那么 ": 3103,
      "公司": 3104,
      "这里 ": 3105,
      " 以": 3106,
      "旅游": 3107,
      "车站": 3108,
      "我 会 ": 3109,
      " 没有 ": 3110,
      " 他 ": 3111,
      "喝 ": 3112,
      "您 的 ": 3113,
      "问题": 3114,
      " 三": 3115,
      "去 。": 3116,
      "看看 ": 3117,
      "饭店": 3118,
      "我们 的 ": 3119,
      "应该 ": 3120,
      "小 ": 3121,
      "看看": 3122,
      "电影": 3123,
      "你 想 ": 3124,
      " 得 ": 3125,
      "商店": 3126,
      "房间 。": 3127,
      "哪 个 ": 3128,
      "新 ": 3129,
      "加 ": 3130,
      " 什么 时候 ": 3131,
      " 中": 3132,
      "名字": 3133,
      "场 ": 3134,
      "正在 ": 3135,
      " 好 ": 3136,
      "想要 ": 3137,
      "不 要 ": 3138,
      " 是 多少": 3139,
      " 好 。": 3140,
      " 都": 3141,
      "听 ": 3142,
      ", ": 3143,
      " 。 ": 3144,
      "也 不 ": 3145,
      "准备": 3146,
      "学习": 3147,
      "这里": 3148,
      " 人": 3149,
      " 打": 3150,
      "号 ": 3151,
      "服务": 3152,
      "样 ": 3153,
      "觉得": 3154,
      "我 很 ": 3155,
      " 都 ": 3156,
      "医生": 3157,
      "是 我 的 ": 3158,
      " ， 我们 ": 3159,
      "附近 有 ": 3160,
      " 里 ": 3161,
      "所以": 3162,
      "是 吗 ？": 3163,
      "间 ": 3164,
      " 号码": 3165,
      "只 ": 3166,
      "日 ": 3167,
      "票 吗 ？": 3168,
      "便宜": 3169,
      "样 的 ": 3170,
      " 地": 3171,
      "东京": 3172,
      "好 ， ": 3173,
      "把 这个 ": 3174,
      "真的 ": 3175,
      "趟 ": 3176,
      "我 有 ": 3177,
      " 在 哪里 ？": 3178,
      " 是 多少 ？": 3179,
      "明天": 3180,
      " 的 座位": 3181,
      " 号 ": 3182,
      " 之": 3183,
      "于 ": 3184,
      "价格": 3185,
      "份 ": 3186,
      "啦 。": 3187,
      "成 ": 3188,
      "老师": 3189,
      "你 在 ": 3190,
      " 点": 3191,
      " 酒店": 3192,
      "住 在 ": 3193,
      "吗 ?": 3194,
      "他 的 ": 3195,
      "定 ": 3196,
      " 还是 ": 3197,
      "吧 。": 3198,
      "带 ": 3199,
      "车 吗 ？": 3200,
      " 的 东西": 3201,
      " 来 ": 3202,
      "哪儿 ": 3203,
      "漂亮": 3204,
      " 它": 3205,
      "打算": 3206,
      "自己": 3207,
      "餐馆": 3208,
      "你 是 ": 3209,
      "有 什么 ": 3210,
      "当然": 3211,
      "晚上 ": 3212,
      "儿 。": 3213,
      "学生": 3214,
      "推荐": 3215,
      "不 是 ": 3216,
      "不 能 ": 3217,
      "长 时间 ？": 3218,
      "十 美元": 3219,
      "颜色": 3220,
      " 的 地方": 3221,
      " 我 想 ": 3222,
      "你 能 给 我 ": 3223,
      "请 问 ": 3224,
      " 可以 ": 3225,
      "多少 钱 ？": 3226,
      "错 。": 3227,
      "行李 ": 3228,
      " 着 ": 3229,
      "音乐": 3230,
      "马上 ": 3231,
      "我 喜欢 ": 3232,
      " 这些 ": 3233,
      " 多少": 3234,
      " 邮": 3235,
      " 太 ": 3236,
      "天 。": 3237,
      "快 ": 3238,
      "找 ": 3239,
      "较 ": 3240,
      " 一下 。": 3241,
      "如果 你 ": 3242,
      " 发": 3243,
      " 左": 3244,
      "意 ": 3245,
      "早上 ": 3246,
      "的 。": 3247,
      "路 ": 3248,
      "几 点 ": 3249,
      " 公司 的 ": 3250,
      "哪里 ": 3251,
      "点钟": 3252,
      "辆 ": 3253,
      " 是 什么 ？": 3254,
      " 有 什么 ": 3255,
      " 什么 ？": 3256,
      "二 ": 3257,
      "城市": 3258,
      "葡萄": 3259,
      "这儿 ": 3260,
      "酒 。": 3261,
      "航班 。": 3262,
      "休息": 3263,
      "国际": 3264,
      "好 吗 ？": 3265,
      "学校": 3266,
      "车 ？": 3267,
      " 在 哪儿 ？": 3268,
      " 给 ": 3269,
      "礼物": 3270,
      "英语": 3271,
      "行 ": 3272,
      " 是 什么 ": 3273,
      "共 ": 3274,
      "四 ": 3275,
      "可以 吗 ？": 3276,
      " 过 ": 3277,
      " 来": 3278,
      " 还 是 ": 3279,
      " 公司 ": 3280,
      "先 ": 3281,
      "面 。": 3282,
      "在 哪 ": 3283,
      " 我 。": 3284,
      "又 ": 3285,
      "电话 号码": 3286,
      "信用": 3287,
      "分 。": 3288,
      "品 ": 3289,
      "放 在 ": 3290,
      "点 。": 3291,
      "越南": 3292,
      "这么 ": 3293,
      "里 。": 3294,
      "面 ": 3295,
      " 您 ": 3296,
      "地址": 3297,
      "把 我 的 ": 3298,
      " 和": 3299,
      "三十": 3300,
      "他 是 ": 3301,
      "但是 我 ": 3302,
      "包括": 3303,
      "小时": 3304,
      "就 是 ": 3305,
      "结婚": 3306,
      " 到": 3307,
      " 换": 3308,
      " 电话": 3309,
      "万 ": 3310,
      "可能 ": 3311,
      "必须": 3312,
      "护照": 3313,
      "抱歉": 3314,
      "祝 你 ": 3315,
      "预约": 3316,
      " 的 时候": 3317,
      " 不 是 ": 3318,
      "最近 的 ": 3319,
      " 五": 3320,
      "中国": 3321,
      "机 。": 3322,
      "边 。": 3323,
      "人 的 ": 3324,
      "北京": 3325,
      "品 。": 3326,
      "没有": 3327,
      "第一 ": 3328,
      "认识": 3329,
      " 一起 ": 3330,
      " 很 好 。": 3331,
      "天气 ": 3332,
      "信用卡": 3333,
      "六 ": 3334,
      "最 好": 3335,
      "电视": 3336,
      "费用": 3337,
      "好 ！": 3338,
      " 说": 3339,
      "呢 。": 3340,
      " 这么 ": 3341,
      "如果 ": 3342,
      " 或": 3343,
      "地铁": 3344,
      "子 吗 ？": 3345,
      "开 ": 3346,
      "更 ": 3347,
      "行 。": 3348,
      "起飞": 3349,
      " 你 能 ": 3350,
      " 做": 3351,
      "0 ": 3352,
      "会 。": 3353,
      "钥匙": 3354,
      "在 这 ": 3355,
      " 人 ": 3356,
      " 两 ": 3357,
      "保险": 3358,
      "来 吗 ？": 3359,
      "水 。": 3360,
      "然后 ": 3361,
      "部 ": 3362,
      " 的 是 ": 3363,
      "介绍": 3364,
      "位 ": 3365,
      "刚 ": 3366,
      "包 ": 3367,
      "感谢": 3368,
      "接 ": 3369,
      "晚上": 3370,
      "每 个 ": 3371,
      "跟 ": 3372,
      "身体": 3373,
      "还 有 ": 3374,
      "适合": 3375,
      " 我 不 ": 3376,
      "了 ": 3377,
      "汉语": 3378,
      "谁 ？": 3379,
      "起来 ": 3380,
      "， 我 ": 3381,
      "请 把 ": 3382,
      "我 想 去 ": 3383,
      "日本 的 ": 3384,
      "我 想 要 个 ": 3385,
      " 得": 3386,
      " 几 ": 3387,
      "中国 ": 3388,
      "吃饭": 3389,
      "心 。": 3390,
      "感觉": 3391,
      "纽约": 3392,
      "麻烦": 3393,
      " 我 一": 3394,
      " 一样": 3395,
      " 一百": 3396,
      "我们 有 ": 3397,
      "旅行 ": 3398,
      "机场": 3399,
      "检查": 3400,
      "越 ": 3401,
      "这些 ": 3402,
      "这 件 ": 3403,
      " 多久": 3404,
      "你 能 告诉 我 ": 3405,
      " 还 有 ": 3406,
      "每 天 ": 3407,
      "hi": 3408,
      "也 很 ": 3409,
      "事情": 3410,
      "兴趣": 3411,
      "来 ？": 3412,
      "瓶 ": 3413,
      "朋友 ": 3414,
      " 请 ": 3415,
      "动 ": 3416,
      "口 ": 3417,
      "大概": 3418,
      "客气": 3419,
      "家 。": 3420,
      "日元": 3421,
      "比较 ": 3422,
      "等 ": 3423,
      "色 的 ": 3424,
      "还是 ": 3425,
      "可以 在 ": 3426,
      "你 能 帮 我 ": 3427,
      " 也 ": 3428,
      "博物": 3429,
      "士顿": 3430,
      "快 。": 3431,
      "才 ": 3432,
      "波士顿": 3433,
      "点半": 3434,
      "见 。": 3435,
      " 我 去 ": 3436,
      " 一直": 3437,
      " 一 张 ": 3438,
      "到 那": 3439,
      " 这 条 ": 3440,
      "国际 ": 3441,
      "博物馆": 3442,
      " 高": 3443,
      " 给 我 ": 3444,
      "昨天 ": 3445,
      "需要": 3446,
      " 我 要 ": 3447,
      " 十": 3448,
      " 后": 3449,
      " 手": 3450,
      "包 。": 3451,
      "因为 ": 3452,
      "坏 了 。": 3453,
      "妈妈": 3454,
      "小时 ": 3455,
      "点儿 ": 3456,
      "我 觉得 ": 3457,
      "你 知道 ": 3458,
      " 钱 。": 3459,
      "东西 。": 3460,
      " 前": 3461,
      "们 的 ": 3462,
      "就 在 ": 3463,
      "找到 ": 3464,
      "把 这 ": 3465,
      "换 ": 3466,
      "点 的 ": 3467,
      "舒服": 3468,
      "药 。": 3469,
      "我 叫 ": 3470,
      "三 个 ": 3471,
      "全 ": 3472,
      "号码": 3473,
      "你 喜欢 ": 3474,
      " 这儿 ": 3475,
      "这 附近 有 ": 3476,
      "时间 ": 3477,
      " 拐": 3478,
      "下 个 ": 3479,
      "十五": 3480,
      "卖 ": 3481,
      "明白": 3482,
      "看到 ": 3483,
      "边 的 ": 3484,
      "飞机": 3485,
      " ， 是 ": 3486,
      " 不 能 ": 3487,
      "这 是 我 的 ": 3488,
      "房间 ": 3489,
      "请 给 我 来 ": 3490,
      "开始 ": 3491,
      "包括 ": 3492,
      "12": 3493,
      "动物": 3494,
      "可 ": 3495,
      "大 ": 3496,
      "头发": 3497,
      "怎么样 ？": 3498,
      "片 。": 3499,
      "票 ": 3500,
      "色 ": 3501,
      "我 想": 3502,
      "你 想要 ": 3503,
      "你 好 ！": 3504,
      " 了 一 ": 3505,
      "这 种 ": 3506,
      "十 分钟": 3507,
      "高兴 。": 3508,
      "自己 ": 3509,
      " 对": 3510,
      "an": 3511,
      "其他 ": 3512,
      "医院": 3513,
      "可是 ": 3514,
      "拿 个 ": 3515,
      "有 的 ": 3516,
      "欢迎": 3517,
      "汉语 ": 3518,
      "火车 ": 3519,
      "美国": 3520,
      "联系": 3521,
      "菜 。": 3522,
      "那 是 ": 3523,
      "我 要": 3524,
      " 一点 ": 3525,
      " , 我 ": 3526,
      " 美元 的 ": 3527,
      " 出租": 3528,
      " 的 座位 。": 3529,
      " 开": 3530,
      " 后 ": 3531,
      " 啦 。": 3532,
      "恐怕": 3533,
      "毕业": 3534,
      "生日": 3535,
      "经理": 3536,
      "这儿": 3537,
      " 这里 ": 3538,
      "什么 时候": 3539,
      "工作 ": 3540,
      "本 书": 3541,
      "问题 。": 3542,
      " 他": 3543,
      " 航空": 3544,
      "上班": 3545,
      "十五 ": 3546,
      "哪儿 ？": 3547,
      "在 我 ": 3548,
      "地图": 3549,
      "帮助": 3550,
      "纪念": 3551,
      "我 觉得": 3552,
      " 这里": 3553,
      "房间 吗 ？": 3554,
      "我 想 要 一些 ": 3555,
      " 去": 3556,
      "别 的 ": 3557,
      "参加 ": 3558,
      "受 ": 3559,
      "回来 。": 3560,
      "大约 ": 3561,
      "忙 。": 3562,
      "日语": 3563,
      "父母": 3564,
      "痛 。": 3565,
      "穿 ": 3566,
      "经济": 3567,
      "还 是 ": 3568,
      "间 。": 3569,
      "我 需要 ": 3570,
      " 的 票 。": 3571,
      " ， 他 ": 3572,
      " 了 ， 我 ": 3573,
      " 你 要 ": 3574,
      "可以 。": 3575,
      "咖啡 。": 3576,
      "真的 很 ": 3577,
      " 报": 3578,
      " 叫 ": 3579,
      "个 吗 ？": 3580,
      "买到 ": 3581,
      "了 。": 3582,
      "几 个 ": 3583,
      "参加": 3584,
      "普通": 3585,
      "物 ": 3586,
      "者 ": 3587,
      "通知": 3588,
      "我 怎么 ": 3589,
      "我 也 ": 3590,
      " ， 请 ": 3591,
      " 大 ": 3592,
      " 怎么 走": 3593,
      " 次 ": 3594,
      "不错 。": 3595,
      "便 ": 3596,
      "十九": 3597,
      "因为": 3598,
      "它们 ": 3599,
      "比 ": 3600,
      "计划": 3601,
      "费 。": 3602,
      "那儿 ": 3603,
      "我 有": 3604,
      "我 希望": 3605,
      "你 看": 3606,
      " 你 去 ": 3607,
      "请 给 我 拿 ": 3608,
      "是 的 ， ": 3609,
      "衣服 ": 3610,
      "我 想 要 一 个 ": 3611,
      " 多 长 时间 ？": 3612,
      " 饭店": 3613,
      "on": 3614,
      "、 ": 3615,
      "出租": 3616,
      "十二": 3617,
      "意 。": 3618,
      "感 ": 3619,
      "早餐": 3620,
      "胶卷": 3621,
      "药 吗 ？": 3622,
      "门 ？": 3623,
      "餐厅": 3624,
      "我 没有 ": 3625,
      " 的 话": 3626,
      "你 不 ": 3627,
      " 一起": 3628,
      " 是 个 ": 3629,
      " 一下 吗 ？": 3630,
      "行李 。": 3631,
      "am": 3632,
      "事 。": 3633,
      "出 ": 3634,
      "到 。": 3635,
      "太 好": 3636,
      "它 。": 3637,
      "早 ": 3638,
      "清楚": 3639,
      "游泳": 3640,
      "爸爸": 3641,
      "生 ": 3642,
      "登机": 3643,
      "银行": 3644,
      "面 的 ": 3645,
      "飞机 ": 3646,
      " 的 时候 ": 3647,
      " 我 在 ": 3648,
      " 不 好": 3649,
      "我 想 订": 3650,
      " 还 ": 3651,
      "我 想 要 些 ": 3652,
      "请 问 ， ": 3653,
      " 上 的 ": 3654,
      "好 的 ， ": 3655,
      "我 想 要 一 ": 3656,
      "今晚 ": 3657,
      " 您": 3658,
      " 而": 3659,
      "a 。": 3660,
      "一会": 3661,
      "内 ": 3662,
      "去 吗 ？": 3663,
      "沿着": 3664,
      "然 ": 3665,
      "长途": 3666,
      "门 ": 3667,
      "这 是 我 ": 3668,
      "电话 。": 3669,
      " 美元 ": 3670,
      " 上 。": 3671,
      "朋友 。": 3672,
      "今天 的 ": 3673,
      "下 一 ": 3674,
      "今年 ": 3675,
      "会 在 ": 3676,
      "像 ": 3677,
      "容易": 3678,
      "往 ": 3679,
      "支付": 3680,
      "有空": 3681,
      "桌子 ": 3682,
      "票 ？": 3683,
      "街区": 3684,
      "该 ": 3685,
      "重 ": 3686,
      "我 把 ": 3687,
      "这 趟 ": 3688,
      " 这 件 ": 3689,
      "什么样 的 ": 3690,
      "谢谢 你 ": 3691,
      "多 长 时间 ？": 3692,
      "二十 ": 3693,
      "多少 ": 3694,
      "打算 ": 3695,
      " 再 ": 3696,
      "且 ": 3697,
      "为了 ": 3698,
      "去 ？": 3699,
      "号 。": 3700,
      "向 ": 3701,
      "回 ": 3702,
      "导游": 3703,
      "帐单": 3704,
      "总是 ": 3705,
      "片 ": 3706,
      "装 ": 3707,
      "我 还": 3708,
      "我 去 ": 3709,
      "我 知道": 3710,
      "我 现在 ": 3711,
      "我 正在 ": 3712,
      " 我 会 ": 3713,
      " 我 就 ": 3714,
      " 一定": 3715,
      "请 告诉 我 ": 3716,
      " 先生 。": 3717,
      "看看 。": 3718,
      " 啦": 3719,
      " 四": 3720,
      " 时": 3721,
      "人 吗 ？": 3722,
      "住 ": 3723,
      "关系": 3724,
      "参观": 3725,
      "头 ": 3726,
      "姐姐": 3727,
      "子 的 ": 3728,
      "心 ": 3729,
      "汽车 ": 3730,
      "红 ": 3731,
      "经商": 3732,
      " 这个 。": 3733,
      " 不 会 ": 3734,
      "房间 的 ": 3735,
      "葡萄酒": 3736,
      " 停": 3737,
      "以前": 3738,
      "到 了 。": 3739,
      "只要 ": 3740,
      "国家": 3741,
      "安排": 3742,
      "定 。": 3743,
      "忙 吗 ？": 3744,
      "所有 的 ": 3745,
      "把 你 的 ": 3746,
      "文 ": 3747,
      "旅馆": 3748,
      "有 。": 3749,
      "试试": 3750,
      "错 了 。": 3751,
      "你 知道": 3752,
      " 我 能 ": 3753,
      " 我 可以 ": 3754,
      " 的话": 3755,
      " 比赛": 3756,
      "感 兴趣": 3757,
      " 张 ": 3758,
      " 被 ": 3759,
      "上午": 3760,
      "下 。": 3761,
      "到 我 的 ": 3762,
      "帮 你 ": 3763,
      "水 ": 3764,
      "现金": 3765,
      "美元": 3766,
      "节目": 3767,
      "认为": 3768,
      "说 。": 3769,
      "走 。": 3770,
      "非常": 3771,
      " ， 但": 3772,
      "我 想 租": 3773,
      " 一 天 ": 3774,
      "工作 。": 3775,
      " 工作 。": 3776,
      " 等": 3777,
      "不同": 3778,
      "书 。": 3779,
      "事 ": 3780,
      "吸烟": 3781,
      "外 ": 3782,
      "女 ": 3783,
      "小姐": 3784,
      "年轻": 3785,
      "手 ": 3786,
      "收据": 3787,
      "是 。": 3788,
      "疼 。": 3789,
      "见到 ": 3790,
      "那儿": 3791,
      " ， 有": 3792,
      "一 张 ": 3793,
      "公司 ": 3794,
      " 的 东西 。": 3795,
      " 路": 3796,
      "健康": 3797,
      "光 ": 3798,
      "力 ": 3799,
      "加哥": 3800,
      "双 ": 3801,
      "型 ": 3802,
      "头 。": 3803,
      "她 是 ": 3804,
      "忘 在 ": 3805,
      "愉快 。": 3806,
      "方 ": 3807,
      "早上": 3808,
      "有 一 个 ": 3809,
      "来 了 。": 3810,
      "洛杉": 3811,
      "火车": 3812,
      "生活": 3813,
      "节 ": 3814,
      "芝加哥": 3815,
      "英语 ": 3816,
      "菜 ": 3817,
      "菜单": 3818,
      "谁 ": 3819,
      "这样": 3820,
      "金山": 3821,
      "我 来 ": 3822,
      "你 去 ": 3823,
      " ， 一": 3824,
      " ， 要 ": 3825,
      "我们 在 ": 3826,
      "我们 能 ": 3827,
      " 一 次": 3828,
      "到 日本": 3829,
      " 要 花": 3830,
      "礼物 。": 3831,
      " 吃": 3832,
      " 看": 3833,
      " 表": 3834,
      " 点 ": 3835,
      " 呢 。": 3836,
      "不错": 3837,
      "九十九": 3838,
      "人 ？": 3839,
      "免税": 3840,
      "利 ": 3841,
      "取 ": 3842,
      "取消": 3843,
      "只有 ": 3844,
      "员 。": 3845,
      "处 ": 3846,
      "姓 ": 3847,
      "学 。": 3848,
      "孩子": 3849,
      "岁 。": 3850,
      "找 不 ": 3851,
      "期 ": 3852,
      "电脑": 3853,
      "网球": 3854,
      "让 ": 3855,
      "预约 ": 3856,
      "饮料": 3857,
      " 的 ， ": 3858,
      "请 再 ": 3859,
      "什么 地方": 3860,
      " , 你 ": 3861,
      " 这 张 ": 3862,
      " 在 哪儿 ": 3863,
      "你们 有 ": 3864,
      "月 二十": 3865,
      "打 电话 。": 3866,
      "东京 的 ": 3867,
      "你 好 ！ ": 3868,
      "ak": 3869,
      "下雨": 3870,
      "以后 ": 3871,
      "做 什么 ": 3872,
      "八 ": 3873,
      "分之": 3874,
      "包裹": 3875,
      "填写": 3876,
      "孩子 ": 3877,
      "才 能 ": 3878,
      "旧金山": 3879,
      "有 一 ": 3880,
      "点 ？": 3881,
      "用 。": 3882,
      "给 你 。": 3883,
      "运动": 3884,
      "都 是 ": 3885,
      "我 一": 3886,
      " 的 时间": 3887,
      " ， 这 ": 3888,
      " 一 遍": 3889,
      " 公园": 3890,
      "哪 种 ": 3891,
      "给 我们 ": 3892,
      "如果 我 ": 3893,
      "下 星期": 3894,
      "旅行 。": 3895,
      " 都 是 ": 3896,
      "这里 有 ": 3897,
      " 地 ": 3898,
      "漂亮 。": 3899,
      " 作": 3900,
      " 干": 3901,
      " 房间 。": 3902,
      " 吗 ?": 3903,
      "34": 3904,
      "一些 ": 3905,
      "上 。": 3906,
      "二百": 3907,
      "价钱": 3908,
      "卡 。": 3909,
      "多 。": 3910,
      "币 。": 3911,
      "往返": 3912,
      "快乐": 3913,
      "打扰": 3914,
      "放 ": 3915,
      "没 有 ": 3916,
      "申报": 3917,
      "营业": 3918,
      "见 ": 3919,
      "在 这里 ": 3920,
      " ， 但是 ": 3921,
      " 很 好": 3922,
      "你 能 推荐": 3923,
      " 大概": 3924,
      " ， 你 要 ": 3925,
      "两 张 ": 3926,
      "我 不 能 ": 3927,
      "是 的 ,": 3928,
      " 有 一 ": 3929,
      "预订 ": 3930,
      "十 美元 的 ": 3931,
      " 多少 ": 3932,
      " 左右": 3933,
      "麻烦 你 ": 3934,
      "动物园": 3935,
      " 教": 3936,
      "00": 3937,
      "五十": 3938,
      "以前 ": 3939,
      "们 。": 3940,
      "优惠": 3941,
      "兑换": 3942,
      "分 ": 3943,
      "台 ": 3944,
      "哪儿": 3945,
      "哪 一 ": 3946,
      "感冒": 3947,
      "房 。": 3948,
      "拐角": 3949,
      "新 的 ": 3950,
      "晚餐": 3951,
      "来 的 ": 3952,
      "治 ": 3953,
      "理 ": 3954,
      "表 。": 3955,
      "还 要 ": 3956,
      "这样 ": 3957,
      "选择": 3958,
      "你 好": 3959,
      " 不 要 ": 3960,
      " 不 太 ": 3961,
      " 不 舒服": 3962,
      " 好 的 ": 3963,
      "来 点 ": 3964,
      " 美分 。": 3965,
      " 这 种 ": 3966,
      "看 电影": 3967,
      "工作 ？": 3968,
      " 吧 ？": 3969,
      " 号 。": 3970,
      "衣服 。": 3971,
      "意思 。": 3972,
      "在 哪 能 ": 3973,
      " 换成 ": 3974,
      " 一样 。": 3975,
      " 他们 ": 3976,
      " 服务": 3977,
      " 老师": 3978,
      "11": 3979,
      "列车": 3980,
      "到 了 ": 3981,
      "办 ？": 3982,
      "合适": 3983,
      "吗 ": 3984,
      "和 你 ": 3985,
      "多久": 3986,
      "大家 ": 3987,
      "套 ": 3988,
      "威士": 3989,
      "最后": 3990,
      "样 ？": 3991,
      "水果": 3992,
      "照相": 3993,
      "登记": 3994,
      "百分之": 3995,
      "真 是 ": 3996,
      "美国 ": 3997,
      "你 什么 时候 ": 3998,
      "在 这个 ": 3999,
      " ， 不 ": 4000,
      "我们 要 ": 4001,
      "我们 去 ": 4002,
      " 一 份 ": 4003,
      "这 条 ": 4004,
      "会 说 ": 4005,
      " 大学 ": 4006,
      "三 天 ": 4007,
      " 比 ": 4008,
      "打 电话 ": 4009,
      "学习 ": 4010,
      "餐馆 吗 ？": 4011,
      "当然 ": 4012,
      "万 块": 4013,
      "必须 ": 4014,
      "第一 次 ": 4015,
      "旅行 支": 4016,
      " 拐 。": 4017,
      " 信": 4018,
      " 太": 4019,
      " 英": 4020,
      " 车站": 4021,
      "ki": 4022,
      "一百": 4023,
      "一起": 4024,
      "他 在 ": 4025,
      "位置": 4026,
      "假 。": 4027,
      "冷 。": 4028,
      "包 吗 ？": 4029,
      "可能": 4030,
      "吃 。": 4031,
      "听说": 4032,
      "啤酒": 4033,
      "地 ": 4034,
      "它 是 ": 4035,
      "将 ": 4036,
      "已 ": 4037,
      "建议": 4038,
      "情况": 4039,
      "成功": 4040,
      "来 ， ": 4041,
      "正 ": 4042,
      "正 在 ": 4043,
      "法 ": 4044,
      "爱 ": 4045,
      "牛肉": 4046,
      "皮肤": 4047,
      "考虑": 4048,
      "要求": 4049,
      "道 ": 4050,
      "那 你 ": 4051,
      "钱 。": 4052,
      "我 没 ": 4053,
      " 的 路": 4054,
      " 的 费用": 4055,
      "就 要 ": 4056,
      "能 给 我 拿 ": 4057,
      "非常 感谢": 4058,
      "价格 ": 4059,
      " 酒店 。": 4060,
      " 多少 ？": 4061,
      " 邮件 ": 4062,
      "葡萄酒 。": 4063,
      "小时 。": 4064,
      "预约 。": 4065,
      "感 兴趣 。": 4066,
      " 商店": 4067,
      "习惯": 4068,
      "产品": 4069,
      "但 ": 4070,
      "千 ": 4071,
      "发 。": 4072,
      "叫 什么 ": 4073,
      "女士": 4074,
      "安全": 4075,
      "寄 ": 4076,
      "尔顿": 4077,
      "左右": 4078,
      "式 ": 4079,
      "怎么样": 4080,
      "您 要 ": 4081,
      "打 个 ": 4082,
      "明早 ": 4083,
      "昨晚": 4084,
      "机场 ": 4085,
      "母亲": 4086,
      "汁 。": 4087,
      "游览": 4088,
      "特色": 4089,
      "生日 ": 4090,
      "相信": 4091,
      "睡觉": 4092,
      "经常 ": 4093,
      "结束": 4094,
      "让 你 ": 4095,
      "邮局": 4096,
      " 。 我 ": 4097,
      "你 喜欢": 4098,
      "你 觉得 ": 4099,
      " ， 可是 ": 4100,
      " 一些": 4101,
      "什么 吗 ？": 4102,
      " 大约 ": 4103,
      "我 要 去 ": 4104,
      "我 不 知道": 4105,
      "你 有 什么 ": 4106,
      "做 什么 ？": 4107,
      " 小 ": 4108,
      " 里 。": 4109,
      "公司 的 ": 4110,
      "医生 。": 4111,
      " 多久 ？": 4112,
      " 带": 4113,
      " 起": 4114,
      " 又 ": 4115,
      "专业": 4116,
      "世界": 4117,
      "发生": 4118,
      "周末": 4119,
      "哪些 ": 4120,
      "回来 ": 4121,
      "图书": 4122,
      "场 。": 4123,
      "妹妹": 4124,
      "年 的 ": 4125,
      "店 吗 ？": 4126,
      "找 一 ": 4127,
      "月 。": 4128,
      "父亲": 4129,
      "牛奶": 4130,
      "离开": 4131,
      "稍微": 4132,
      "窗户": 4133,
      "自动 ": 4134,
      "茶 。": 4135,
      "门 。": 4136,
      " ， 在 ": 4137,
      "这 次 ": 4138,
      "谢谢 ？": 4139,
      "看 起来 ": 4140,
      "说 得 ": 4141,
      "今天 下午": 4142,
      "是 的 ，": 4143,
      "日本 航空": 4144,
      "你 可以 给 我 ": 4145,
      " 的 地方 吗 ？": 4146,
      " 电话 。": 4147,
      " 也": 4148,
      " 并": 4149,
      " 买 ": 4150,
      "a ": 4151,
      "号 ？": 4152,
      "名 。": 4153,
      "吧 ？": 4154,
      "哪里 ？": 4155,
      "在一起": 4156,
      "坐 。": 4157,
      "希尔顿": 4158,
      "弟弟": 4159,
      "手提": 4160,
      "替 我 ": 4161,
      "桌子 。": 4162,
      "汉堡": 4163,
      "汽车": 4164,
      "洗 ": 4165,
      "看 。": 4166,
      "确认": 4167,
      "科 ": 4168,
      "第三 ": 4169,
      "管 ": 4170,
      "菜 吗 ？": 4171,
      "请问": 4172,
      "读 ": 4173,
      "质量": 4174,
      "里面": 4175,
      "问问": 4176,
      "我 对 ": 4177,
      " 的 房间 。": 4178,
      " ， 好 吗 ？": 4179,
      " 一 杯": 4180,
      " 有 人 ": 4181,
      " 了 .": 4182,
      " 怎么样": 4183,
      "是 的 ， 我 ": 4184,
      "月 十": 4185,
      "先生 。": 4186,
      "预订 。": 4187,
      "名字 ？": 4188,
      " 它 。": 4189,
      "洛杉矶": 4190,
      "吗 谢谢 ？": 4191,
      "图书馆": 4192,
      " 写": 4193,
      " 啊": 4194,
      " 现在 ": 4195,
      " 从 ": 4196,
      "A ": 4197,
      "七 ": 4198,
      "丢 了 。": 4199,
      "个人 ": 4200,
      "买 一 ": 4201,
      "从 这 ": 4202,
      "他 。": 4203,
      "以后": 4204,
      "件 。": 4205,
      "任何": 4206,
      "六点 ": 4207,
      "出差": 4208,
      "到 这个 ": 4209,
      "口 。": 4210,
      "合同": 4211,
      "名 ": 4212,
      "员 ": 4213,
      "它 的 ": 4214,
      "张 去 ": 4215,
      "或许": 4216,
      "手续": 4217,
      "托运": 4218,
      "报告": 4219,
      "拿到 ": 4220,
      "换成 ": 4221,
      "是否": 4222,
      "有点 ": 4223,
      "水 吗 ？": 4224,
      "然后": 4225,
      "物 。": 4226,
      "站 ？": 4227,
      "联合": 4228,
      "肯定": 4229,
      "认为 ": 4230,
      "辆 出租": 4231,
      "预报": 4232,
      "我 从 ": 4233,
      " 的 巴士": 4234,
      "你 说": 4235,
      " ， 就 ": 4236,
      " ， 所以": 4237,
      " 是 多少 钱 ？": 4238,
      " 是 谁 ？": 4239,
      " 这儿": 4240,
      " 不 好 。": 4241,
      "我们 会 ": 4242,
      " 多 。": 4243,
      "你 能 把 ": 4244,
      " 要 多 长 时间 ？": 4245,
      "什么 。": 4246,
      " ， 你 呢 ？": 4247,
      " 吧 ！": 4248,
      "给 他 ": 4249,
      "告诉 你 ": 4250,
      " 里 有 ": 4251,
      "开始 ？": 4252,
      " 打扰": 4253,
      "东京 ": 4254,
      "下 个 星期": 4255,
      "日语 的 ": 4256,
      "经济舱": 4257,
      " 怎么 走 ？": 4258,
      "威士忌": 4259,
      " 用": 4260,
      " 真 ": 4261,
      " 最 ": 4262,
      "ad": 4263,
      "to": 4264,
      "个 ？": 4265,
      "交通": 4266,
      "伦敦": 4267,
      "兩 个 ": 4268,
      "公园": 4269,
      "公共 ": 4270,
      "历史": 4271,
      "大 的 ": 4272,
      "天 的 ": 4273,
      "学 的 ": 4274,
      "带 。": 4275,
      "所有 ": 4276,
      "无烟": 4277,
      "来 个 ": 4278,
      "标准": 4279,
      "浴室": 4280,
      "点 吗 ？": 4281,
      "热 。": 4282,
      "特别": 4283,
      "玛丽": 4284,
      "确定": 4285,
      "考试": 4286,
      "警察": 4287,
      "请进": 4288,
      "走 了 。": 4289,
      "还 有": 4290,
      "重新 ": 4291,
      "靠 ": 4292,
      "鸡蛋": 4293,
      "我 喜欢": 4294,
      "你 现在 ": 4295,
      "你 应该 ": 4296,
      " ， 然后 ": 4297,
      "请 在 ": 4298,
      " 这 是 ": 4299,
      "我 想 买 ": 4300,
      "很 好 。": 4301,
      "很 高兴": 4302,
      " ， 我 要 ": 4303,
      " 要 去 ": 4304,
      "谢谢 你 。": 4305,
      "电话 ": 4306,
      "这 是 你 的 ": 4307,
      "行李 吗 ？": 4308,
      "对 不 起 ， ": 4309,
      " 走 ": 4310,
      "名字 叫 ": 4311,
      "听 说 ": 4312,
      "天气 预报": 4313,
      " 或 ": 4314,
      " 或者 ": 4315,
      " 一起 去 ": 4316,
      "沿着 这 条 ": 4317,
      " !": 4318,
      " 处": 4319,
      " 她": 4320,
      " 广": 4321,
      "00 ": 4322,
      "ar": 4323,
      "as": 4324,
      "中午": 4325,
      "为 你 ": 4326,
      "作 ": 4327,
      "偷 了 。": 4328,
      "列车 ": 4329,
      "到 你 ": 4330,
      "包装": 4331,
      "十字": 4332,
      "发烧": 4333,
      "只 是 ": 4334,
      "哪里": 4335,
      "大约": 4336,
      "大学 ": 4337,
      "开车 ": 4338,
      "当 我 ": 4339,
      "抽烟": 4340,
      "方便": 4341,
      "烤 ": 4342,
      "电池": 4343,
      "白 ": 4344,
      "百货": 4345,
      "身份": 4346,
      "送 ": 4347,
      "那些 ": 4348,
      "飞往 ": 4349,
      "饭 。": 4350,
      " 的 人 。": 4351,
      "你 会 ": 4352,
      "你 可以 在 ": 4353,
      " 了 我 的 ": 4354,
      "我们 想 ": 4355,
      " 了 ！": 4356,
      " ， 我 不 ": 4357,
      "看 电视": 4358,
      " 大街": 4359,
      "哪 条 ": 4360,
      "东西 ": 4361,
      "坐 地铁": 4362,
      " 以后": 4363,
      "便宜 点": 4364,
      " 和 一 ": 4365,
      "one": 4366,
      " 内": 4367,
      " 进": 4368,
      " 时 ": 4369,
      " 已经 ": 4370,
      " 可以 吗 ？": 4371,
      " 坏 了 。": 4372,
      "30": 4373,
      "56": 4374,
      "上海": 4375,
      "会 吗 ？": 4376,
      "体育": 4377,
      "信 。": 4378,
      "可惜": 4379,
      "听说 ": 4380,
      "味道": 4381,
      "和 我 一": 4382,
      "品 吗 ？": 4383,
      "外套": 4384,
      "天 ？": 4385,
      "家庭": 4386,
      "家 吗 ？": 4387,
      "对 我 ": 4388,
      "性 ": 4389,
      "意大": 4390,
      "柜台": 4391,
      "沙拉": 4392,
      "百 ": 4393,
      "看 一下 ": 4394,
      "眼睛": 4395,
      "结账": 4396,
      "苹果": 4397,
      "要是 ": 4398,
      "话 。": 4399,
      "说 ， ": 4400,
      "豪华": 4401,
      "起床": 4402,
      "跟 我 ": 4403,
      "进 ": 4404,
      "那里 ": 4405,
      "风景": 4406,
      "骑 ": 4407,
      "我 给 你 ": 4408,
      "我 应该 ": 4409,
      " 的 票 吗 ？": 4410,
      "你 好 ， ": 4411,
      " ， 请 你 ": 4412,
      "不 好": 4413,
      "时候 ？": 4414,
      " 大约": 4415,
      "知道 。": 4416,
      "再 来 ": 4417,
      "这 是 去 ": 4418,
      "星期六": 4419,
      "座位 。": 4420,
      "没 关系": 4421,
      "最 喜欢 ": 4422,
      " 比较 ": 4423,
      " 一点 。": 4424,
      "英语 。": 4425,
      "介绍 一下": 4426,
      "纽约 的 ": 4427,
      "我 想 我 ": 4428,
      " 买": 4429,
      " 新": 4430,
      " 但是 ": 4431,
      " 对 ": 4432,
      "er": 4433,
      "七点": 4434,
      "九点 ": 4435,
      "事故": 4436,
      "他 不 ": 4437,
      "会儿 ": 4438,
      "你 。": 4439,
      "保证": 4440,
      "八点 ": 4441,
      "其他 的 ": 4442,
      "力 。": 4443,
      "发型": 4444,
      "另 一 ": 4445,
      "只是 ": 4446,
      "哥哥": 4447,
      "哪 ？": 4448,
      "回来 ？": 4449,
      "圣诞": 4450,
      "多少 钱": 4451,
      "大 。": 4452,
      "天 我 ": 4453,
      "如此": 4454,
      "小王": 4455,
      "尝尝": 4456,
      "影响": 4457,
      "把 这些 ": 4458,
      "报价": 4459,
      "日 。": 4460,
      "杂志": 4461,
      "比赛": 4462,
      "牛排": 4463,
      "王 先生": 4464,
      "生意": 4465,
      "离 ": 4466,
      "等一会": 4467,
      "线 ": 4468,
      "老板": 4469,
      "证 。": 4470,
      "退休": 4471,
      "送到 ": 4472,
      "里 的 ": 4473,
      "重要": 4474,
      "重 。": 4475,
      "钱 ": 4476,
      "钱包": 4477,
      "难 。": 4478,
      "我 就 ": 4479,
      " 的 人 ": 4480,
      " ， 是 吗 ？": 4481,
      "不 ,": 4482,
      " 是 一 ": 4483,
      "请 来 ": 4484,
      " 你 来 ": 4485,
      " 一 美元": 4486,
      "你 能 在 ": 4487,
      " ， 我 是 ": 4488,
      " 公斤": 4489,
      "请 给 我 一 ": 4490,
      "您 想 ": 4491,
      "我 不 知道 ": 4492,
      "我们 一起 ": 4493,
      "酒店 ": 4494,
      "酒店 。": 4495,
      "酒店 的 ": 4496,
      " 走 。": 4497,
      "今天 我 ": 4498,
      "别 客气": 4499,
      "分钟 。": 4500,
      "旅游 ": 4501,
      "最 好 的 ": 4502,
      "往返 ": 4503,
      " 字": 4504,
      " 无": 4505,
      "03": 4506,
      "ko": 4507,
      "一直": 4508,
      "七点钟": 4509,
      "上课": 4510,
      "免费": 4511,
      "兑现": 4512,
      "入 ": 4513,
      "关 ": 4514,
      "再次 ": 4515,
      "十一": 4516,
      "午餐": 4517,
      "单 。": 4518,
      "另外": 4519,
      "号 是 ": 4520,
      "咳嗽": 4521,
      "哪 有 ": 4522,
      "国家 ": 4523,
      "块 ": 4524,
      "型 的 ": 4525,
      "头等": 4526,
      "如 ": 4527,
      "孩 ": 4528,
      "少 ": 4529,
      "尔夫": 4530,
      "就 不 ": 4531,
      "干 。": 4532,
      "建筑": 4533,
      "愿意 ": 4534,
      "房子 ": 4535,
      "挂号 ": 4536,
      "是 ， ": 4537,
      "有 一些 ": 4538,
      "比较": 4539,
      "流行": 4540,
      "滑雪": 4541,
      "票 和 ": 4542,
      "程 ": 4543,
      "老 ": 4544,
      "见面": 4545,
      "让 我们 ": 4546,
      "记得 ": 4547,
      "话 ": 4548,
      "足球": 4549,
      "跟 你 ": 4550,
      "车 去 ": 4551,
      "迪斯": 4552,
      "部 。": 4553,
      "除了 ": 4554,
      "我 已经 ": 4555,
      " 的 人": 4556,
      "你 需要 ": 4557,
      " ， 还 ": 4558,
      "有 去 ": 4559,
      " 这个 吗 ？": 4560,
      " 不 够": 4561,
      "我们 什么 时候 ": 4562,
      "很 好": 4563,
      "很 高兴 。": 4564,
      " 有 多 ": 4565,
      " 好 ， ": 4566,
      " 多少 钱": 4567,
      " 公共 ": 4568,
      "请 给 我 拿": 4569,
      "您 能 ": 4570,
      " 过 。": 4571,
      " 不错 。": 4572,
      "希望 ": 4573,
      "下午 ": 4574,
      "喝 点 ": 4575,
      "这里 的 ": 4576,
      "医生 吗 ？": 4577,
      " 的 地方 。": 4578,
      "越南 ": 4579,
      "地址 。": 4580,
      "大概 ": 4581,
      " 手续": 4582,
      "1234": 4583,
      " 航空 公司 的 ": 4584,
      " 次 航班": 4585,
      "胶卷 。": 4586,
      "叫 什么 名字 ？": 4587,
      "意大利 ": 4588,
      "头等舱": 4589,
      " 古": 4590,
      " 寄": 4591,
      " 油": 4592,
      " 贵": 4593,
      " 鱼": 4594,
      "AB": 4595,
      "chi": 4596,
      "en": 4597,
      "in": 4598,
      "ro": 4599,
      "一 。": 4600,
      "与 ": 4601,
      "中文": 4602,
      "也许": 4603,
      "也 是 ": 4604,
      "事 吗 ？": 4605,
      "事 ， ": 4606,
      "今年": 4607,
      "介意": 4608,
      "从来 ": 4609,
      "会议": 4610,
      "再见": 4611,
      "办公": 4612,
      "半 ": 4613,
      "只 能 ": 4614,
      "号 的 ": 4615,
      "吃 的 ": 4616,
      "周围": 4617,
      "和 我 ": 4618,
      "四十": 4619,
      "场 吗 ？": 4620,
      "坐 在 ": 4621,
      "夏天 ": 4622,
      "太 多": 4623,
      "尺寸": 4624,
      "店 在 哪 ？": 4625,
      "志明": 4626,
      "愉快": 4627,
      "感到 ": 4628,
      "找 个 ": 4629,
      "把 我 ": 4630,
      "晚 。": 4631,
      "来 的 。": 4632,
      "汽车站": 4633,
      "法 。": 4634,
      "洗衣": 4635,
      "点 的 吗 ？": 4636,
      "特别 ": 4637,
      "玩 。": 4638,
      "现在": 4639,
      "班 。": 4640,
      "由 ": 4641,
      "眼镜": 4642,
      "聪明": 4643,
      "胡志明": 4644,
      "色 的 吗 ？": 4645,
      "花 ": 4646,
      "衬衫": 4647,
      "计算": 4648,
      "订 ": 4649,
      "记得": 4650,
      "许多 ": 4651,
      "贵 ": 4652,
      "贵 。": 4653,
      "贸易": 4654,
      "走 ": 4655,
      "跳舞": 4656,
      "过 。": 4657,
      "还 没 ": 4658,
      "这些": 4659,
      "远 ？": 4660,
      "远 吗 ？": 4661,
      "面包": 4662,
      "顺便 ": 4663,
      "饭 吗 ？": 4664,
      "高 ": 4665,
      " 。 你 ": 4666,
      "我 看": 4667,
      " 的 邮": 4668,
      " 的 好 ": 4669,
      "你 觉得": 4670,
      "在 哪儿 ": 4671,
      " ， 可以 吗 ？": 4672,
      " 了 我 ": 4673,
      "请 把 这个 ": 4674,
      " 你 可以 ": 4675,
      " 这样": 4676,
      "我 想 把 ": 4677,
      "我 想 吃 ": 4678,
      " 一 次 ": 4679,
      "这 张 ": 4680,
      " 好 了 。": 4681,
      " 好 ！": 4682,
      " 你们 的 ": 4683,
      " 要 多少 钱 ？": 4684,
      " 一下 我 的 ": 4685,
      "谢谢 ， ": 4686,
      " 什么 ?": 4687,
      " 怎样 ？": 4688,
      "给 您 ": 4689,
      " 到 日本": 4690,
      " 有点 ": 4691,
      " 里 的 ": 4692,
      " 先生 ": 4693,
      "打 电话 给 ": 4694,
      "天气 很 ": 4695,
      "为什么 不 ": 4696,
      " 它 吗 ？": 4697,
      " 邮件": 4698,
      " 是 什么 时候 ？": 4699,
      " 和 一 个 ": 4700,
      "护照 。": 4701,
      "号码 是 ": 4702,
      "小姐 ， ": 4703,
      "无烟区": 4704,
      "ABC": 4705,
      " 转": 4706,
      " 看 ": 4707,
      "10": 4708,
      "20": 4709,
      "Tan": 4710,
      "Yam": 4711,
      "七点 ": 4712,
      "中心": 4713,
      "做 的 ": 4714,
      "双 人 ": 4715,
      "名 的 ": 4716,
      "哦 ， ": 4717,
      "太 大": 4718,
      "好 ？": 4719,
      "完 了 。": 4720,
      "尽快 ": 4721,
      "巴黎": 4722,
      "年 。": 4723,
      "快递": 4724,
      "快点 ": 4725,
      "指甲": 4726,
      "改变": 4727,
      "机 吗 ？": 4728,
      "标签": 4729,
      "次 。": 4730,
      "款式": 4731,
      "款 。": 4732,
      "毛衣": 4733,
      "游戏": 4734,
      "演出": 4735,
      "炸 ": 4736,
      "现在 我 ": 4737,
      "的 ？": 4738,
      "示 ": 4739,
      "祝贺": 4740,
      "空调": 4741,
      "第二": 4742,
      "第二 ": 4743,
      "结果": 4744,
      "艺术": 4745,
      "表 ": 4746,
      "解释": 4747,
      "请来 ": 4748,
      "贵 了 。": 4749,
      "贵重 ": 4750,
      "走 ？": 4751,
      "超市": 4752,
      "遗憾": 4753,
      "那 。": 4754,
      "那里 。": 4755,
      "我 得 ": 4756,
      "我 也 很 ": 4757,
      " 的 还 是 ": 4758,
      "你 最": 4759,
      " ， 一 ": 4760,
      " 了 ， 你 ": 4761,
      " 一边 ": 4762,
      "请 不 要 ": 4763,
      " 你 不 ": 4764,
      " 你 了 。": 4765,
      "我 想 预订": 4766,
      " 有 很多 ": 4767,
      " 有 多少 ": 4768,
      "你 能 再 ": 4769,
      "谢谢 你 的 ": 4770,
      " 钱 吗 ？": 4771,
      " 大家 ": 4772,
      "请 给 我 拿 个 ": 4773,
      "说 得": 4774,
      "那 个 。": 4775,
      "哪 趟 ": 4776,
      " . ": 4777,
      " 怎么 办 ？": 4778,
      " 小姐": 4779,
      "今天 是 ": 4780,
      " 一点儿": 4781,
      "意思 ？": 4782,
      " 以后 ": 4783,
      " 三 个 ": 4784,
      " 的 东西 吗 ？": 4785,
      "打算 去 ": 4786,
      "哪里 能 ": 4787,
      "城市 ": 4788,
      "没有 ？": 4789,
      "钥匙 。": 4790,
      " 一直 ": 4791,
      "十 分钟 。": 4792,
      " 报告": 4793,
      "稍微 ": 4794,
      "在一起 。": 4795,
      "交通 ": 4796,
      "贵重 物": 4797,
      " 住": 4798,
      " 前 ": 4799,
      "99": 4800,
      "三十 ": 4801,
      "乘 ": 4802,
      "他们": 4803,
      "低 ": 4804,
      "值得": 4805,
      "先 去 ": 4806,
      "几号 ？": 4807,
      "出去 ": 4808,
      "动 。": 4809,
      "半 个 ": 4810,
      "去 了 。": 4811,
      "发 ": 4812,
      "向 左": 4813,
      "听 不 ": 4814,
      "器 。": 4815,
      "四 个 ": 4816,
      "大夫": 4817,
      "她 的 ": 4818,
      "妻子 ": 4819,
      "子 ？": 4820,
      "实在 ": 4821,
      "家 有 ": 4822,
      "小心": 4823,
      "尺码": 4824,
      "市场 ": 4825,
      "带 我 ": 4826,
      "干杯": 4827,
      "度 。": 4828,
      "成绩": 4829,
      "担心": 4830,
      "放心": 4831,
      "明信": 4832,
      "显得 ": 4833,
      "晚饭": 4834,
      "来 一 ": 4835,
      "来说 ": 4836,
      "样式": 4837,
      "气 。": 4838,
      "河内": 4839,
      "流行 ": 4840,
      "照片": 4841,
      "研究": 4842,
      "继续": 4843,
      "菜 ？": 4844,
      "行吗 ？": 4845,
      "观光 ": 4846,
      "说 的 ": 4847,
      "越来": 4848,
      "路 吗 ？": 4849,
      "身 ": 4850,
      "还 没": 4851,
      "通过 ": 4852,
      "那个 ": 4853,
      "钱包 ": 4854,
      "银行 ": 4855,
      "零 钱 。": 4856,
      "我 刚": 4857,
      "我 来": 4858,
      "我 该": 4859,
      "我 真 ": 4860,
      "我 想要 ": 4861,
      "我 感觉": 4862,
      "我 需要": 4863,
      "我 姓 ": 4864,
      " 的 一 ": 4865,
      " 的 价格": 4866,
      " 的 电话 号码": 4867,
      " 的 生日": 4868,
      "你 看 ": 4869,
      "你 推荐": 4870,
      " ， 我 的 ": 4871,
      " 了 一 个 ": 4872,
      "有 人 ": 4873,
      "请 帮 我 ": 4874,
      "想 去 ": 4875,
      "我 想 在 ": 4876,
      "很 抱歉": 4877,
      " 有 个 ": 4878,
      " 好 ？": 4879,
      "这个 有 ": 4880,
      " ， 我 可以 ": 4881,
      "人 都 ": 4882,
      "电话 吗 ？": 4883,
      "我 的 名字 叫 ": 4884,
      "请 给 我 看": 4885,
      "我 能 在 ": 4886,
      "我 不 是 ": 4887,
      "下 次 ": 4888,
      "对 不 起 ": 4889,
      "对 不 起 打扰": 4890,
      "巴士 去 ": 4891,
      " 多 长 时间": 4892,
      " 人 ？": 4893,
      "我 很 高兴": 4894,
      " 地址": 4895,
      " 的 座位 吗 ？": 4896,
      " 之前": 4897,
      "漂亮 的 ": 4898,
      "必须 要 ": 4899,
      "信用卡 。": 4900,
      "国际 长途": 4901,
      "街区 。": 4902,
      "任何 ": 4903,
      "豪华 ": 4904,
      " 加": 4905,
      " 卡": 4906,
      " 呢": 4907,
      " 回": 4908,
      " 学": 4909,
      " 提": 4910,
      " 那 ": 4911,
      " 用 ": 4912,
      " 来 。": 4913,
      " 附近": 4914,
      " 音乐": 4915,
      "一切": 4916,
      "事实": 4917,
      "五 个 ": 4918,
      "交 ": 4919,
      "伤 了 。": 4920,
      "位 。": 4921,
      "你们": 4922,
      "光 。": 4923,
      "冬天 ": 4924,
      "几乎": 4925,
      "到 我 ": 4926,
      "厉害": 4927,
      "去 ， ": 4928,
      "可是 我 ": 4929,
      "同意": 4930,
      "呀 。": 4931,
      "哦 , ": 4932,
      "商业": 4933,
      "啊 ， ": 4934,
      "啤酒 。": 4935,
      "她 在 ": 4936,
      "好 了 ， ": 4937,
      "完全 ": 4938,
      "家 的 ": 4939,
      "对 。": 4940,
      "带 吗 ？": 4941,
      "带 我 去 ": 4942,
      "干净": 4943,
      "干 什么 ？": 4944,
      "度 ": 4945,
      "当 ": 4946,
      "忘记": 4947,
      "性格": 4948,
      "总共": 4949,
      "您 是 ": 4950,
      "戒指": 4951,
      "换成": 4952,
      "接线": 4953,
      "支 ": 4954,
      "文化": 4955,
      "早晨": 4956,
      "曾经": 4957,
      "机 的 ": 4958,
      "来 我 ": 4959,
      "查查": 4960,
      "楼 。": 4961,
      "海滩": 4962,
      "照 张 ": 4963,
      "用 这个 ": 4964,
      "病 。": 4965,
      "着 ": 4966,
      "箱 。": 4967,
      "而且": 4968,
      "舞厅": 4969,
      "虽然": 4970,
      "蛋糕": 4971,
      "街 。": 4972,
      "见 了 。": 4973,
      "见到 你 ": 4974,
      "语言": 4975,
      "购物": 4976,
      "路 上 ": 4977,
      "通常 ": 4978,
      "道 。": 4979,
      "都 有 ": 4980,
      "门 吗 ？": 4981,
      "霜 。": 4982,
      "鸡肉": 4983,
      " 的 ，": 4984,
      " 的 房间 吗 ？": 4985,
      "你 怎么 ": 4986,
      " 我 吗 ？": 4987,
      "是 个 ": 4988,
      " ， 也 不 ": 4989,
      " 是 在 ": 4990,
      " 是 很 ": 4991,
      "请 拿": 4992,
      "请 让 我 ": 4993,
      "请 把 它 ": 4994,
      " 你 想 ": 4995,
      " 你 就 ": 4996,
      "我 想 用 ": 4997,
      "我们 可以 ": 4998,
      " 很 有": 4999,
      " 很 美": 5000,
      " 了 ?": 5001,
      " 美国": 5002,
      " 一下 你 的 ": 5003,
      " 在 哪 ": 5004,
      " 上 吗 ？": 5005,
      " 我们 会 ": 5006,
      "航班 ": 5007,
      "航班 吗 ？": 5008,
      "学 汉语": 5009,
      "巴士 ？": 5010,
      "我 可以 要 ": 5011,
      "被 偷 了 。": 5012,
      "旅游 。": 5013,
      "饭店 。": 5014,
      "商店 ": 5015,
      "自己 的 ": 5016,
      "餐馆 。": 5017,
      "机场 。": 5018,
      " 一直 走": 5019,
      "请 给 我 来 杯 ": 5020,
      "请 给 我 拿 些 ": 5021,
      "见到 你 。": 5022,
      "到 日本 。": 5023,
      " 要 花 多 长 时间 ？": 5024,
      "aka": 5025,
      "办公室": 5026,
      " 2": 5027,
      " 主": 5028,
      " 变": 5029,
      " 火": 5030,
      " 博物馆": 5031,
      " 房间 的 ": 5032,
      "is": 5033,
      "一定": 5034,
      "一般": 5035,
      "上去 ": 5036,
      "为 我 ": 5037,
      "传真": 5038,
      "位子 。": 5039,
      "使馆": 5040,
      "使用 ": 5041,
      "停 在 ": 5042,
      "儿童": 5043,
      "元 。": 5044,
      "兩个 ": 5045,
      "八点": 5046,
      "写 ": 5047,
      "决定 。": 5048,
      "初学": 5049,
      "到达": 5050,
      "华盛": 5051,
      "单人": 5052,
      "发现": 5053,
      "叫 个 ": 5054,
      "台湾": 5055,
      "呀 ？": 5056,
      "哦 ": 5057,
      "图 。": 5058,
      "图 吗 ？": 5059,
      "土豆": 5060,
      "在 我 的 ": 5061,
      "处方": 5062,
      "姓名": 5063,
      "它 在 ": 5064,
      "安静": 5065,
      "寄到 ": 5066,
      "幸福": 5067,
      "怎么": 5068,
      "所 ": 5069,
      "打开": 5070,
      "找到": 5071,
      "是 ？": 5072,
      "歌剧": 5073,
      "步行": 5074,
      "永远": 5075,
      "汽车 。": 5076,
      "注意 ": 5077,
      "洗手 ": 5078,
      "派 ": 5079,
      "海鲜": 5080,
      "淋浴": 5081,
      "片 吗 ？": 5082,
      "环境": 5083,
      "申请": 5084,
      "真 不 ": 5085,
      "第几 ": 5086,
      "线 。": 5087,
      "翻译": 5088,
      "色 。": 5089,
      "要 我 ": 5090,
      "见面 。": 5091,
      "解决": 5092,
      "讨论": 5093,
      "话 吗 ？": 5094,
      "说 一 遍": 5095,
      "负责": 5096,
      "账户": 5097,
      "车厢": 5098,
      "车 的 ": 5099,
      "转 。": 5100,
      "过 了 。": 5101,
      "远 。": 5102,
      "那么": 5103,
      "都 不 ": 5104,
      "都 很 ": 5105,
      "金 。": 5106,
      "鞋 。": 5107,
      "首 ": 5108,
      "我 还 ": 5109,
      "我 每 天 ": 5110,
      "你 想": 5111,
      "你 给 我 ": 5112,
      "你 还 ": 5113,
      " ， 这 是 ": 5114,
      "请 您 ": 5115,
      "请 填写": 5116,
      " 你 ，": 5117,
      " 不 行": 5118,
      "我 想 买": 5119,
      " 一 辆 ": 5120,
      "给 我 一 ": 5121,
      "这 辆 ": 5122,
      "这 本 书": 5123,
      " 多 大": 5124,
      "把 它们 ": 5125,
      " 大学": 5126,
      "多 长 时间": 5127,
      "几 天 ": 5128,
      "星期五 ": 5129,
      "请 问 你 能 ": 5130,
      " 有 一 个 ": 5131,
      " 出 ": 5132,
      "五 分钟": 5133,
      "座位 吗 ？": 5134,
      "对 不 起 ， 我 ": 5135,
      "旅行 吗 ？": 5136,
      " 下车 。": 5137,
      "航空 邮件 ": 5138,
      "问题 吗 ？": 5139,
      " 打开": 5140,
      " 之 ": 5141,
      "学生 。": 5142,
      "学校 ": 5143,
      "结婚 ": 5144,
      "起飞 ？": 5145,
      "身体 ": 5146,
      "吃饭 。": 5147,
      " 对 吗 ？": 5148,
      "帮助 。": 5149,
      "受 欢迎": 5150,
      "我 想 订 ": 5151,
      "国家 的 ": 5152,
      "收据 。": 5153,
      " 左右 。": 5154,
      "拐角处": 5155,
      "位置 。": 5156,
      "游览 ": 5157,
      "华盛顿": 5158,
      " 日": 5159,
      " 电": 5160,
      " 长": 5161,
      " 说 ": 5162,
      " 需要 ": 5163,
      " 支付": 5164,
      " 节目": 5165,
      "15": 5166,
      "i 。": 5167,
      "or": 5168,
      "七十": 5169,
      "丈夫": 5170,
      "下班": 5171,
      "不 我 ": 5172,
      "书 吗 ？": 5173,
      "付 ": 5174,
      "位 ？": 5175,
      "何时 ": 5176,
      "信息": 5177,
      "允许": 5178,
      "出发": 5179,
      "别的 ": 5180,
      "刻 ": 5181,
      "单程": 5182,
      "原因": 5183,
      "双 人": 5184,
      "叫 我 ": 5185,
      "吃 ？": 5186,
      "咱们 ": 5187,
      "啊 ！": 5188,
      "好久": 5189,
      "家人 ": 5190,
      "宿舍": 5191,
      "对 ， ": 5192,
      "对 你 ": 5193,
      "尼亚": 5194,
      "展览": 5195,
      "工 ": 5196,
      "市区": 5197,
      "市中心": 5198,
      "座 ": 5199,
      "开胃": 5200,
      "开门 ？": 5201,
      "当作 ": 5202,
      "很多": 5203,
      "很多 。": 5204,
      "得 了 ": 5205,
      "懂 ": 5206,
      "拉斯": 5207,
      "接受": 5208,
      "收 ": 5209,
      "新闻": 5210,
      "机会 ": 5211,
      "条 。": 5212,
      "洲 ": 5213,
      "灯 ": 5214,
      "理 。": 5215,
      "番茄": 5216,
      "相机 ": 5217,
      "第五 ": 5218,
      "纸 。": 5219,
      "结帐": 5220,
      "绿 ": 5221,
      "肚子": 5222,
      "色拉": 5223,
      "色 的 。": 5224,
      "血 。": 5225,
      "表演": 5226,
      "西雅": 5227,
      "讲 ": 5228,
      "赔偿": 5229,
      "足够": 5230,
      "路 。": 5231,
      "那样": 5232,
      "食物": 5233,
      "：00 ": 5234,
      "我 非常 ": 5235,
      "我 昨天 ": 5236,
      "我 打算 ": 5237,
      "你 今天 ": 5238,
      "在 这儿 ": 5239,
      " ， 你们 ": 5240,
      " 是 一 个 ": 5241,
      " 在 这 ": 5242,
      " 这样 ": 5243,
      "我们 想要 ": 5244,
      " 一 周": 5245,
      " 一 件 ": 5246,
      " 了 很多 ": 5247,
      " 了 没有 ？": 5248,
      " 这 封": 5249,
      " 一下 这个 ": 5250,
      "喜欢 这个 ": 5251,
      " 大使馆": 5252,
      "我 的 手": 5253,
      "这 是 您 的 ": 5254,
      " ， 你 可以 ": 5255,
      "那 就 ": 5256,
      "东西 ？": 5257,
      "是 的 , ": 5258,
      " 过敏": 5259,
      "我们 是 ": 5260,
      "好 的 ，": 5261,
      "明天 早上 ": 5262,
      "应该 去 ": 5263,
      "旅游 吗 ？": 5264,
      "电影院": 5265,
      " 都 要 ": 5266,
      "这里 。": 5267,
      "明天 的 ": 5268,
      " 酒店 ": 5269,
      " 换成": 5270,
      "检查 ": 5271,
      "这 件 衣服": 5272,
      " 多久 了 ？": 5273,
      "日元 。": 5274,
      "波士顿 的 ": 5275,
      "其他 颜色": 5276,
      " 次 航班 。": 5277,
      "我 还 没 ": 5278,
      "参观 ": 5279,
      "葡萄酒 吗 ？": 5280,
      "女 朋友": 5281,
      "九十九 ": 5282,
      "千 块": 5283,
      "打 个 电话": 5284,
      "重新 发": 5285,
      "十字 路": 5286,
      "值得 一 ": 5287,
      "初学者": 5288,
      " 旁": 5289,
      " 晚": 5290,
      " 极": 5291,
      " 那": 5292,
      " 酒": 5293,
      " 香": 5294,
      " 三 ": 5295,
      " 那 个 ": 5296,
      " 做 ": 5297,
      " 然后 ": 5298,
      " 咖啡 。": 5299,
      "17": 5300,
      "Sa": 5301,
      "uki": 5302,
      "一点 ": 5303,
      "一下 。": 5304,
      "三百": 5305,
      "上 的 ": 5306,
      "严重": 5307,
      "之前 ": 5308,
      "也 要 ": 5309,
      "五十 美元": 5310,
      "付费": 5311,
      "修 ": 5312,
      "公寓": 5313,
      "六 个 ": 5314,
      "其它 的 ": 5315,
      "减价": 5316,
      "加油": 5317,
      "十点 ": 5318,
      "印象": 5319,
      "卷 ": 5320,
      "右边 ": 5321,
      "售票": 5322,
      "回去 ": 5323,
      "国人 ": 5324,
      "圣地": 5325,
      "坐 出租": 5326,
      "多谢": 5327,
      "多 大": 5328,
      "女孩": 5329,
      "奶酪": 5330,
      "好 了 。": 5331,
      "如何": 5332,
      "完成": 5333,
      "岁 ": 5334,
      "常常 ": 5335,
      "想 。": 5336,
      "或者": 5337,
      "拨 ": 5338,
      "按摩": 5339,
      "整 ": 5340,
      "新鲜": 5341,
      "方向": 5342,
      "有效": 5343,
      "有 我 的 ": 5344,
      "李 老师": 5345,
      "来 不 ": 5346,
      "标志": 5347,
      "栋 ": 5348,
      "根本": 5349,
      "格兰": 5350,
      "法国": 5351,
      "法国 ": 5352,
      "洗发": 5353,
      "消息": 5354,
      "熟 。": 5355,
      "牙齿": 5356,
      "特殊": 5357,
      "王兰": 5358,
      "留学": 5359,
      "病 了 。": 5360,
      "直 到 ": 5361,
      "笔 。": 5362,
      "米 ": 5363,
      "练习": 5364,
      "经验": 5365,
      "表格": 5366,
      "让 他 ": 5367,
      "设计": 5368,
      "课 。": 5369,
      "贵 公司 ": 5370,
      "这 不 ": 5371,
      "进去 ": 5372,
      "里 有 ": 5373,
      "销售": 5374,
      "问 ": 5375,
      "鞋 ": 5376,
      "顺利": 5377,
      "颗 ": 5378,
      "高 。": 5379,
      "鱼 。": 5380,
      "：00": 5381,
      "我 被 ": 5382,
      "我 只 ": 5383,
      "我 住 在 ": 5384,
      "我 会 在 ": 5385,
      " 的 药 。": 5386,
      "是 你 ": 5387,
      " ， 很 ": 5388,
      " 了解": 5389,
      "不 太 ": 5390,
      "不 用 ": 5391,
      "请 稍": 5392,
      "请 于 ": 5393,
      " 你 呢 ？": 5394,
      "我 想 知道": 5395,
      "我 想 把 这个 ": 5396,
      " 一 家 ": 5397,
      " 有 没 有 ": 5398,
      "这 次": 5399,
      "来 得 ": 5400,
      "他 说 ": 5401,
      " 多 了 。": 5402,
      "你 能 把 这个 ": 5403,
      " ， 我 就 ": 5404,
      " 一下 我 ": 5405,
      "我 要 找 ": 5406,
      "工作 ?": 5407,
      " 没有 。": 5408,
      "现在 在 ": 5409,
      "我 能 把 ": 5410,
      "月 三": 5411,
      "行李 ？": 5412,
      " 时间 。": 5413,
      "我们 。": 5414,
      "我们 一起 去 ": 5415,
      "对 不 起 , ": 5416,
      " 里 了 。": 5417,
      " 比较": 5418,
      " 不 了 。": 5419,
      "今晚 的 ": 5420,
      " 以前": 5421,
      "看看 你 的 ": 5422,
      "所以 我 ": 5423,
      "便宜 。": 5424,
      "便宜 的 ": 5425,
      "真的 吗 ？": 5426,
      " 左 拐 。": 5427,
      "休息 。": 5428,
      "北京 ": 5429,
      " 得 很 ": 5430,
      "妈妈 ": 5431,
      "你 想要 什么 ": 5432,
      "我 要 一 ": 5433,
      " 饭店 。": 5434,
      "吸烟区": 5435,
      " ， 有的 ": 5436,
      "什么 地方 ？": 5437,
      "合适 。": 5438,
      "科 舞厅": 5439,
      "身份证": 5440,
      "迪斯科 舞厅": 5441,
      " 古迹": 5442,
      "现在 的 ": 5443,
      "胡志明市": 5444,
      "贵 姓": 5445,
      "双 人 标准": 5446,
      " 代": 5447,
      " 总": 5448,
      " 才": 5449,
      " 机": 5450,
      " 条": 5451,
      " 玩": 5452,
      " 打 ": 5453,
      " 下 ": 5454,
      ", 我 ": 5455,
      "1 ": 5456,
      "su": 5457,
      "万 。": 5458,
      "不 ， ": 5459,
      "中 ": 5460,
      "主要 ": 5461,
      "乐 。": 5462,
      "九月 ": 5463,
      "五十 ": 5464,
      "产品 ": 5465,
      "人们 ": 5466,
      "从 这儿 ": 5467,
      "会儿": 5468,
      "但 我 ": 5469,
      "住 了 。": 5470,
      "借 我 ": 5471,
      "假期": 5472,
      "做 。": 5473,
      "做 ？": 5474,
      "关门 ？": 5475,
      "冰箱": 5476,
      "出 了 ": 5477,
      "到 ？": 5478,
      "前面": 5479,
      "南 无": 5480,
      "厕所": 5481,
      "各 ": 5482,
      "品 ？": 5483,
      "器 ": 5484,
      "回国": 5485,
      "回家 ": 5486,
      "在 吗 ？": 5487,
      "头痛": 5488,
      "头 和 ": 5489,
      "好 ， 我 ": 5490,
      "它 吗 ？": 5491,
      "安全 ": 5492,
      "密斯": 5493,
      "年级": 5494,
      "张 。": 5495,
      "形 ": 5496,
      "往前": 5497,
      "待 ": 5498,
      "得 很 ": 5499,
      "您 有 ": 5500,
      "慢 点": 5501,
      "房 ": 5502,
      "折扣": 5503,
      "报纸": 5504,
      "提供": 5505,
      "提前 ": 5506,
      "新年 ": 5507,
      "既 不 ": 5508,
      "日语 ": 5509,
      "明治": 5510,
      "春节": 5511,
      "来 你 ": 5512,
      "棒球": 5513,
      "橱窗": 5514,
      "比 我 ": 5515,
      "没事": 5516,
      "照 ": 5517,
      "爱好": 5518,
      "率 是 多少 ？": 5519,
      "球 。": 5520,
      "电梯": 5521,
      "登机 ": 5522,
      "看 一 ": 5523,
      "硬币 。": 5524,
      "确实": 5525,
      "租 ": 5526,
      "税 。": 5527,
      "站 ": 5528,
      "等 我 ": 5529,
      "类型 的 ": 5530,
      "纽约 ": 5531,
      "而 ": 5532,
      "节日": 5533,
      "英镑": 5534,
      "行 吗 ？": 5535,
      "街 ": 5536,
      "要 一 ": 5537,
      "语 。": 5538,
      "谁 的 ": 5539,
      "调味": 5540,
      "车祸": 5541,
      "车 了 。": 5542,
      "过去 ": 5543,
      "迟到 了 。": 5544,
      "那件 ": 5545,
      "那儿 。": 5546,
      "都 要 ": 5547,
      "量 ": 5548,
      "钞票 。": 5549,
      "错误": 5550,
      "锻炼": 5551,
      "间 吗 ？": 5552,
      "预算": 5553,
      "我 今天 ": 5554,
      "我 刚 ": 5555,
      "我 该 ": 5556,
      "我 找 不 ": 5557,
      " 的 男": 5558,
      " 的 桌子 。": 5559,
      "你 说 ": 5560,
      " ， 你 的 ": 5561,
      " ， 但是 我 ": 5562,
      "不 行": 5563,
      " 是 不 是 ": 5564,
      "能 不 能 ": 5565,
      "请 你们 ": 5566,
      "请 拿 ": 5567,
      "请 接 ": 5568,
      "请 给 我们 ": 5569,
      " 这 。": 5570,
      " 有 几 ": 5571,
      "给 我 的 ": 5572,
      " 好像": 5573,
      " 一 个 星期": 5574,
      " 美分": 5575,
      " 去 过 ": 5576,
      " 钱 了 。": 5577,
      "再 来 。": 5578,
      "时间 。": 5579,
      "太 晚": 5580,
      "日本人 ": 5581,
      "现在 是 ": 5582,
      "我 能 要 ": 5583,
      "哪 能 ": 5584,
      "给 她 ": 5585,
      "东西 吗 ？": 5586,
      " 上班": 5587,
      "我 不 想 ": 5588,
      " 公司 。": 5589,
      "一 个 人 ": 5590,
      "二十五": 5591,
      "二十 美元 的 ": 5592,
      "叫 辆 出租": 5593,
      "地方 ": 5594,
      " 就 会 ": 5595,
      "好 的 ， 我 ": 5596,
      "对 不 起 。": 5597,
      "真 可惜": 5598,
      "什么 时候 能 ": 5599,
      "能 给 我 些 ": 5600,
      " 小时": 5601,
      "拿 些 ": 5602,
      "打 电话 给 我 ": 5603,
      " 不错": 5604,
      "电影 。": 5605,
      "名字 和 ": 5606,
      "准备 ": 5607,
      "价格 。": 5608,
      "颜色 。": 5609,
      "没有 。": 5610,
      "认识 你 ": 5611,
      "起飞 。": 5612,
      " 做 的 ": 5613,
      "你 能 告诉 我 怎么 ": 5614,
      "请 给 我 来 些 ": 5615,
      "头发 ": 5616,
      "地图 吗 ？": 5617,
      "计划 ": 5618,
      "出租车 ": 5619,
      "一会儿 ": 5620,
      "容易 ": 5621,
      " 停 吗 ？": 5622,
      "上午 ": 5623,
      "现金 。": 5624,
      "我 想 租 ": 5625,
      "不错 的 ": 5626,
      " 不 舒服 。": 5627,
      "万 块 钱": 5628,
      " 的 费用 是 多少 ？": 5629,
      "one ": 5630,
      "不 好意思": 5631,
      "第二 个 ": 5632,
      "豪华 轿": 5633,
      " 最": 5634,
      " 花": 5635,
      " 送": 5636,
      " 非常 ": 5637,
      " 我们 的 ": 5638,
      " 是 吗 ？": 5639,
      " 就 是 ": 5640,
      " 费用": 5641,
      " 就 在 ": 5642,
      " 餐厅": 5643,
      "23": 5644,
      "25": 5645,
      "32": 5646,
      "Su": 5647,
      "ay": 5648,
      "一九": 5649,
      "三 号 ": 5650,
      "不得": 5651,
      "不管": 5652,
      "业务": 5653,
      "业 。": 5654,
      "中央": 5655,
      "丽 ": 5656,
      "之前": 5657,
      "书 ？": 5658,
      "事 ？": 5659,
      "从 这里 ": 5660,
      "付款": 5661,
      "价 。": 5662,
      "位子 ": 5663,
      "住址": 5664,
      "作 。": 5665,
      "你们 的 ": 5666,
      "供应": 5667,
      "俱乐": 5668,
      "停车": 5669,
      "六十": 5670,
      "决定": 5671,
      "出口": 5672,
      "出 。": 5673,
      "副 ": 5674,
      "努力 ": 5675,
      "化妆": 5676,
      "十 美分 。": 5677,
      "原谅": 5678,
      "原来 ": 5679,
      "去 了 ": 5680,
      "另 一 个 ": 5681,
      "可爱": 5682,
      "史密斯": 5683,
      "吃 什么 ": 5684,
      "喝 一 杯": 5685,
      "国家 。": 5686,
      "地 。": 5687,
      "外面": 5688,
      "外面 ": 5689,
      "大厅": 5690,
      "大学生": 5691,
      "好像": 5692,
      "工厂": 5693,
      "帐户": 5694,
      "店 ": 5695,
      "座 。": 5696,
      "或者 ": 5697,
      "打折": 5698,
      "担心 。": 5699,
      "接 你 。": 5700,
      "收拾": 5701,
      "明 。": 5702,
      "晚点": 5703,
      "有的 ": 5704,
      "来说": 5705,
      "根据": 5706,
      "没什么 ": 5707,
      "游 。": 5708,
      "玩笑": 5709,
      "理发": 5710,
      "目前": 5711,
      "目录": 5712,
      "直接 ": 5713,
      "相同": 5714,
      "相机": 5715,
      "真 不 好": 5716,
      "矿泉": 5717,
      "硬币": 5718,
      "确定 ": 5719,
      "礼品 ": 5720,
      "空 ": 5721,
      "站 。": 5722,
      "签证": 5723,
      "类 ": 5724,
      "约翰": 5725,
      "经过 ": 5726,
      "船 ": 5727,
      "芥末": 5728,
      "芽庄": 5729,
      "表 吗 ？": 5730,
      "词典": 5731,
      "课程": 5732,
      "费 是 多少 ？": 5733,
      "起来": 5734,
      "迈阿": 5735,
      "这个 。": 5736,
      "那边": 5737,
      "都 在 ": 5738,
      "都 很 好 。": 5739,
      "酒吧": 5740,
      "重要 ": 5741,
      "队 ": 5742,
      "队 。": 5743,
      "院 。": 5744,
      "除了": 5745,
      "随时 ": 5746,
      "预定": 5747,
      "风 。": 5748,
      "高尔夫": 5749,
      "我 没": 5750,
      "我 和 ": 5751,
      "我 说 ": 5752,
      "我 把 我 的 ": 5753,
      " 的 小": 5754,
      " 的 一 个 ": 5755,
      "你 得 ": 5756,
      "你 不 能 ": 5757,
      "你 认为 ": 5758,
      " ， 再 ": 5759,
      " 一千": 5760,
      " 一定 ": 5761,
      "不 客气": 5762,
      "要 去 ": 5763,
      "能 在 ": 5764,
      "能 帮 我 ": 5765,
      "请 别 ": 5766,
      " 你 是 ": 5767,
      " 你 有 ": 5768,
      " 这些": 5769,
      " 不 行 。": 5770,
      "我 想 寄": 5771,
      " 一 个 。": 5772,
      "很 忙": 5773,
      "很 好 的 ": 5774,
      "这 附近": 5775,
      " 好 了 吗 ？": 5776,
      " 很 久": 5777,
      " 很 有 ": 5778,
      "就 去 ": 5779,
      "这个 是 ": 5780,
      "这个 星期": 5781,
      " 一下 好 吗 ？": 5782,
      " 在 哪儿": 5783,
      " 公里 。": 5784,
      "房间 ？": 5785,
      " 还 有": 5786,
      "太 贵 了 。": 5787,
      "我 的 车": 5788,
      "请 给 我 看看 ": 5789,
      "几 点 ？": 5790,
      "车 到 ": 5791,
      "今天 早上 ": 5792,
      "给 我 。": 5793,
      "家 里 ": 5794,
      "两 天 ": 5795,
      "两 张 去 ": 5796,
      " 上午": 5797,
      "我 不 喜欢 ": 5798,
      "他们 在 ": 5799,
      " 出发": 5800,
      " 时间 ": 5801,
      "航班 的 ": 5802,
      "没有 人 ": 5803,
      " 就 行": 5804,
      "好 的 , ": 5805,
      "下 次": 5806,
      "我 是 个 ": 5807,
      "明天 晚上 ": 5808,
      "我 在 哪里 能 ": 5809,
      "能 给 我 拿": 5810,
      "巴士 ": 5811,
      "最 喜欢": 5812,
      " 里 吗 ？": 5813,
      " 没 见": 5814,
      " 一点 吗 ？": 5815,
      " 一点儿 ": 5816,
      " 以外": 5817,
      "喝 咖啡": 5818,
      " 中文": 5819,
      "名字 。": 5820,
      "所以 ": 5821,
      "明天 有 ": 5822,
      " 之前 ": 5823,
      "老师 。": 5824,
      "马上 就 ": 5825,
      "城市 的 ": 5826,
      " 给 我 。": 5827,
      "英语 吗 ？": 5828,
      "信用卡 ": 5829,
      "保险 吗 ？": 5830,
      "越 币": 5831,
      "联系 。": 5832,
      "纪念品 。": 5833,
      "沿着 ": 5834,
      "桌子 谢谢 。": 5835,
      " 一定 会 ": 5836,
      " 比赛 。": 5837,
      "芝加哥 的 ": 5838,
      "方便 。": 5839,
      "和 我 一起 ": 5840,
      "顺便 问": 5841,
      "厉害 。": 5842,
      " 过敏 。": 5843,
      "迈阿密": 5844,
      " ”": 5845,
      " 又": 5846,
      " 找": 5847,
      " 球": 5848,
      " 老": 5849,
      " 面": 5850,
      " 把 ": 5851,
      " 加 ": 5852,
      " 、 ": 5853,
      " 汉堡": 5854,
      "zuki": 5855,
      "“ ": 5856,
      "上 有 ": 5857,
      "中文 ": 5858,
      "买 什么 ": 5859,
      "人 在 ": 5860,
      "付帐": 5861,
      "会员": 5862,
      "六 号 ": 5863,
      "六点半": 5864,
      "关于": 5865,
      "几号 ": 5866,
      "到 这 ": 5867,
      "办 ": 5868,
      "办理 ": 5869,
      "加拿": 5870,
      "十二 ": 5871,
      "单独": 5872,
      "单 吗 ？": 5873,
      "去年 ": 5874,
      "台 。": 5875,
      "名胜": 5876,
      "呀 ， ": 5877,
      "哦 ， 我 ": 5878,
      "哪个 ": 5879,
      "啊 。": 5880,
      "啦 ？": 5881,
      "喂 ， 是 ": 5882,
      "回家": 5883,
      "回来": 5884,
      "在 。": 5885,
      "天 ， ": 5886,
      "太太": 5887,
      "头疼": 5888,
      "夹克": 5889,
      "好好 ": 5890,
      "婚礼": 5891,
      "实际": 5892,
      "客 。": 5893,
      "家 在 ": 5894,
      "小 的 ": 5895,
      "尽管": 5896,
      "层 ？": 5897,
      "差不": 5898,
      "市场": 5899,
      "年纪": 5900,
      "年 了 。": 5901,
      "幸亏": 5902,
      "广播": 5903,
      "开到 ": 5904,
      "式 的 ": 5905,
      "怎样 ": 5906,
      "想 我 ": 5907,
      "懂 吗 ？": 5908,
      "换 个 ": 5909,
      "接通": 5910,
      "推迟": 5911,
      "搬到 ": 5912,
      "摄影": 5913,
      "放弃": 5914,
      "昨天": 5915,
      "晚点 ": 5916,
      "月 的 ": 5917,
      "有些 ": 5918,
      "有点儿 ": 5919,
      "柠檬": 5920,
      "样子": 5921,
      "橙汁": 5922,
      "款 ": 5923,
      "气候": 5924,
      "气温": 5925,
      "海运": 5926,
      "满 了 。": 5927,
      "烤鸭": 5928,
      "热狗": 5929,
      "照顾": 5930,
      "照片 。": 5931,
      "王 ": 5932,
      "玩具": 5933,
      "生 。": 5934,
      "生意 ": 5935,
      "用 的 ": 5936,
      "申请 ": 5937,
      "电报": 5938,
      "留 在 ": 5939,
      "盒 ": 5940,
      "看来 ": 5941,
      "看下 ": 5942,
      "短 。": 5943,
      "离开 ": 5944,
      "究竟": 5945,
      "等候": 5946,
      "签名 。": 5947,
      "简直": 5948,
      "约会 。": 5949,
      "肉 。": 5950,
      "肯定 ": 5951,
      "胡椒": 5952,
      "能 。": 5953,
      "自行": 5954,
      "自由 ": 5955,
      "舍 不 ": 5956,
      "船 。": 5957,
      "花 。": 5958,
      "街道": 5959,
      "规定": 5960,
      "订购": 5961,
      "话 ， ": 5962,
      "调查": 5963,
      "货 。": 5964,
      "费 吗 ？": 5965,
      "走 吗 ？": 5966,
      "趟 去 ": 5967,
      "远 ， ": 5968,
      "送 我 ": 5969,
      "选 ": 5970,
      "那样 ": 5971,
      "院 ": 5972,
      "难 ": 5973,
      "饭后 ": 5974,
      "饱 了 。": 5975,
      "香水": 5976,
      "香港": 5977,
      "高速": 5978,
      "我 也": 5979,
      "我 买": 5980,
      "我 对": 5981,
      "我 坐 ": 5982,
      "我 明白": 5983,
      "我 母亲": 5984,
      " 的 药 吗 ？": 5985,
      "你 好 ": 5986,
      "你 从 ": 5987,
      "你 准备": 5988,
      "你 打算 ": 5989,
      "你 姐姐": 5990,
      " 我 该": 5991,
      " 我 是 ": 5992,
      " 我 有 ": 5993,
      " ， 而且": 5994,
      "不 要": 5995,
      " 是 吧 ？": 5996,
      "请 告诉": 5997,
      "请 来 个 ": 5998,
      " 在 这里 ": 5999,
      " 这样 的 ": 6000,
      "我 想 取消": 6001,
      "我们 不 ": 6002,
      "我们 对 ": 6003,
      " 一 家": 6004,
      "这 边 ": 6005,
      " 你们 。": 6006,
      " 很 不错 。": 6007,
      "点 什么 ？": 6008,
      " 多 大 ": 6009,
      "你 能 把 我 的 ": 6010,
      " ， 我 想 ": 6011,
      " 这 本 书": 6012,
      " 一下儿 ": 6013,
      "一 种 ": 6014,
      " 怎样 ": 6015,
      "几 点": 6016,
      "如果 是 ": 6017,
      "打 领": 6018,
      " 上 了 。": 6019,
      " 出去 ": 6020,
      " 出来 。": 6021,
      "地方 。": 6022,
      "地方 吗 ？": 6023,
      "怎么 办 ？": 6024,
      "能 给 我 拿 个 ": 6025,
      "开始 。": 6026,
      " 下午": 6027,
      "咖啡 吗 ？": 6028,
      "为什么 你 ": 6029,
      "公司 工作": 6030,
      "喝 茶": 6031,
      "服务员": 6032,
      "服务 。": 6033,
      "东京 。": 6034,
      "明天 我 ": 6035,
      "老师 ": 6036,
      "你 在 哪儿 ": 6037,
      "带 浴室": 6038,
      "餐馆 ": 6039,
      "学生 ": 6040,
      "颜色 ？": 6041,
      "预约 吗 ？": 6042,
      "最 好 ？": 6043,
      "更 喜欢 ": 6044,
      "保险箱": 6045,
      "适合 我 。": 6046,
      "起来 很 ": 6047,
      "机场 的 ": 6048,
      "检查 。": 6049,
      "事情 。": 6050,
      "医院 。": 6051,
      " 他 。": 6052,
      "十五 分钟": 6053,
      " 这里 的 ": 6054,
      "你 看 ， ": 6055,
      "太 好 了 。": 6056,
      "清楚 。": 6057,
      "游泳池": 6058,
      " 不 好 ？": 6059,
      " 的话 ， ": 6060,
      "非常 好 。": 6061,
      "健康 ": 6062,
      "菜单 吗 ？": 6063,
      "免税 商店": 6064,
      "最后 一 ": 6065,
      "日本 航空 公司 的 ": 6066,
      "手提箱": 6067,
      "请问 ， ": 6068,
      "靠 窗户": 6069,
      "我 想 买 些 ": 6070,
      "沿着 这 条 街": 6071,
      "飞往 东京 的 ": 6072,
      "567": 6073,
      "关 申报": 6074,
      "越来越 ": 6075,
      "Suzuki": 6076,
      " 张": 6077,
      " 收": 6078,
      " 生": 6079,
      " 订": 6080,
      " 通": 6081,
      " 它 ": 6082,
      " 您 的 ": 6083,
      " 住 在 ": 6084,
      " 但是 我 ": 6085,
      " 跟 ": 6086,
      " 才 ": 6087,
      " 真的 很 ": 6088,
      " 内 ": 6089,
      " 情况": 6090,
      "30 ": 6091,
      "50": 6092,
      "at": 6093,
      "aw": 6094,
      "es": 6095,
      "一定 ": 6096,
      "上 了 。": 6097,
      "上面 ": 6098,
      "下 一 个 ": 6099,
      "不过 ": 6100,
      "东 ": 6101,
      "丢失": 6102,
      "买 的 ": 6103,
      "五 美元": 6104,
      "五 号 ": 6105,
      "亚哥": 6106,
      "他们 的 ": 6107,
      "以 ": 6108,
      "以外": 6109,
      "会 有 ": 6110,
      "传统": 6111,
      "位 是 ": 6112,
      "作为": 6113,
      "保持": 6114,
      "保管": 6115,
      "假 ": 6116,
      "儿 ， ": 6117,
      "兄弟": 6118,
      "入境": 6119,
      "兩 ": 6120,
      "八点钟": 6121,
      "六点钟": 6122,
      "写 下": 6123,
      "冰激": 6124,
      "冲浪": 6125,
      "分 的 ": 6126,
      "刚才": 6127,
      "利息": 6128,
      "别人 ": 6129,
      "别 的 吗 ？": 6130,
      "剂 。": 6131,
      "努力": 6132,
      "区 ": 6133,
      "单 ": 6134,
      "发型 ": 6135,
      "取 。": 6136,
      "口袋": 6137,
      "可 不 ": 6138,
      "吃 吗 ？": 6139,
      "后面": 6140,
      "向右": 6141,
      "向 你 ": 6142,
      "和 我 的 ": 6143,
      "品 的 ": 6144,
      "啊 ？": 6145,
      "圆珠": 6146,
      "城镇": 6147,
      "处 。": 6148,
      "外语": 6149,
      "夫人 。": 6150,
      "失物 ": 6151,
      "妻子": 6152,
      "封 信": 6153,
      "小孩": 6154,
      "小心 ": 6155,
      "属 ": 6156,
      "巾 。": 6157,
      "布朗": 6158,
      "带 你 去 ": 6159,
      "平安": 6160,
      "开 的 ": 6161,
      "强 ": 6162,
      "录音": 6163,
      "彩色 ": 6164,
      "房子": 6165,
      "打到 ": 6166,
      "报警": 6167,
      "招待": 6168,
      "按 ": 6169,
      "搬运": 6170,
      "摩托": 6171,
      "支票 ": 6172,
      "教 ": 6173,
      "无论": 6174,
      "早饭": 6175,
      "早点 ": 6176,
      "早日 ": 6177,
      "有趣": 6178,
      "望 ": 6179,
      "机票 。": 6180,
      "来 的 ？": 6181,
      "洗澡": 6182,
      "海 ": 6183,
      "清淡": 6184,
      "游 吗 ？": 6185,
      "演奏": 6186,
      "演 什么 ？": 6187,
      "潜水 ": 6188,
      "火腿": 6189,
      "点 的 。": 6190,
      "热闹": 6191,
      "特别 的 ": 6192,
      "玩 的 ": 6193,
      "用 了 。": 6194,
      "直 着": 6195,
      "看见": 6196,
      "看 你 ": 6197,
      "票 多少 钱 ？": 6198,
      "禁止": 6199,
      "私人 ": 6200,
      "等 。": 6201,
      "等 一 ": 6202,
      "管理": 6203,
      "箱子 ": 6204,
      "紧急": 6205,
      "紧 。": 6206,
      "线路 吗 ？": 6207,
      "终于 ": 6208,
      "肚子 ": 6209,
      "蓝色 的 ": 6210,
      "蔬菜": 6211,
      "衫 。": 6212,
      "要 的 ": 6213,
      "说明": 6214,
      "说 一下": 6215,
      "说 什么 ": 6216,
      "责任": 6217,
      "账单": 6218,
      "跟 他 ": 6219,
      "转告": 6220,
      "近 ": 6221,
      "这 有 ": 6222,
      "这样 的 ": 6223,
      "这儿 。": 6224,
      "连 ": 6225,
      "送 你 ": 6226,
      "通常": 6227,
      "遇到 ": 6228,
      "邮件 ": 6229,
      "部 的 ": 6230,
      "间 的 ": 6231,
      "隔壁": 6232,
      "雨 。": 6233,
      "顺便": 6234,
      "顿 ": 6235,
      "首先": 6236,
      "香烟": 6237,
      "驾照": 6238,
      "我 打": 6239,
      "我 准备": 6240,
      "我 认为": 6241,
      "我 父亲": 6242,
      "我 认为 ": 6243,
      "我 听 说 ": 6244,
      "我 必须 要 ": 6245,
      " 的 事": 6246,
      " 的 那 ": 6247,
      " 的 车 。": 6248,
      " 的 号码": 6249,
      " 的 时间 ": 6250,
      "你 真 ": 6251,
      "你 住 在 ": 6252,
      "你 认为": 6253,
      "你 最 喜欢 ": 6254,
      " 我 一 ": 6255,
      " ， 就": 6256,
      " ， 她 ": 6257,
      " 一九": 6258,
      " 是 怎么 ": 6259,
      "请 随": 6260,
      "请 把 我 的 ": 6261,
      "想 吃 ": 6262,
      " 你 的 。": 6263,
      " 不 知道 ": 6264,
      "我们 现在 ": 6265,
      " 一 点 的 吗 ？": 6266,
      "很 忙 。": 6267,
      "可以 了 。": 6268,
      "这 间 ": 6269,
      " 好看": 6270,
      "会 给 你 ": 6271,
      " 很 大": 6272,
      " 很 好 ， ": 6273,
      " 和 电话 号码": 6274,
      "这个 房间": 6275,
      " 了 两 个 ": 6276,
      " ， 我 去 ": 6277,
      " 一 个 人 ": 6278,
      " 美丽": 6279,
      " 这 附近 有 ": 6280,
      "喜欢 。": 6281,
      " 大 。": 6282,
      " 大 的 ": 6283,
      "知道 你 ": 6284,
      " 还 没有 ": 6285,
      "张 二十 美元 的 ": 6286,
      "请 给 我 些 ": 6287,
      "这 是 什么 ": 6288,
      "哪 国": 6289,
      "今天 天气": 6290,
      "给 您": 6291,
      "星期天 ": 6292,
      " 号 的 ": 6293,
      "如果 你们 ": 6294,
      "我 不 明白": 6295,
      " 我们 去 ": 6296,
      " 公司 工作": 6297,
      "买 东西": 6298,
      "买 东西 。": 6299,
      "二十四": 6300,
      " 就 要 ": 6301,
      "请 你 给 我 ": 6302,
      "请 你 把 ": 6303,
      " 走 了 。": 6304,
      "多少 ？": 6305,
      "每 次 ": 6306,
      "明天 下午": 6307,
      "学 汉语 ": 6308,
      " 小王": 6309,
      "两 个 人 的 ": 6310,
      "预订 吗 ？": 6311,
      "把 它 放 在 ": 6312,
      "喝 酒": 6313,
      "商店 。": 6314,
      " 中心": 6315,
      "这里 是 ": 6316,
      " 人员": 6317,
      "觉得 很 ": 6318,
      " 号码 是 ": 6319,
      "行李 放 在 ": 6320,
      "音乐 。": 6321,
      "城市 。": 6322,
      " 是 什么 意思 ？": 6323,
      "但是 我 想 ": 6324,
      "可能 会 ": 6325,
      " 不 是 很 ": 6326,
      "中国人 。": 6327,
      "没有 ， 我 ": 6328,
      "认识 您": 6329,
      "事情 ": 6330,
      "舒服 。": 6331,
      "三 个 月 ": 6332,
      "可 乐 。": 6333,
      "我 要 一 个 ": 6334,
      "什么 时候 ？": 6335,
      "上班 。": 6336,
      "地图 上 ": 6337,
      "我 觉得 你 ": 6338,
      " 而已": 6339,
      " 而且 ": 6340,
      "导游 吗 ？": 6341,
      "经商 吗 ？": 6342,
      "旅馆 。": 6343,
      " 一 次 。": 6344,
      " 要 花 多少 钱 ？": 6345,
      "旧金山 的 ": 6346,
      "你 能 推荐 一 个 ": 6347,
      "优惠 吗 ？": 6348,
      "晚餐 。": 6349,
      "选择 ": 6350,
      "听说 你 ": 6351,
      "建议 你 ": 6352,
      "成功 。": 6353,
      "能 给 我 拿 些 ": 6354,
      "特色菜": 6355,
      "生日 快乐": 6356,
      " 一些 。": 6357,
      " 一些 吗 ？": 6358,
      "质量 ": 6359,
      "里面 有 ": 6360,
      " 啊 。": 6361,
      " 啊 ！": 6362,
      " 的 巴士 吗 ？": 6363,
      " ， 所以 ": 6364,
      "公共 汽车站": 6365,
      "很 高兴 ": 6366,
      " 广场": 6367,
      "ashi": 6368,
      "和 我 一起": 6369,
      "家庭 ": 6370,
      " 有 多 远 ？": 6371,
      " 到 日本 。": 6372,
      "太 大 了 。": 6373,
      "实在 是 ": 6374,
      "明信片": 6375,
      " 的 生日 。": 6376,
      " 之 旅": 6377,
      "西雅图": 6378,
      "Sato": 6379,
      "圣地亚哥": 6380,
      "中央 公园": 6381,
      " 5": 6382,
      " 就": 6383,
      " 底": 6384,
      " 汤": 6385,
      " 皮": 6386,
      " 递": 6387,
      " 已经": 6388,
      " 让 我 ": 6389,
      " 正在 ": 6390,
      " 航班 。": 6391,
      " 信用卡": 6392,
      " 鸡蛋": 6393,
      "02": 6394,
      "28": 6395,
      "9 。": 6396,
      "Mi": 6397,
      "Shi": 6398,
      "T ": 6399,
      "X ": 6400,
      "om": 6401,
      "shi": 6402,
      "一起 ": 6403,
      "七点半": 6404,
      "万事": 6405,
      "三十 分钟": 6406,
      "上 吗 ？": 6407,
      "下 吗 ？": 6408,
      "下 你 的 ": 6409,
      "两万": 6410,
      "为了": 6411,
      "主意": 6412,
      "乘坐 ": 6413,
      "买 的 ？": 6414,
      "五点 ": 6415,
      "五十 美元 的 ": 6416,
      "人 不 ": 6417,
      "件 ？": 6418,
      "住 的 ": 6419,
      "何况": 6420,
      "使 我 ": 6421,
      "信封": 6422,
      "信号 ": 6423,
      "做好 。": 6424,
      "做 的 ？": 6425,
      "像 。": 6426,
      "像 吗 ？": 6427,
      "光 有 ": 6428,
      "关于 ": 6429,
      "具体": 6430,
      "再 要 ": 6431,
      "农村": 6432,
      "决定 ": 6433,
      "出去": 6434,
      "利亚": 6435,
      "利福": 6436,
      "到 这里 ": 6437,
      "办事": 6438,
      "办 。": 6439,
      "加斯": 6440,
      "包厢": 6441,
      "区 。": 6442,
      "区 的 ": 6443,
      "卖 吗 ？": 6444,
      "卡 吗 ？": 6445,
      "友谊": 6446,
      "发动": 6447,
      "发音": 6448,
      "受伤": 6449,
      "右边 。": 6450,
      "司机 ": 6451,
      "吃午": 6452,
      "各位 ": 6453,
      "同 ": 6454,
      "含 ": 6455,
      "听 。": 6456,
      "呆 在 ": 6457,
      "呢 ?": 6458,
      "啦 ， ": 6459,
      "喂 ， ": 6460,
      "国庆": 6461,
      "坐 公共 ": 6462,
      "培训": 6463,
      "士 ": 6464,
      "夏威": 6465,
      "外语 ": 6466,
      "大叻": 6467,
      "大学": 6468,
      "大家": 6469,
      "头痛 。": 6470,
      "奶油": 6471,
      "好看": 6472,
      "姐妹": 6473,
      "姓 什么 ？": 6474,
      "学好 ": 6475,
      "它们": 6476,
      "客户": 6477,
      "寄 这个 ": 6478,
      "小张 ": 6479,
      "州 ": 6480,
      "工程": 6481,
      "左边 。": 6482,
      "师 。": 6483,
      "带来": 6484,
      "开心 。": 6485,
      "必要 ": 6486,
      "快 要 ": 6487,
      "情 ": 6488,
      "愿意": 6489,
      "慢慢": 6490,
      "房 吗 ？": 6491,
      "手 。": 6492,
      "指出": 6493,
      "换 钱": 6494,
      "支持": 6495,
      "收到 ": 6496,
      "政 ": 6497,
      "故乡": 6498,
      "救护": 6499,
      "数 ": 6500,
      "斤 ": 6501,
      "无法 ": 6502,
      "日文": 6503,
      "明 ": 6504,
      "明年": 6505,
      "是 ， 我 ": 6506,
      "最好": 6507,
      "最好 ": 6508,
      "有点": 6509,
      "期 的 ": 6510,
      "本来 ": 6511,
      "机会 。": 6512,
      "架子 ": 6513,
      "楼梯": 6514,
      "正确": 6515,
      "步 。": 6516,
      "气 ": 6517,
      "流行 。": 6518,
      "火车 。": 6519,
      "灯 。": 6520,
      "热 ": 6521,
      "牌 。": 6522,
      "用 吗 ？": 6523,
      "用 的 。": 6524,
      "用 什么 ": 6525,
      "田 ": 6526,
      "画 个 ": 6527,
      "留下 ": 6528,
      "白色 的 ": 6529,
      "盒子 ": 6530,
      "相机 。": 6531,
      "看见 ": 6532,
      "码 ": 6533,
      "祝 ": 6534,
      "笔记": 6535,
      "笔 吗 ？": 6536,
      "等 一下": 6537,
      "答应": 6538,
      "箱子 。": 6539,
      "糖 。": 6540,
      "糟糕": 6541,
      "给 这个 ": 6542,
      "给 你 的 ": 6543,
      "耐克": 6544,
      "肉 ": 6545,
      "自助": 6546,
      "英文": 6547,
      "药 ？": 6548,
      "菩萨": 6549,
      "薪水": 6550,
      "虽然 ": 6551,
      "蛋 。": 6552,
      "衣 。": 6553,
      "要 一 个 ": 6554,
      "订 个 ": 6555,
      "诊断": 6556,
      "请坐 。": 6557,
      "购物 ": 6558,
      "费 ": 6559,
      "费用 ": 6560,
      "轨道": 6561,
      "辛苦": 6562,
      "迷路": 6563,
      "那里": 6564,
      "那边 。": 6565,
      "都 没 ": 6566,
      "重 ？": 6567,
      "钓 鱼": 6568,
      "错过": 6569,
      "长 。": 6570,
      "限制": 6571,
      "随身 ": 6572,
      "靠 过": 6573,
      "顶 ": 6574,
      "额外": 6575,
      "风 ": 6576,
      "餐 。": 6577,
      "黑色 的 ": 6578,
      "： ": 6579,
      "：30 ": 6580,
      "我 已经": 6581,
      "我 必须 ": 6582,
      "我 只 是 ": 6583,
      " 的 车": 6584,
      " 的 谢谢 。": 6585,
      " 的 那 个 ": 6586,
      " 的 往返 ": 6587,
      "你 住": 6588,
      "你 几 点 ": 6589,
      " 我 应该 ": 6590,
      "是 的 。": 6591,
      "在 第": 6592,
      " ， 又": 6593,
      " ， 您 ": 6594,
      " ， 他们 ": 6595,
      " ， 叫 ": 6596,
      " 了 这个 ": 6597,
      " 一样 ": 6598,
      "有 很多 ": 6599,
      " 是 一": 6600,
      " 是 去 ": 6601,
      " 是 从 ": 6602,
      " 是 在 这个 ": 6603,
      "能 告诉 我 ": 6604,
      "能 看到 ": 6605,
      "请 到 ": 6606,
      "请 用 ": 6607,
      "请 叫 ": 6608,
      "请 把 你 的 ": 6609,
      " 你 有 什么 ": 6610,
      " 在 上": 6611,
      " 这个": 6612,
      " 这里 。": 6613,
      " 不 着": 6614,
      "我 想 看 ": 6615,
      "我 想 把 我 的 ": 6616,
      "我 想 预约 ": 6617,
      "我 想 预订 ": 6618,
      "我们 到 ": 6619,
      "我们 没有 ": 6620,
      " 一 条 ": 6621,
      " 一 位 ": 6622,
      " 一 个 吗 ？": 6623,
      "给 我 吗 ？": 6624,
      "这 家 ": 6625,
      "来 拿": 6626,
      "来 接": 6627,
      " 你们": 6628,
      "点 东西 。": 6629,
      "就 能 ": 6630,
      " 我 的 行李 。": 6631,
      "你 能 修": 6632,
      "你 能 在 这 ": 6633,
      "这个 周末": 6634,
      " , 我 想 ": 6635,
      "谢谢 你们 ": 6636,
      " 大学 。": 6637,
      " 什么 工作 ？": 6638,
      " 美元 吗 ？": 6639,
      "再 打": 6640,
      " 还 要 ": 6641,
      " 还 没 ": 6642,
      "太 热": 6643,
      "日本 大使馆": 6644,
      "这 是 个 ": 6645,
      " 没有": 6646,
      "几 岁": 6647,
      "几 月 ": 6648,
      "那 种 ": 6649,
      "我 能 用 ": 6650,
      " 吧 ， ": 6651,
      "两 点 ": 6652,
      "打 网球": 6653,
      "是 的 我 ": 6654,
      "月 、 ": 6655,
      " 有效": 6656,
      " 有点儿 ": 6657,
      "二十 美元 。": 6658,
      "先生 ， ": 6659,
      "朋友 的 ": 6660,
      "怎么 去 ": 6661,
      "吃 午餐": 6662,
      "下 周": 6663,
      "真 抱歉": 6664,
      "给 你 回": 6665,
      "每 周": 6666,
      "附近 的 ": 6667,
      "十 岁": 6668,
      "十 张 ": 6669,
      " 小时 ": 6670,
      "打 电话 吗 ？": 6671,
      "咖啡店": 6672,
      "这里 能 ": 6673,
      "我 会 给 你 ": 6674,
      "您 的 房间": 6675,
      "小 李": 6676,
      "电影 ": 6677,
      "电影 ？": 6678,
      "电影 吗 ？": 6679,
      " 得 太 ": 6680,
      "商店 吗 ？": 6681,
      " 什么 时候 开始 ？": 6682,
      " 什么 时候 起飞 ？": 6683,
      " 好 吗 ?": 6684,
      " 都 有 ": 6685,
      "学习 。": 6686,
      "学习 ？": 6687,
      " ， 我们 去 ": 6688,
      "老师 的 ": 6689,
      "你 在 哪 ": 6690,
      " 酒店 吗 ？": 6691,
      " 来 吗 ？": 6692,
      "他 是 个 ": 6693,
      "结婚 。": 6694,
      "钥匙 吗 ？": 6695,
      "晚上 。": 6696,
      "适合 你 。": 6697,
      "汉语 。": 6698,
      " 我 一定": 6699,
      " 这 条 路": 6700,
      "博物馆 。": 6701,
      "把 这 张 ": 6702,
      "包括 税": 6703,
      "生日 是 ": 6704,
      "经理 。": 6705,
      "这儿 有 ": 6706,
      "经济 ": 6707,
      "因为 我 ": 6708,
      " 是 个 好 ": 6709,
      "爸爸 ， ": 6710,
      "我 想 要 一 件 ": 6711,
      "帐单 。": 6712,
      "红 葡萄酒 。": 6713,
      "不同 ": 6714,
      " ， 一边 ": 6715,
      " 表演": 6716,
      " 在 哪儿 ?": 6717,
      "感冒 了 。": 6718,
      "看 电影 。": 6719,
      "第一 次 来 ": 6720,
      "产品 的 ": 6721,
      "昨晚 ": 6722,
      "离开 。": 6723,
      "日本 航空 公司 ": 6724,
      " 怎么样 ?": 6725,
      "从 这 到 ": 6726,
      "出差 。": 6727,
      "是否 ": 6728,
      "联合 航空": 6729,
      "ada 。": 6730,
      "请进 。": 6731,
      "靠 窗": 6732,
      "哪 条 路": 6733,
      "对 我 来说 ": 6734,
      "如此 。": 6735,
      "等一会儿": 6736,
      "一直 走": 6737,
      "从来 没 ": 6738,
      "炸 薯": 6739,
      "你 最 好 ": 6740,
      "国际 长途 。": 6741,
      "事实 上": 6742,
      "干净 。": 6743,
      "接线员 。": 6744,
      "文化 ": 6745,
      "我 可以 要 些 ": 6746,
      "儿童 ": 6747,
      "洗手 间": 6748,
      "首 歌": 6749,
      "讲 日语 的 ": 6750,
      "名胜 古迹": 6751,
      "胡椒粉": 6752,
      " 多 大 年纪": 6753,
      "利福尼亚": 6754,
      "夏威夷": 6755,
      "靠 过道": 6756,
      " 交": 6757,
      " 传": 6758,
      " 单": 6759,
      " 嘛": 6760,
      " 弄": 6761,
      " 活": 6762,
      " 行": 6763,
      " 今天 ": 6764,
      " 坐 ": 6765,
      " 为 ": 6766,
      " 边 。": 6767,
      " 起来 ": 6768,
      " 看看 。": 6769,
      " 旅行 。": 6770,
      " 吗 谢谢 ？": 6771,
      " 沙拉": 6772,
      " 如何": 6773,
      "14": 6774,
      "3 ": 6775,
      "33": 6776,
      "35": 6777,
      "65": 6778,
      "90": 6779,
      "98": 6780,
      "B ": 6781,
      "i ": 6782,
      "ku": 6783,
      "ob": 6784,
      "一共 ": 6785,
      "上 个 ": 6786,
      "下车 。": 6787,
      "不 。": 6788,
      "业余": 6789,
      "乐园": 6790,
      "乘客": 6791,
      "九 ": 6792,
      "买 。": 6793,
      "五百": 6794,
      "五月 ": 6795,
      "人 了 。": 6796,
      "仔裤": 6797,
      "代 ": 6798,
      "以为 ": 6799,
      "件 吗 ？": 6800,
      "任务": 6801,
      "会计": 6802,
      "会 的 ": 6803,
      "会 ， 我 ": 6804,
      "会 不 会 ": 6805,
      "伯父": 6806,
      "住 。": 6807,
      "作为 ": 6808,
      "保存": 6809,
      "像是 ": 6810,
      "兩张 ": 6811,
      "八十": 6812,
      "八 个 ": 6813,
      "其它 ": 6814,
      "内容": 6815,
      "几点 ？": 6816,
      "分开 ": 6817,
      "到 一 个 ": 6818,
      "制造": 6819,
      "前面 的 ": 6820,
      "剧 。": 6821,
      "劳驾": 6822,
      "十八 ": 6823,
      "华语 。": 6824,
      "卖给 我 ": 6825,
      "卧铺": 6826,
      "卫生": 6827,
      "去年": 6828,
      "取款": 6829,
      "叫醒": 6830,
      "司机": 6831,
      "吃完": 6832,
      "吃 了 ": 6833,
      "同志": 6834,
      "同样": 6835,
      "后天 ": 6836,
      "后面 。": 6837,
      "吧 ， ": 6838,
      "启程": 6839,
      "呼叫 ": 6840,
      "唱歌": 6841,
      "喉咙": 6842,
      "回到 ": 6843,
      "回家 。": 6844,
      "坐 的 ": 6845,
      "块 钱": 6846,
      "堪称": 6847,
      "塑料": 6848,
      "声音": 6849,
      "她 。": 6850,
      "好 , ": 6851,
      "娱乐": 6852,
      "子 好 吗 ？": 6853,
      "学 ？": 6854,
      "家人": 6855,
      "对 吗 ？": 6856,
      "对于 ": 6857,
      "对方 ": 6858,
      "小心 。": 6859,
      "小费 。": 6860,
      "山 ": 6861,
      "工艺": 6862,
      "师范": 6863,
      "带 的 ": 6864,
      "带到 ": 6865,
      "帮忙": 6866,
      "帮忙 吗 ？": 6867,
      "开 。": 6868,
      "开 一 个 ": 6869,
      "式 。": 6870,
      "往 前": 6871,
      "得到 ": 6872,
      "忘 了 ": 6873,
      "怎样": 6874,
      "急救": 6875,
      "总经理": 6876,
      "情 。": 6877,
      "想到 ": 6878,
      "想法 。": 6879,
      "感激": 6880,
      "感兴趣": 6881,
      "成 了 ": 6882,
      "成田 ": 6883,
      "手术": 6884,
      "找 我 ": 6885,
      "找到 我 的 ": 6886,
      "技术": 6887,
      "抢劫": 6888,
      "护肤": 6889,
      "按照": 6890,
      "按 这个 ": 6891,
      "换 一下 ": 6892,
      "掉 了 。": 6893,
      "排 ": 6894,
      "搞 ": 6895,
      "收入": 6896,
      "放假": 6897,
      "教堂": 6898,
      "方面": 6899,
      "旅途": 6900,
      "明晚": 6901,
      "易碎": 6902,
      "春天 ": 6903,
      "更 多": 6904,
      "替 你 ": 6905,
      "有时 ": 6906,
      "服装 ": 6907,
      "本 。": 6908,
      "机器": 6909,
      "机 ？": 6910,
      "来 好 吗 ？": 6911,
      "来说 ， ": 6912,
      "样子 ": 6913,
      "样子 。": 6914,
      "根本 ": 6915,
      "格外 ": 6916,
      "桌子 吗 ？": 6917,
      "橙汁 。": 6918,
      "正好 ": 6919,
      "没 去 ": 6920,
      "河内 ": 6921,
      "油 。": 6922,
      "洗 。": 6923,
      "洗 的 ": 6924,
      "派 人 ": 6925,
      "温度": 6926,
      "游客": 6927,
      "满意": 6928,
      "爱人 ": 6929,
      "牛津": 6930,
      "牛仔裤": 6931,
      "特快 ": 6932,
      "玫瑰": 6933,
      "生素": 6934,
      "电动 ": 6935,
      "男孩": 6936,
      "男朋友": 6937,
      "目的 ": 6938,
      "相片": 6939,
      "相 吗 ？": 6940,
      "真 没 ": 6941,
      "真 好 。": 6942,
      "礼拜": 6943,
      "离 这儿 ": 6944,
      "秋天 ": 6945,
      "穿 的 ": 6946,
      "立刻 ": 6947,
      "站 吗 ？": 6948,
      "第四 ": 6949,
      "米 。": 6950,
      "红色": 6951,
      "红色 的 ": 6952,
      "维加斯": 6953,
      "老公": 6954,
      "老 的 ": 6955,
      "耳环": 6956,
      "胎 ": 6957,
      "腰部 ": 6958,
      "腿 ": 6959,
      "花园": 6960,
      "英国": 6961,
      "英国 ": 6962,
      "著名 的 ": 6963,
      "蔬菜 ": 6964,
      "街 的 ": 6965,
      "西贡": 6966,
      "见 过 ": 6967,
      "认真": 6968,
      "讲 。": 6969,
      "证明": 6970,
      "说 你 ": 6971,
      "说话 。": 6972,
      "请到 ": 6973,
      "读书": 6974,
      "谈 。": 6975,
      "贵 公司 的 ": 6976,
      "赏 ": 6977,
      "赞成": 6978,
      "走路": 6979,
      "走到 ": 6980,
      "越 好 。": 6981,
      "转接 ": 6982,
      "达 。": 6983,
      "这 一 ": 6984,
      "那 我 ": 6985,
      "那边 ": 6986,
      "针 。": 6987,
      "钞票": 6988,
      "长 ": 6989,
      "门牌": 6990,
      "雨季": 6991,
      "面包 。": 6992,
      "鞋子 。": 6993,
      "韩国 ": 6994,
      "顺化": 6995,
      "额外 ": 6996,
      "鸡尾": 6997,
      "：30": 6998,
      "我 同": 6999,
      "我 预订": 7000,
      "我 真的 ": 7001,
      "我 可以 在 ": 7002,
      "我 正 ": 7003,
      "我 正 在 ": 7004,
      "我 最 喜欢 ": 7005,
      " 的 ?": 7006,
      " 的 有 ": 7007,
      " 的 和 ": 7008,
      "你 带": 7009,
      "你 最近": 7010,
      "你 为什么 ": 7011,
      "你 打算": 7012,
      "你 每 天 ": 7013,
      "你 什么 时候": 7014,
      "你 介意": 7015,
      "你 为什么 不 ": 7016,
      "是 什么 ？": 7017,
      "是 不 是 ": 7018,
      " ， 不 要 ": 7019,
      " ， 何况": 7020,
      " 一共": 7021,
      "有 大": 7022,
      "不 , ": 7023,
      "请 给 ": 7024,
      "想 要 ": 7025,
      " 你 会 ": 7026,
      " 在 家 ": 7027,
      " 这儿 。": 7028,
      "去 哪儿 ？": 7029,
      "去 波士顿 的 ": 7030,
      " 不 好 ": 7031,
      " 不 是 吗 ？": 7032,
      "我 想 存": 7033,
      "我 想 洗": 7034,
      "我 想 再 ": 7035,
      "我 想 打 个 ": 7036,
      "我 想 让 你 ": 7037,
      "我们 从 ": 7038,
      "什么 时间 ": 7039,
      " 一 句": 7040,
      " 一 斤": 7041,
      " 一 趟": 7042,
      " 一 星期": 7043,
      " 一 种 ": 7044,
      " 一 本 ": 7045,
      "到 日本 的 ": 7046,
      "很 快": 7047,
      "给 我 一 个 ": 7048,
      "这 部 ": 7049,
      " 好像 ": 7050,
      "些 什么 ？": 7051,
      "他 很 ": 7052,
      " 很 多": 7053,
      " 我 的 贵重 物": 7054,
      "你 能 把 这 ": 7055,
      " 了 但是 ": 7056,
      " ， 我 会 ": 7057,
      " 一 个 月 。": 7058,
      " 这 次 ": 7059,
      " 这 是 我 ": 7060,
      " 这 双 ": 7061,
      " 一下儿 。": 7062,
      " 在 哪 个 ": 7063,
      "再 来": 7064,
      "再 说 一 遍": 7065,
      "房间 里 ": 7066,
      "时间 ？": 7067,
      "我 要 在 ": 7068,
      "我 要 些 ": 7069,
      "我 要 买 ": 7070,
      "太 吵": 7071,
      "日本人 。": 7072,
      "我 的 房间": 7073,
      "这 是 我们 ": 7074,
      "这 是 一 ": 7075,
      " ， 你 是 ": 7076,
      " ， 你 在 ": 7077,
      " ， 你 想 ": 7078,
      "那 家 ": 7079,
      "那 条 ": 7080,
      "现在 你 ": 7081,
      "喜欢 吃 ": 7082,
      "我 能 在 这 ": 7083,
      "我 能 在 这里 ": 7084,
      "哪 个 ？": 7085,
      "你 的 电话 号码": 7086,
      "今天 天气 ": 7087,
      "星期一 ": 7088,
      "你们 要 ": 7089,
      "我 想 要 件 ": 7090,
      "从 日本 ": 7091,
      "从 哪 个 ": 7092,
      "请 问 你 ": 7093,
      " 上去 ": 7094,
      " ！ ": 7095,
      " 公司 工作 。": 7096,
      "告诉 你 。": 7097,
      "告诉 我 。": 7098,
      " 有点": 7099,
      "一 个 小时 ": 7100,
      "二十 美元": 7101,
      "叫 什么 ？": 7102,
      " 出发 。": 7103,
      "地方 ？": 7104,
      "酒店 吗 ？": 7105,
      "好 的 ,": 7106,
      "请 你 到 ": 7107,
      "真 漂亮 。": 7108,
      "什么 时候 去 ？": 7109,
      "多少 人 ？": 7110,
      "每 人 ": 7111,
      "明天 去 ": 7112,
      " 着 。": 7113,
      "年 前": 7114,
      "旅行社": 7115,
      "能 给 我 借": 7116,
      "没 问题": 7117,
      "没 问题 。": 7118,
      "巴士 。": 7119,
      "巴士 吗 ？": 7120,
      "预订 的 ": 7121,
      "希望 你 ": 7122,
      "航空 邮件": 7123,
      "车站 。": 7124,
      "车站 在 哪 ？": 7125,
      " 三百": 7126,
      "饭店 ": 7127,
      "也 不 能 ": 7128,
      "我 很 喜欢 ": 7129,
      "当然 。": 7130,
      "如果 你 不 ": 7131,
      "学校 的 ": 7132,
      " 给 他 ": 7133,
      "越南人": 7134,
      "三十六 ": 7135,
      " 到 。": 7136,
      "护照 ": 7137,
      "护照 吗 ？": 7138,
      " 的 时候 我 ": 7139,
      "中国 的 ": 7140,
      "北京 的 ": 7141,
      "信用卡 吗 ？": 7142,
      "电视 节目": 7143,
      " 或者": 7144,
      "晚上 的 ": 7145,
      "每 个 人 ": 7146,
      "适合 ": 7147,
      "检查 一下 ": 7148,
      " 高 。": 7149,
      " 高尔夫": 7150,
      " 我 要 去 ": 7151,
      "卖 完 了 。": 7152,
      "动物 ？": 7153,
      "汉语 说 得 ": 7154,
      "父母 ": 7155,
      "父母亲": 7156,
      "普通 ": 7157,
      "我 怎么 去 ": 7158,
      " 怎么 走 吗 ？": 7159,
      "我 有 一 个 ": 7160,
      "早餐 。": 7161,
      " 而 ": 7162,
      " 一定 要 ": 7163,
      " 四 个 ": 7164,
      "只要 你 ": 7165,
      "菜单 。": 7166,
      " ， 要 不 ": 7167,
      "电脑 ": 7168,
      "我 一定": 7169,
      " 的 时间 。": 7170,
      " 作为 ": 7171,
      " 干杯": 7172,
      "旅行 支票 吗 ？": 7173,
      "安全 。": 7174,
      " 并且 ": 7175,
      "历史 ": 7176,
      "大学 毕业": 7177,
      "百货 公司": 7178,
      "外套 。": 7179,
      "看 一下 您 的 ": 7180,
      "结账 。": 7181,
      "我 刚刚 ": 7182,
      "你 推荐 什么 ": 7183,
      "单人间 。": 7184,
      "姓名 和 ": 7185,
      "账户 。": 7186,
      " 打开 吗 ？": 7187,
      " 日期": 7188,
      "拉斯维加斯": 7189,
      "重新 发行": 7190,
      "付费 电话": 7191,
      "迪斯科 舞厅 吗 ？": 7192,
      "贵 姓 ？": 7193,
      "高速 公": 7194,
      "保持 ": 7195,
      "国庆节": 7196,
      " 商": 7197,
      " 完": 7198,
      " 损": 7199,
      " 签": 7200,
      " 货": 7201,
      " 部": 7202,
      " 什么": 7203,
      " 五 ": 7204,
      " 吃 ": 7205,
      " 咖啡": 7206,
      " 也 不 ": 7207,
      " 生活": 7208,
      " 百分之": 7209,
      " 真 是 ": 7210,
      " 女士": 7211,
      " 汽车": 7212,
      " 显得 ": 7213,
      " 展览": 7214,
      "\" ": 7215,
      "10 ": 7216,
      "55": 7217,
      "Aki": 7218,
      "F ": 7219,
      "Har": 7220,
      "Ken": 7221,
      "Mas": 7222,
      "ab": 7223,
      "al": 7224,
      "o ": 7225,
      "ok": 7226,
      "ur": 7227,
      "一共": 7228,
      "七月": 7229,
      "三明治": 7230,
      "上衣": 7231,
      "上面": 7232,
      "下雪": 7233,
      "不 ， 我 ": 7234,
      "不但 ": 7235,
      "严重 ": 7236,
      "丹弗": 7237,
      "举行 ": 7238,
      "也 在 ": 7239,
      "买 了 ": 7240,
      "乳酪": 7241,
      "五 。": 7242,
      "人 是 ": 7243,
      "介意 ": 7244,
      "从 我 的 ": 7245,
      "令 人 ": 7246,
      "以至": 7247,
      "信 吗 ？": 7248,
      "倒 了 。": 7249,
      "做饭": 7250,
      "停 。": 7251,
      "偷窃": 7252,
      "克 。": 7253,
      "兑换 ": 7254,
      "八月 ": 7255,
      "六点": 7256,
      "养 ": 7257,
      "再见 。": 7258,
      "刚刚 ": 7259,
      "到底": 7260,
      "到 了": 7261,
      "前面 ": 7262,
      "剧 吗 ？": 7263,
      "办 手续": 7264,
      "加利福尼亚": 7265,
      "包装 ": 7266,
      "十 个 ": 7267,
      "单词": 7268,
      "去丹弗": 7269,
      "发展": 7270,
      "变化": 7271,
      "口红": 7272,
      "口 的 ": 7273,
      "可乐": 7274,
      "右拐": 7275,
      "同学": 7276,
      "同学 ": 7277,
      "同样 的 ": 7278,
      "后 。": 7279,
      "吸引": 7280,
      "周五": 7281,
      "周五 ": 7282,
      "味 。": 7283,
      "和 。": 7284,
      "和 一 个 ": 7285,
      "哦 我 ": 7286,
      "售货": 7287,
      "啦 ，": 7288,
      "四月 ": 7289,
      "回答": 7290,
      "困难": 7291,
      "夏天": 7292,
      "外国 ": 7293,
      "够 ": 7294,
      "大卫": 7295,
      "天 有 ": 7296,
      "太 好 。": 7297,
      "夫妻": 7298,
      "头 吗 ？": 7299,
      "奶奶": 7300,
      "她 很 ": 7301,
      "好 的 。": 7302,
      "子 ， ": 7303,
      "字 。": 7304,
      "存折": 7305,
      "学 了 ": 7306,
      "孩子 。": 7307,
      "害怕": 7308,
      "寄 这 封": 7309,
      "对 了 。": 7310,
      "寺庙": 7311,
      "将 在 ": 7312,
      "小李": 7313,
      "尔 ": 7314,
      "工资": 7315,
      "工 。": 7316,
      "巧克": 7317,
      "市 。": 7318,
      "带 你 ": 7319,
      "席 ": 7320,
      "帮 您 ": 7321,
      "干嘛": 7322,
      "干洗": 7323,
      "干什么 ": 7324,
      "年龄": 7325,
      "年 了": 7326,
      "年 出": 7327,
      "并且": 7328,
      "并且 ": 7329,
      "床 。": 7330,
      "开个 ": 7331,
      "张 一 美元": 7332,
      "得 去 ": 7333,
      "快速": 7334,
      "快要 ": 7335,
      "怎样 ？": 7336,
      "总共 ": 7337,
      "您 好 ， ": 7338,
      "愿 ": 7339,
      "打 的 ": 7340,
      "打开 ": 7341,
      "找 一 个 ": 7342,
      "担保": 7343,
      "招领": 7344,
      "挂号": 7345,
      "按钮": 7346,
      "挤 。": 7347,
      "接待": 7348,
      "接受 ": 7349,
      "改天 ": 7350,
      "放到 ": 7351,
      "政府": 7352,
      "敢 ": 7353,
      "斯 ": 7354,
      "斯特": 7355,
      "旁边 。": 7356,
      "旅程 ": 7357,
      "晚 了 。": 7358,
      "暑假": 7359,
      "更 好 。": 7360,
      "最终": 7361,
      "有治 ": 7362,
      "服 。": 7363,
      "朵 ": 7364,
      "机会": 7365,
      "来回": 7366,
      "格 。": 7367,
      "棒 。": 7368,
      "椅子 ": 7369,
      "楼 的 ": 7370,
      "止痛": 7371,
      "止 。": 7372,
      "没 什么 ": 7373,
      "治疗": 7374,
      "流利": 7375,
      "消化": 7376,
      "液 。": 7377,
      "演出 ": 7378,
      "潜水": 7379,
      "点 了 。": 7380,
      "烫发 。": 7381,
      "热 ， ": 7382,
      "照 。": 7383,
      "熟 的 ": 7384,
      "牌子": 7385,
      "牙 。": 7386,
      "物品 。": 7387,
      "特尔": 7388,
      "玩 ": 7389,
      "班 ": 7390,
      "琼斯": 7391,
      "甜点 ": 7392,
      "由于 ": 7393,
      "男人 ": 7394,
      "男孩 ": 7395,
      "直 走": 7396,
      "看 不 ": 7397,
      "真巧": 7398,
      "着 了 。": 7399,
      "祝 你们 ": 7400,
      "离 这 ": 7401,
      "离 这里": 7402,
      "种 。": 7403,
      "穿 这 件 ": 7404,
      "站 在 ": 7405,
      "第一 个 ": 7406,
      "等 你 。": 7407,
      "简单": 7408,
      "精彩": 7409,
      "紧 了 。": 7410,
      "累 了 ， ": 7411,
      "线 吗 ？": 7412,
      "线路 ": 7413,
      "经营": 7414,
      "维萨": 7415,
      "维生素": 7416,
      "羊毛": 7417,
      "羡慕": 7418,
      "而且 ": 7419,
      "联络": 7420,
      "肥皂": 7421,
      "节 。": 7422,
      "花哨": 7423,
      "英特尔": 7424,
      "荣幸": 7425,
      "蓝色": 7426,
      "袋子 ": 7427,
      "裤子 ": 7428,
      "西瓜": 7429,
      "见 过": 7430,
      "观光": 7431,
      "讨厌": 7432,
      "说 ？": 7433,
      "谁 是 ": 7434,
      "购物 。": 7435,
      "费 和 ": 7436,
      "起来 。": 7437,
      "超重": 7438,
      "边 是 ": 7439,
      "达 ": 7440,
      "过敏": 7441,
      "过来 。": 7442,
      "运 。": 7443,
      "近 的 ": 7444,
      "还 没有 ": 7445,
      "这 。": 7446,
      "这 不 是 ": 7447,
      "进来 ": 7448,
      "道 的 ": 7449,
      "邀请": 7450,
      "那边 的 ": 7451,
      "部分 ": 7452,
      "酒 吗 ？": 7453,
      "钱 吗 ？": 7454,
      "长 了 。": 7455,
      "问 你 ": 7456,
      "阮氏": 7457,
      "防 ": 7458,
      "附加": 7459,
      "院 吗 ？": 7460,
      "难过 。": 7461,
      "零 钱": 7462,
      "面额": 7463,
      "鞋 吗 ？": 7464,
      "领事": 7465,
      "领导": 7466,
      "食 ": 7467,
      "食物 。": 7468,
      "饭馆": 7469,
      "高 ？": 7470,
      "我 订": 7471,
      "我 到 ": 7472,
      "我 这 ": 7473,
      "我 什么 时候 ": 7474,
      "我 知道 ": 7475,
      "我 也 不 ": 7476,
      "我 马上 ": 7477,
      "我 今年 ": 7478,
      "我 公司 ": 7479,
      "我 听 不 ": 7480,
      "我 家 有 ": 7481,
      " 的 方": 7482,
      " 的 经济舱": 7483,
      " 的 胶卷 。": 7484,
      " 的 位置 。": 7485,
      " 的 印象": 7486,
      "你 吃": 7487,
      "你 走": 7488,
      "你 太 ": 7489,
      "你 家 ": 7490,
      "你 没有 ": 7491,
      "你 对 ": 7492,
      "你 别 ": 7493,
      "你 不 要 ": 7494,
      "你 工作 ": 7495,
      "你 愿意 ": 7496,
      " 我 看": 7497,
      " 我 都 ": 7498,
      "是 什么 ": 7499,
      "在 家": 7500,
      " ， 可以 ": 7501,
      " ， 今天 ": 7502,
      " ， 那么 ": 7503,
      " ， 不 能 ": 7504,
      " ， 可能 ": 7505,
      " ， 还是 ": 7506,
      " ， 大家 ": 7507,
      " ， 我们 一起 去 ": 7508,
      " 了 你 ": 7509,
      " 一般": 7510,
      "有 个 ": 7511,
      "不 会 ": 7512,
      "不 知道": 7513,
      "要 多 长 时间 ？": 7514,
      " 是 一百": 7515,
      "请 马上 ": 7516,
      "请 通知": 7517,
      " 你 了": 7518,
      " 你 ， ": 7519,
      " 你 有空": 7520,
      " 在 你 ": 7521,
      " 在 日本 ": 7522,
      " 这 一 ": 7523,
      "去 哪儿 ": 7524,
      " 不 见": 7525,
      " 不 好 ， ": 7526,
      "我 想 去": 7527,
      "我 想 换": 7528,
      "我 想 坐 ": 7529,
      "我 想 往 ": 7530,
      "我们 今天 的 ": 7531,
      " 一 公": 7532,
      " 一 段": 7533,
      " 一 跳": 7534,
      " 一 辆 出租": 7535,
      "很 久": 7536,
      "很 有 ": 7537,
      "给 我 看": 7538,
      "给 我 打 电话 。": 7539,
      "这 件": 7540,
      "这 双": 7541,
      "这 就 是 ": 7542,
      "天 假": 7543,
      "可以 给 我 ": 7544,
      "来 看": 7545,
      "他 什么 时候 ": 7546,
      " 很 忙": 7547,
      "点 左右": 7548,
      "点 什么 吗 ？": 7549,
      "就 可以 ": 7550,
      " 了 , ": 7551,
      " 了 吗 ?": 7552,
      " 美国 ": 7553,
      " 这 趟 ": 7554,
      "一 年": 7555,
      "一 天 ": 7556,
      "一 份 ": 7557,
      " 在 哪 ?": 7558,
      "看 过 ": 7559,
      "看 医生 。": 7560,
      "看 上去 ": 7561,
      " 大厅": 7562,
      " 什么 颜色 ？": 7563,
      " 还 没": 7564,
      "我 要 个 ": 7565,
      "我 的 车 ": 7566,
      "我 的 行李": 7567,
      "好 .": 7568,
      "那 个 吗 ？": 7569,
      "现在 去 ": 7570,
      " , 他 ": 7571,
      " , 但是 ": 7572,
      "我 能 看看 ": 7573,
      "你 的 意思": 7574,
      "你 的 房间 ": 7575,
      "今天 早上": 7576,
      "星期日": 7577,
      "星期六 ": 7578,
      "它 就 ": 7579,
      "两 周": 7580,
      "两 份 ": 7581,
      "两 瓶 ": 7582,
      "如果 有 ": 7583,
      "如果 我们 ": 7584,
      "打 过 ": 7585,
      "我 想 要 杯 ": 7586,
      "请 问 能 ": 7587,
      "我 不 会 ": 7588,
      "我 不 太 ": 7589,
      "月 台": 7590,
      " 过 了 。": 7591,
      " 过来 。": 7592,
      " 能 到 ": 7593,
      "买 什么 ？": 7594,
      " 了 ， 请 ": 7595,
      " 了 ， 我们 ": 7596,
      "一 个 星期": 7597,
      "二十五 ": 7598,
      "三 天 。": 7599,
      "行李箱": 7600,
      "需要 申报": 7601,
      "先生 ？": 7602,
      " 就 行 。": 7603,
      " 就 是 。": 7604,
      "五 张 ": 7605,
      "五 天 。": 7606,
      "坐 火车 ": 7607,
      "每 晚": 7608,
      "每 年 ": 7609,
      "明天 会 ": 7610,
      "我 在 哪 ": 7611,
      " 怎么 做 ？": 7612,
      " 小孩": 7613,
      "最 低 ": 7614,
      "觉得 怎么样 ？": 7615,
      " 下 这个 ": 7616,
      " 比 我 ": 7617,
      " 不但": 7618,
      " 不过 了 。": 7619,
      "今晚 我 ": 7620,
      " 一点儿 。": 7621,
      "最近 ": 7622,
      " 工作 .": 7623,
      "杯 咖啡 。": 7624,
      "那么 多 ": 7625,
      "我 会 去 ": 7626,
      "我 会 住 在 ": 7627,
      "喝 什么 ？": 7628,
      " 什么 时候 开": 7629,
      " 什么 时候 到 ": 7630,
      " 什么 时候 关门 ？": 7631,
      " 中 ": 7632,
      " 中心 。": 7633,
      " 好 点 的 ": 7634,
      "听 音乐": 7635,
      "听 起来 ": 7636,
      "医生 ": 7637,
      " 之一 。": 7638,
      "你 在 哪里 ": 7639,
      "你 在 这儿 ": 7640,
      " 点 。": 7641,
      " 点 的 。": 7642,
      " 的 东西 ": 7643,
      "当然 ， ": 7644,
      "学生 的 ": 7645,
      "推荐 一 个 ": 7646,
      "颜色 ": 7647,
      "你 能 给 我 看看 ": 7648,
      "请 问 您 ": 7649,
      "我 喜欢 看 ": 7650,
      "如果 你 有 ": 7651,
      " 发展": 7652,
      " 发生": 7653,
      "点钟 。": 7654,
      "学校 。": 7655,
      " 来说 ， ": 7656,
      "地址 吗 ？": 7657,
      "结婚 了 。": 7658,
      " 到 我 ": 7659,
      " 到 我 的 ": 7660,
      " 换 ": 7661,
      "中国人 ": 7662,
      "在 这 张 ": 7663,
      "介绍 ": 7664,
      "每 个 月": 7665,
      "我 想 去 看 ": 7666,
      " 几 天 。": 7667,
      " 一百 美元 。": 7668,
      "这 件 事": 7669,
      "日元 ": 7670,
      "到 那儿 ": 7671,
      "需要 我 ": 7672,
      "下 个 月 ": 7673,
      "卖 完": 7674,
      "明白 了 。": 7675,
      "这 种 药": 7676,
      "欢迎 你 ": 7677,
      "联系 地址": 7678,
      "恐怕 ": 7679,
      "恐怕 你 ": 7680,
      "地图 。": 7681,
      " 了 ， 我 要 ": 7682,
      "参加 一 个 ": 7683,
      "早餐 吗 ？": 7684,
      "游泳 吗 ？": 7685,
      "我 想 要 一 条 ": 7686,
      "下 一 趟 去 ": 7687,
      "容易 。": 7688,
      "二十 分钟": 7689,
      "导游 。": 7690,
      " 啦 ， 我 ": 7691,
      "红 绿 ": 7692,
      "不同 的 ": 7693,
      "年轻 。": 7694,
      " ， 有时候 ": 7695,
      "健康 。": 7696,
      "这样 。": 7697,
      "你 去 过 ": 7698,
      " ， 一定 ": 7699,
      "到 日本 吗 ？": 7700,
      "孩子们 ": 7701,
      "饮料 。": 7702,
      "请 再 来 点 ": 7703,
      "旧金山 ": 7704,
      "我 一直": 7705,
      " 干净": 7706,
      "二百 美元 。": 7707,
      "快乐 。": 7708,
      " 大概 三": 7709,
      "动物园 。": 7710,
      " 教授": 7711,
      "在 哪 能 买到 ": 7712,
      " 服务 。": 7713,
      "列车 在 ": 7714,
      "多久 ？": 7715,
      "当然 可以 。": 7716,
      "旅行 支票 。": 7717,
      " 信息": 7718,
      " 车站 。": 7719,
      "建议 。": 7720,
      "考虑 ": 7721,
      "左右 。": 7722,
      "睡觉 。": 7723,
      "你 喜欢 去 ": 7724,
      " 起来 。": 7725,
      "世界 ": 7726,
      "希尔顿 酒店": 7727,
      "特别 。": 7728,
      "警察局": 7729,
      "十字路 ": 7730,
      "抽烟 。": 7731,
      "电池 吗 ？": 7732,
      "身份证 。": 7733,
      "看 电视 。": 7734,
      "没 关系 。": 7735,
      "圣诞节": 7736,
      "报价单": 7737,
      "重要 。": 7738,
      "别 客气 ， ": 7739,
      "挂号 信": 7740,
      " 不 够 ": 7741,
      "周围 有 ": 7742,
      "跳舞 。": 7743,
      "这些 是 ": 7744,
      " 这样 。": 7745,
      "天气 很 冷": 7746,
      "ABC ": 7747,
      "Tanak": 7748,
      "Tanaka": 7749,
      "毛衣 。": 7750,
      "干杯 。": 7751,
      "放心 了 。": 7752,
      "继续 ": 7753,
      "我 需要 一些 ": 7754,
      "来 我 家 ": 7755,
      "查查 ": 7756,
      "永远 ": 7757,
      "出发 ？": 7758,
      "双 人间 。": 7759,
      "十字 路口 ": 7760,
      " 极 了 。": 7761,
      "有效期": 7762,
      "特殊 ": 7763,
      "来 得 及": 7764,
      "现在 的 工作": 7765,
      "双 人 标准间 。": 7766,
      "往前 走": 7767,
      " 有 几 站 ？": 7768,
      "根据 ": 7769,
      "真 不 好意思 。": 7770,
      " 就 行 了 。": 7771,
      "哪个 是 ": 7772,
      "带 浴室 的 ": 7773,
      "Suzuki 。": 7774,
      "传统 ": 7775,
      "冰激凌": 7776,
      "等 一 等": 7777,
      "救护车 。": 7778,
      "几 月 几号 ？": 7779,
      "业余 ": 7780,
      "右拐 。": 7781,
      " \"": 7782,
      " 》": 7783,
      " 两": 7784,
      " 但": 7785,
      " 分": 7786,
      " 妈": 7787,
      " 定": 7788,
      " 店": 7789,
      " 拳": 7790,
      " 拿": 7791,
      " 果": 7792,
      " 树": 7793,
      " 水": 7794,
      " 药": 7795,
      " 话": 7796,
      " 车": 7797,
      " 难": 7798,
      " 那么 ": 7799,
      " 旅游": 7800,
      " 放 在 ": 7801,
      " 打 电话 。": 7802,
      " 运动": 7803,
      " 然后": 7804,
      " 影响": 7805,
      " 指甲": 7806,
      " 结果": 7807,
      " 申请": 7808,
      "% 。": 7809,
      "8 ": 7810,
      "IS": 7811,
      "a 先生": 7812,
      "im": 7813,
      "o 。": 7814,
      "uchi": 7815,
      "一些": 7816,
      "一样": 7817,
      "三角": 7818,
      "下 这个 ": 7819,
      "下车 ": 7820,
      "不但": 7821,
      "不 一样 。": 7822,
      "业 ": 7823,
      "两 美元 。": 7824,
      "严重 。": 7825,
      "丰富": 7826,
      "为什么 ？": 7827,
      "主意 。": 7828,
      "丽 。": 7829,
      "习 。": 7830,
      "书 在 ": 7831,
      "买卖": 7832,
      "二千": 7833,
      "五 美元 的 ": 7834,
      "产生 ": 7835,
      "京都": 7836,
      "人 ， ": 7837,
      "人 去 ": 7838,
      "从 我 ": 7839,
      "从来 不 ": 7840,
      "代表": 7841,
      "份 。": 7842,
      "企划": 7843,
      "会 ？": 7844,
      "会儿 。": 7845,
      "传真 ": 7846,
      "位 吗 ？": 7847,
      "修 一下 。": 7848,
      "倍 。": 7849,
      "假日 ": 7850,
      "做 吗 ？": 7851,
      "做 个 ": 7852,
      "光 了 。": 7853,
      "克 ": 7854,
      "克拉": 7855,
      "全部 ": 7856,
      "八 。": 7857,
      "八点半": 7858,
      "八十五": 7859,
      "关 。": 7860,
      "内 的 ": 7861,
      "再 去 ": 7862,
      "写信": 7863,
      "冬天": 7864,
      "冷 吗 ？": 7865,
      "准时": 7866,
      "准时 ": 7867,
      "几 ？": 7868,
      "几点 ": 7869,
      "出院": 7870,
      "出来 。": 7871,
      "出口 ": 7872,
      "出示 ": 7873,
      "刘京": 7874,
      "刚 出": 7875,
      "到 吗 ？": 7876,
      "到 了 吗 ？": 7877,
      "刻 。": 7878,
      "办 一 个 ": 7879,
      "加点 ": 7880,
      "十月 ": 7881,
      "半 小时": 7882,
      "南 ": 7883,
      "即使": 7884,
      "历 。": 7885,
      "去 的 ": 7886,
      "发 个 ": 7887,
      "受伤 了 。": 7888,
      "受 不 了 。": 7889,
      "号 的 。": 7890,
      "号 的 吗 ？": 7891,
      "吃 过": 7892,
      "合作 。": 7893,
      "名片 。": 7894,
      "后悔": 7895,
      "向前": 7896,
      "向 您 ": 7897,
      "吗 。": 7898,
      "听到 ": 7899,
      "听 你 的 ": 7900,
      "吹风": 7901,
      "呆 多久 ？": 7902,
      "告别": 7903,
      "呼吸": 7904,
      "和 这个 ": 7905,
      "哪 一 个 ": 7906,
      "商量": 7907,
      "啦 ， 你 ": 7908,
      "回来 了 。": 7909,
      "坐 什么 ": 7910,
      "坚持": 7911,
      "墨西": 7912,
      "声 吗 ？": 7913,
      "处 吗 ？": 7914,
      "处 在 哪 ？": 7915,
      "处 在 哪里 ？": 7916,
      "外国": 7917,
      "夜总": 7918,
      "大海": 7919,
      "天安": 7920,
      "天 是 ": 7921,
      "太 不 ": 7922,
      "女神": 7923,
      "妇女": 7924,
      "妳要 ": 7925,
      "姓阮": 7926,
      "季节 ": 7927,
      "学费": 7928,
      "学期 ": 7929,
      "完 ": 7930,
      "完成 ": 7931,
      "实现": 7932,
      "客人 ": 7933,
      "宴会 。": 7934,
      "密码": 7935,
      "将 会 ": 7936,
      "尼 ": 7937,
      "尽管 ": 7938,
      "屋子 ": 7939,
      "山顶": 7940,
      "左边": 7941,
      "左边 的 ": 7942,
      "巾 吗 ？": 7943,
      "带走 。": 7944,
      "常规": 7945,
      "广告": 7946,
      "床 ": 7947,
      "底 ": 7948,
      "开放": 7949,
      "开车": 7950,
      "开门 吗 ？": 7951,
      "当地": 7952,
      "很 不 ": 7953,
      "得 好": 7954,
      "忘 了 。": 7955,
      "快 了 。": 7956,
      "急事 ， ": 7957,
      "性 。": 7958,
      "怪不得": 7959,
      "恢复": 7960,
      "您 好 ！": 7961,
      "感 。": 7962,
      "戴 ": 7963,
      "房租": 7964,
      "手机": 7965,
      "报 。": 7966,
      "押金": 7967,
      "拿 。": 7968,
      "拿 着": 7969,
      "持续": 7970,
      "挂断": 7971,
      "指南": 7972,
      "挨 着 ": 7973,
      "据说 ": 7974,
      "掉 ": 7975,
      "排队": 7976,
      "提前": 7977,
      "摇滚": 7978,
      "收银": 7979,
      "改成 ": 7980,
      "数 。": 7981,
      "整理": 7982,
      "整个 ": 7983,
      "新 的 。": 7984,
      "方法": 7985,
      "日期": 7986,
      "早 就 ": 7987,
      "时尚": 7988,
      "时 我 ": 7989,
      "明 开": 7990,
      "春节 ": 7991,
      "昨天 我 ": 7992,
      "更 好": 7993,
      "更 好 的 ": 7994,
      "最后 ": 7995,
      "最 好 ": 7996,
      "有意思": 7997,
      "有别 的 ": 7998,
      "服用": 7999,
      "本 ？": 8000,
      "本 小": 8001,
      "机票 和 ": 8002,
      "来 ， 我 ": 8003,
      "来 这里 ": 8004,
      "极 拳": 8005,
      "林 ": 8006,
      "枪 。": 8007,
      "柏林": 8008,
      "棒 了 。": 8009,
      "植物": 8010,
      "欧洲 ": 8011,
      "款 的 ": 8012,
      "正 的 ": 8013,
      "步行 ": 8014,
      "毛病 了 。": 8015,
      "毯子 吗 ？": 8016,
      "汉字": 8017,
      "注意": 8018,
      "深刻": 8019,
      "清洁": 8020,
      "满足": 8021,
      "满意 。": 8022,
      "潜水 。": 8023,
      "火车 吗 ？": 8024,
      "灯 处": 8025,
      "烟斗": 8026,
      "热 吗 ？": 8027,
      "爱 你 。": 8028,
      "爵士": 8029,
      "爸 妈": 8030,
      "特兰": 8031,
      "特快": 8032,
      "玩儿": 8033,
      "玩儿 ": 8034,
      "玩儿 。": 8035,
      "现场 ": 8036,
      "班机": 8037,
      "班机 ": 8038,
      "甚至": 8039,
      "生产": 8040,
      "生 的 。": 8041,
      "生气 。": 8042,
      "用 我 的 ": 8043,
      "疹 。": 8044,
      "病 ": 8045,
      "病 了 ， ": 8046,
      "症状": 8047,
      "百老": 8048,
      "的 。 ": 8049,
      "目的": 8050,
      "直 着 ": 8051,
      "相 ": 8052,
      "相当": 8053,
      "看 一些 ": 8054,
      "看来 ， ": 8055,
      "真皮": 8056,
      "真正 的 ": 8057,
      "着急": 8058,
      "磅 。": 8059,
      "祝 您 ": 8060,
      "种 ？": 8061,
      "空 。": 8062,
      "等 一下 。": 8063,
      "类 ？": 8064,
      "紧张 。": 8065,
      "经常": 8066,
      "绿色 ": 8067,
      "网页": 8068,
      "网 上 ": 8069,
      "罗马": 8070,
      "老婆": 8071,
      "胃口": 8072,
      "能力": 8073,
      "自 ": 8074,
      "自然 ": 8075,
      "苏格兰": 8076,
      "茶 吗 ？": 8077,
      "营销": 8078,
      "落 在 ": 8079,
      "行 不 行": 8080,
      "袖子 ": 8081,
      "装饰": 8082,
      "装 的 ": 8083,
      "要 。": 8084,
      "见 ！": 8085,
      "训练": 8086,
      "试穿": 8087,
      "请坐": 8088,
      "象 。": 8089,
      "货品": 8090,
      "资料": 8091,
      "超过": 8092,
      "超过 ": 8093,
      "路 上": 8094,
      "近 。": 8095,
      "还 在 ": 8096,
      "还 能 ": 8097,
      "还 有 什么 ": 8098,
      "进来 。": 8099,
      "进行 ": 8100,
      "退款 。": 8101,
      "送 我 去 ": 8102,
      "逛逛": 8103,
      "造 的 ": 8104,
      "那个 。": 8105,
      "那样 的 ": 8106,
      "那里 的 ": 8107,
      "邮箱": 8108,
      "邮资": 8109,
      "郡 ": 8110,
      "部 在 哪 ？": 8111,
      "酱 。": 8112,
      "错 ": 8113,
      "长 ？": 8114,
      "难 ， ": 8115,
      "零零": 8116,
      "零 钱 吗 ？": 8117,
      "需 ": 8118,
      "靠近 ": 8119,
      "面值": 8120,
      "面包 ": 8121,
      "鞋子": 8122,
      "项目": 8123,
      "领 ": 8124,
      "飞机 。": 8125,
      "食 。": 8126,
      "食物 ": 8127,
      "饼 。": 8128,
      "饼干 。": 8129,
      "香槟": 8130,
      "香肠": 8131,
      "龙虾": 8132,
      "我 每 ": 8133,
      "我 穿 ": 8134,
      "我 爸爸": 8135,
      "我 以前": 8136,
      "我 以前 ": 8137,
      "我 将 ": 8138,
      "我 相信": 8139,
      "我 发烧": 8140,
      "我 听说 ": 8141,
      "我 计划 ": 8142,
      " 的 .": 8143,
      " 的 日": 8144,
      " 的 景": 8145,
      " 的 票": 8146,
      " 的 车 吗 ？": 8147,
      " 的 事情": 8148,
      " 的 旅游 吗 ？": 8149,
      "你 把 ": 8150,
      "你 也 ": 8151,
      "你 正在 ": 8152,
      "你 可能 ": 8153,
      "你 感觉": 8154,
      "你 做 什么 ": 8155,
      "你 家 有 ": 8156,
      "你 怎么": 8157,
      "你 学 汉语 ": 8158,
      "你 会 不 会 ": 8159,
      " 我 需要 ": 8160,
      " 我 也 ": 8161,
      " 我 没 ": 8162,
      "是 一 ": 8163,
      "在 日本 ": 8164,
      "在 哪里 ": 8165,
      "在 下 个 ": 8166,
      " ， 其": 8167,
      " ， 好": 8168,
      " ， 能 ": 8169,
      " ， 到 ": 8170,
      " ， 从 ": 8171,
      " ， 请 问 ": 8172,
      " ， 也 很 ": 8173,
      " ， 因为 ": 8174,
      " 一万": 8175,
      " 一切": 8176,
      " 一共 ": 8177,
      " 一会 。": 8178,
      "不 用": 8179,
      "不 想 ": 8180,
      "不 是 ， ": 8181,
      " 是 不 ": 8182,
      " 是 你 的 ": 8183,
      " 是 最 ": 8184,
      "能 把 它 ": 8185,
      "请 坐": 8186,
      "请 把 这 ": 8187,
      "请 替 我 ": 8188,
      "请 叫 个 ": 8189,
      " 你 吗 ？": 8190,
      " 你 知道": 8191,
      " 你 来 吗 ？": 8192,
      " 在 这儿 ": 8193,
      " 在 美国": 8194,
      " 在 家 吗 ？": 8195,
      " 这 不 ": 8196,
      "我 想 知道 ": 8197,
      "我 想 来 点 ": 8198,
      "我 想 尝尝": 8199,
      "我们 就 ": 8200,
      "我们 都 ": 8201,
      "我们 需要 ": 8202,
      "我们 可以 在 ": 8203,
      "什么 病": 8204,
      " 一 间 ": 8205,
      "到 哪 ": 8206,
      "给 我 看看 ": 8207,
      "这 要 ": 8208,
      " 好好 ": 8209,
      " 好 不 好 ？": 8210,
      "可以 做": 8211,
      "可以 去 ": 8212,
      "可以 把 ": 8213,
      "来 过": 8214,
      "来 些 ": 8215,
      "他 是 我 的 ": 8216,
      " 很 大 。": 8217,
      " 多 了": 8218,
      "你 能 把 它 ": 8219,
      "这个 菜": 8220,
      "这个 地方": 8221,
      " 了 什么 ": 8222,
      "把 他 ": 8223,
      " ， 我 很 ": 8224,
      " ， 我 叫 ": 8225,
      " 一 个 小时": 8226,
      " 一 个 小时 。": 8227,
      " 这 家 ": 8228,
      " 这 是 我 的 ": 8229,
      " 这 套 ": 8230,
      " 去 吧 。": 8231,
      "一 杯 ": 8232,
      "一 号 ": 8233,
      "一 张 去 ": 8234,
      "人 接": 8235,
      "人 会 说 ": 8236,
      "喜欢 什么 ": 8237,
      " 大卫": 8238,
      " 大学 的 ": 8239,
      " 什么 事": 8240,
      "再 喝": 8241,
      " 还 在 ": 8242,
      "我 要 买": 8243,
      "我 要 杯 ": 8244,
      "太 花哨": 8245,
      "日本 。": 8246,
      "工作 的 ？": 8247,
      "我 的 脚": 8248,
      "我 的 钱包 ": 8249,
      "请 给 我 一 张 ": 8250,
      "请 给 我 来 个 ": 8251,
      "说 吧": 8252,
      "说 吧 。": 8253,
      "这 是 你 ": 8254,
      "您 需要 ": 8255,
      "您 想要 ": 8256,
      " ， 你 好 吗 ？": 8257,
      " ， 你 好 ！": 8258,
      "几 位 ？": 8259,
      "那 我们 ": 8260,
      "那 天 ": 8261,
      "现在 就 ": 8262,
      " , 谢谢 。": 8263,
      " , 但是 我 ": 8264,
      " , 先生 。": 8265,
      "我 能 把 这个 ": 8266,
      "今天 晚上 ": 8267,
      " 你 的 电话 号码": 8268,
      "用 航空 邮件 ": 8269,
      "星期五": 8270,
      "都 可以 ": 8271,
      " 号 .": 8272,
      "东西 要 ": 8273,
      "请 问 去 ": 8274,
      " 上课": 8275,
      " 我们 在 ": 8276,
      "买 些 ": 8277,
      " 了 ， 是 吗 ？": 8278,
      "一 个 月 ": 8279,
      "需要 帮忙 吗 ？": 8280,
      "你 有 没 有 ": 8281,
      "请 你 帮 我 ": 8282,
      "对 不 起 我们 ": 8283,
      "对 不 起 ， 我们 ": 8284,
      "真 遗憾": 8285,
      "什么 时候 开始 ": 8286,
      "你 要 在 ": 8287,
      "坐 巴士": 8288,
      "做 生意": 8289,
      "每 年": 8290,
      "附近 。": 8291,
      "附近 吗 ？": 8292,
      "学 毕业": 8293,
      " 小说 。": 8294,
      "没 什么": 8295,
      "巴士 在 ": 8296,
      "两 个 小时 ": 8297,
      "我 可以 把 ": 8298,
      " 里 有 什么 ": 8299,
      "衣服 吗 ？": 8300,
      "让 我 看看": 8301,
      "今天 有 ": 8302,
      " 不 了": 8303,
      " 不见 了 。": 8304,
      "把 它 忘 在 ": 8305,
      "下午 五": 8306,
      " 以 ": 8307,
      " 以下": 8308,
      "车站 ": 8309,
      "我 会 说": 8310,
      " 三十": 8311,
      "饭店 吗 ？": 8312,
      "看看 这个 ": 8313,
      "你 想 吃 ": 8314,
      " 什么 时候 能 ": 8315,
      " 什么 时候 走 ？": 8316,
      " 中国 ": 8317,
      "名字 吗 ？": 8318,
      " 都 在 ": 8319,
      " 打个 ": 8320,
      "服务 费用": 8321,
      "所以 请 ": 8322,
      "只 需要 ": 8323,
      "日 元": 8324,
      "明天见 。": 8325,
      " 点 的 吗 ？": 8326,
      " 它们 ": 8327,
      "餐馆 ？": 8328,
      " 的 地方 ": 8329,
      "音乐 ？": 8330,
      "马上 就 要 ": 8331,
      " 邮寄": 8332,
      " 邮票 吗 ？": 8333,
      " 太 吵": 8334,
      " 太 高": 8335,
      "找 谁 ？": 8336,
      " 发车 ？": 8337,
      "几 点 到 ": 8338,
      "几 点 开门 ？": 8339,
      "点钟 ": 8340,
      "休息 ": 8341,
      "国际 电话": 8342,
      " 来 了 。": 8343,
      "在 哪 可以 ": 8344,
      "电话 号码 是 ": 8345,
      "三十五 ": 8346,
      "万 元": 8347,
      "万 日元": 8348,
      "护照 和 ": 8349,
      "抱歉 我 ": 8350,
      " 的 时候 你 ": 8351,
      "北京 。": 8352,
      " 说话 吗 ？": 8353,
      "如果 可能": 8354,
      "保险 ": 8355,
      "保险 。": 8356,
      " 的 是 什么 ？": 8357,
      "身体 。": 8358,
      "吃饭 ， ": 8359,
      "我们 有 很多 ": 8360,
      "检查 一下 。": 8361,
      "越 币 。": 8362,
      "也 很 高兴 。": 8363,
      " 也 不过 ": 8364,
      "波士顿 ": 8365,
      "点半 。": 8366,
      "到 那边 ": 8367,
      " 十一": 8368,
      " 十二": 8369,
      "找到 它 。": 8370,
      "号码 。": 8371,
      "我 想 是 ": 8372,
      "医院 ": 8373,
      "美国人 。": 8374,
      "美国人 吗 ？": 8375,
      "恐怕 我 ": 8376,
      "上班 ？": 8377,
      "上班 吗 ？": 8378,
      " 这里 吗 ？": 8379,
      "日语 吗 ？": 8380,
      " 报纸": 8381,
      "买到 票": 8382,
      "普通 的 ": 8383,
      "通知 ": 8384,
      "比 昨天 ": 8385,
      "比 原来 ": 8386,
      "计划 。": 8387,
      "我 希望 ": 8388,
      "十二点 ": 8389,
      "十二 号 ": 8390,
      "游泳 ": 8391,
      "登机 ？": 8392,
      "支付 吗 ？": 8393,
      "有空 ": 8394,
      "这 趟 航班": 8395,
      "二十 分钟 。": 8396,
      "帐单 吗 ？": 8397,
      "我 还 没有 ": 8398,
      " 啦 ？": 8399,
      "安排 ": 8400,
      "旅馆 吗 ？": 8401,
      "美元 换成 ": 8402,
      "非常 好": 8403,
      "我 想 租 一 个 ": 8404,
      " 等 。": 8405,
      "那儿 的 ": 8406,
      "什么 地方 ?": 8407,
      " 干 什么 ？": 8408,
      " 大概 ": 8409,
      "五十 美元 。": 8410,
      "拐角处 ": 8411,
      " 服务 吗 ？": 8412,
      "照相 吗 ？": 8413,
      "学习 汉语": 8414,
      "情况 。": 8415,
      "牛肉 。": 8416,
      " 的 路 吗 ？": 8417,
      "找 一 下 ": 8418,
      "牛奶 。": 8419,
      "自动 取款": 8420,
      "手续 ？": 8421,
      "托运 ": 8422,
      "联合 航空 公司 的 ": 8423,
      "你 说 的 ": 8424,
      " 用 的 ": 8425,
      "考试 。": 8426,
      "天气 预报 说": 8427,
      "为 你 做 ": 8428,
      "体育馆": 8429,
      "性 皮肤": 8430,
      "柜台 。": 8431,
      "沙拉 。": 8432,
      "事故 报告": 8433,
      "保证 ": 8434,
      "发型 。": 8435,
      "圣诞节 ": 8436,
      "钱包忘 在 ": 8437,
      " 是 一 种 ": 8438,
      "别 客气 。": 8439,
      "旅游 线路 吗 ？": 8440,
      "一直 ": 8441,
      "再次 确定": 8442,
      "喝 点 什么 ？": 8443,
      "从来 没有 ": 8444,
      "打 电话 给 我 。": 8445,
      "祝贺 你 ": 8446,
      "艺术 博物馆": 8447,
      " 一直 往 前": 8448,
      "贵重 物品 ": 8449,
      "半 个 小时 ": 8450,
      "尺码 。": 8451,
      "研究生": 8452,
      "我 来 这里 ": 8453,
      "我 感觉 ": 8454,
      "对 不 起 打扰 一下": 8455,
      "几乎 ": 8456,
      "接线员": 8457,
      "早晨 ": 8458,
      "照 张 像 吗 ？": 8459,
      " 很 有意思": 8460,
      " 美国 的 ": 8461,
      "处方 。": 8462,
      "真 不 巧": 8463,
      "负责 ": 8464,
      "请 填写 这个 ": 8465,
      "信息 。": 8466,
      "好久 不 见": 8467,
      "结帐 。": 8468,
      "赔偿 。": 8469,
      "我们 想要 张 ": 8470,
      "其他 颜色 的 吗 ？": 8471,
      "十字 路口": 8472,
      "严重 的 ": 8473,
      "多 大 ？": 8474,
      "按摩 吗 ？": 8475,
      "栋 楼": 8476,
      "洗发水 。": 8477,
      "颗 牙": 8478,
      "我 要 一 杯 ": 8479,
      "橱窗 里 ": 8480,
      "爱好 是 ": 8481,
      "英镑 。": 8482,
      "车祸 。": 8483,
      "芥末 。": 8484,
      "怎样 才 能 ": 8485,
      "等候 。": 8486,
      "自行车 ": 8487,
      "舍 不 得 ": 8488,
      "打 领带 吗 ？": 8489,
      "兄弟 ": 8490,
      "冲浪板": 8491,
      "失物 招领": 8492,
      "哪 国人 ？": 8493,
      "T 恤": 8494,
      "万事如": 8495,
      "购物 商": 8496,
      "几 岁 ？": 8497,
      "爸爸 ， 妈妈": 8498,
      "成田 机场 的 ": 8499,
      "旅途 ": 8500,
      "阮氏明 开": 8501,
      "领事馆": 8502,
      "有效期 是 ": 8503,
      "uchi 。": 8504,
      "墨西哥": 8505,
      "百老汇": 8506,
      "你 学 汉语 学": 8507,
      " 关": 8508,
      " 市": 8509,
      " 文": 8510,
      " 方": 8511,
      " 期": 8512,
      " 此": 8513,
      " 海": 8514,
      " 画": 8515,
      " 碎": 8516,
      " 离": 8517,
      " 马": 8518,
      " 想 ": 8519,
      " 房间": 8520,
      " 本 ": 8521,
      " 很多 ": 8522,
      " 真的 ": 8523,
      " 刚 ": 8524,
      " 包括 ": 8525,
      " 汽车 ": 8526,
      " 饮料": 8527,
      " 已 ": 8528,
      " 俱乐": 8529,
      "05": 8530,
      "20 ": 8531,
      "77": 8532,
      "8 。": 8533,
      "Ichi": 8534,
      "Kob": 8535,
      "Mor": 8536,
      "VIS": 8537,
      "az": 8538,
      "ck": 8539,
      "e 。": 8540,
      "guchi 。": 8541,
      "it": 8542,
      "oto": 8543,
      "ter": 8544,
      "um": 8545,
      "un": 8546,
      "《 ": 8547,
      "一下 ": 8548,
      "一路 ": 8549,
      "一会 。": 8550,
      "丁堡": 8551,
      "七月 ": 8552,
      "七点 的 ": 8553,
      "万 ， ": 8554,
      "三月 ": 8555,
      "上网": 8556,
      "下 了": 8557,
      "下车 ？": 8558,
      "不 了 ": 8559,
      "不得 ": 8560,
      "不 一样": 8561,
      "与 你 ": 8562,
      "世平": 8563,
      "个 ， ": 8564,
      "个人 的 ": 8565,
      "中心 ": 8566,
      "为什么": 8567,
      "之内": 8568,
      "乐队": 8569,
      "乔治": 8570,
      "九点": 8571,
      "书店": 8572,
      "书 和 ": 8573,
      "买 的 。": 8574,
      "了解": 8575,
      "于是 ": 8576,
      "五百 ": 8577,
      "人口 ": 8578,
      "仔细": 8579,
      "他 有 ": 8580,
      "他 一边 ": 8581,
      "付费 。": 8582,
      "代 我 ": 8583,
      "以为 你 ": 8584,
      "价 ": 8585,
      "价值": 8586,
      "优秀": 8587,
      "会 了 。": 8588,
      "会 的 。": 8589,
      "传染": 8590,
      "伤 了 ": 8591,
      "位子 吗 ？": 8592,
      "住宿": 8593,
      "体温": 8594,
      "便秘": 8595,
      "保留": 8596,
      "信 ": 8597,
      "修理": 8598,
      "做 的 。": 8599,
      "偷 。": 8600,
      "儿子": 8601,
      "入口": 8602,
      "入场": 8603,
      "八 美元 。": 8604,
      "八月 二十": 8605,
      "六七": 8606,
      "六 。": 8607,
      "六月 ": 8608,
      "其 ": 8609,
      "具 吗 ？": 8610,
      "册子 吗 ？": 8611,
      "写 在 ": 8612,
      "写 一 份 ": 8613,
      "冰块": 8614,
      "况且": 8615,
      "准确": 8616,
      "出示": 8617,
      "分 吗 ？": 8618,
      "分外 ": 8619,
      "前排": 8620,
      "前 到 ": 8621,
      "加仑": 8622,
      "包里 ": 8623,
      "十点": 8624,
      "十分 。": 8625,
      "十月 十": 8626,
      "华尔": 8627,
      "单行": 8628,
      "卖 ？": 8629,
      "卷 。": 8630,
      "去 你 ": 8631,
      "去 了 ， ": 8632,
      "叔叔": 8633,
      "取决": 8634,
      "口味": 8635,
      "古典": 8636,
      "叫人 ": 8637,
      "叫做 ": 8638,
      "可 。": 8639,
      "台 的 ": 8640,
      "右边": 8641,
      "右 手": 8642,
      "右边 的 ": 8643,
      "吃 了 。": 8644,
      "吃 什么 ?": 8645,
      "吃饱 了 。": 8646,
      "吃早饭": 8647,
      "各位": 8648,
      "合理": 8649,
      "吉姆": 8650,
      "同时 ": 8651,
      "同意 。": 8652,
      "名称": 8653,
      "名 吗 ？": 8654,
      "向导": 8655,
      "吧 ！": 8656,
      "听到 这个 ": 8657,
      "呀 ！": 8658,
      "呆 多 长 时间 ？": 8659,
      "员工 ": 8660,
      "呢 ！": 8661,
      "哦 !": 8662,
      "唔 !": 8663,
      "商品 ": 8664,
      "喝 吗 ？": 8665,
      "四川": 8666,
      "四 。": 8667,
      "四十五 ": 8668,
      "地区 的 ": 8669,
      "垂饰": 8670,
      "垃圾": 8671,
      "声 ": 8672,
      "声 。": 8673,
      "壶 ": 8674,
      "复印": 8675,
      "外面 的 ": 8676,
      "多数": 8677,
      "大利亚": 8678,
      "天 吗 ？": 8679,
      "天 了 。": 8680,
      "套装": 8681,
      "女 。": 8682,
      "女儿 ": 8683,
      "女孩 ": 8684,
      "好吧": 8685,
      "好极": 8686,
      "好 了 吗 ？": 8687,
      "妻子 的 ": 8688,
      "婚 ": 8689,
      "字 ": 8690,
      "存款": 8691,
      "它 ？": 8692,
      "它 了 。": 8693,
      "它 不 ": 8694,
      "它 和 ": 8695,
      "完全": 8696,
      "室友": 8697,
      "室 。": 8698,
      "家 ？": 8699,
      "家 在 哪儿 ？": 8700,
      "小学": 8701,
      "小明": 8702,
      "小 。": 8703,
      "小孩 ": 8704,
      "少 。": 8705,
      "尔 。": 8706,
      "尽量": 8707,
      "岸 ": 8708,
      "左 ": 8709,
      "差 。": 8710,
      "币 吗 ？": 8711,
      "布 ": 8712,
      "带有 ": 8713,
      "帽子 。": 8714,
      "干酪": 8715,
      "年 了 ？": 8716,
      "广场": 8717,
      "度 ？": 8718,
      "座椅": 8719,
      "康复": 8720,
      "开车 。": 8721,
      "开玩笑": 8722,
      "张 ？": 8723,
      "强盗": 8724,
      "强 的 ": 8725,
      "当 我 在 ": 8726,
      "快点": 8727,
      "快点 。": 8728,
      "念 ": 8729,
      "怪不得 ": 8730,
      "悉尼": 8731,
      "情人": 8732,
      "想法": 8733,
      "意见": 8734,
      "愿 。": 8735,
      "慢 点 ": 8736,
      "房费": 8737,
      "房子 。": 8738,
      "房 里 ": 8739,
      "所 吗 ？": 8740,
      "手推": 8741,
      "手机 ": 8742,
      "手工 ": 8743,
      "打扫": 8744,
      "打个 ": 8745,
      "找 。": 8746,
      "找 你 。": 8747,
      "把 你 ": 8748,
      "拜访": 8749,
      "拿走": 8750,
      "换车 吗 ？": 8751,
      "掉 。": 8752,
      "排骨": 8753,
      "接着": 8754,
      "接 我 吗 ？": 8755,
      "提高 ": 8756,
      "支票": 8757,
      "教 。": 8758,
      "数码 ": 8759,
      "文具": 8760,
      "斜坡": 8761,
      "新年": 8762,
      "方便 ": 8763,
      "日 的 ": 8764,
      "日 是 ": 8765,
      "早一点 ": 8766,
      "时 要 ": 8767,
      "明早": 8768,
      "明年 ": 8769,
      "星 ": 8770,
      "显示": 8771,
      "晚安": 8772,
      "景色 ": 8773,
      "最新 ": 8774,
      "最 大 的 ": 8775,
      "有 吗 ？": 8776,
      "有 一": 8777,
      "本地": 8778,
      "本地 ": 8779,
      "李 总": 8780,
      "材料": 8781,
      "来 这 ": 8782,
      "杯子 ": 8783,
      "果 。": 8784,
      "架 。": 8785,
      "某 个 ": 8786,
      "柜台 ": 8787,
      "根 ": 8788,
      "楼 ": 8789,
      "樱花": 8790,
      "橘子": 8791,
      "橡皮": 8792,
      "比 你 ": 8793,
      "毛 。": 8794,
      "汇率": 8795,
      "汇率 是 多少 ？": 8796,
      "沒有 ": 8797,
      "洋葱": 8798,
      "洗 干净": 8799,
      "洲 航空 公司 的 ": 8800,
      "活动 。": 8801,
      "洽谈": 8802,
      "浪漫": 8803,
      "浮潜": 8804,
      "消费": 8805,
      "满 油": 8806,
      "澳大利亚": 8807,
      "灯泡": 8808,
      "热水 。": 8809,
      "煎 鸡蛋": 8810,
      "照片 ": 8811,
      "爱丁堡": 8812,
      "牌子 的 ": 8813,
      "牡蛎": 8814,
      "特 的 ": 8815,
      "王 老师": 8816,
      "玩 吗 ？": 8817,
      "班 去 ": 8818,
      "甜点 ？": 8819,
      "用品 。": 8820,
      "电 。": 8821,
      "男 主": 8822,
      "画 张 ": 8823,
      "留 个 ": 8824,
      "疼 ？": 8825,
      "疼 得 ": 8826,
      "白色": 8827,
      "白 。": 8828,
      "白天 ": 8829,
      "皮夹": 8830,
      "盎司": 8831,
      "目标": 8832,
      "看来 你 ": 8833,
      "真好 ": 8834,
      "知识": 8835,
      "码 的 。": 8836,
      "确定 。": 8837,
      "福特": 8838,
      "移到 ": 8839,
      "稍后 ": 8840,
      "空气": 8841,
      "窗口 ": 8842,
      "立即": 8843,
      "站台": 8844,
      "笔 ": 8845,
      "第一": 8846,
      "等 我 一": 8847,
      "签 。": 8848,
      "算错 了 。": 8849,
      "管理 ": 8850,
      "篮球": 8851,
      "簿 。": 8852,
      "米饭": 8853,
      "类型": 8854,
      "系统": 8855,
      "累 。": 8856,
      "红绿": 8857,
      "纸上 ": 8858,
      "美 ": 8859,
      "美丽": 8860,
      "美容": 8861,
      "者 。": 8862,
      "耳垢": 8863,
      "职员 。": 8864,
      "胃 ": 8865,
      "胳膊": 8866,
      "能力 。": 8867,
      "能够 ": 8868,
      "膏 。": 8869,
      "至少 ": 8870,
      "舒适": 8871,
      "节省": 8872,
      "苏珊": 8873,
      "莎沙": 8874,
      "菜 ?": 8875,
      "蓝色 的 吗 ？": 8876,
      "街 吗 ？": 8877,
      "衣 ": 8878,
      "补办": 8879,
      "袋 。": 8880,
      "装运": 8881,
      "西装": 8882,
      "西装 ": 8883,
      "规则": 8884,
      "视野": 8885,
      "角 五": 8886,
      "言 。": 8887,
      "说 不 ": 8888,
      "说 了 ": 8889,
      "请客": 8890,
      "请来 一 ": 8891,
      "课 ？": 8892,
      "谁 在 ": 8893,
      "谈判": 8894,
      "象 ": 8895,
      "货物": 8896,
      "费 ， ": 8897,
      "费 是 多少 钱 ？": 8898,
      "跟 我 一": 8899,
      "路 的 ": 8900,
      "身分": 8901,
      "轮胎": 8902,
      "运送": 8903,
      "近 吗 ？": 8904,
      "还 不 ": 8905,
      "这个": 8906,
      "这 的 ": 8907,
      "进去 。": 8908,
      "进入 ": 8909,
      "连续": 8910,
      "迟到 ": 8911,
      "送到 我 的 ": 8912,
      "遇见": 8913,
      "道歉": 8914,
      "道 ？": 8915,
      "道 吗 ？": 8916,
      "邀请 ": 8917,
      "那 不 ": 8918,
      "都 去 ": 8919,
      "里 吗 ？": 8920,
      "钱 都 ": 8921,
      "铅笔": 8922,
      "锁 在 ": 8923,
      "锅 。": 8924,
      "长 的 ": 8925,
      "闪光": 8926,
      "问 一下": 8927,
      "阿姨": 8928,
      "除非": 8929,
      "隐形 ": 8930,
      "雨 ": 8931,
      "雪利": 8932,
      "面 ？": 8933,
      "音响": 8934,
      "项链": 8935,
      "餐桌": 8936,
      "餐 吗 ？": 8937,
      "饭前 ": 8938,
      "首都 ": 8939,
      "首先 ": 8940,
      "驾驶": 8941,
      "验 ": 8942,
      "黑色": 8943,
      "龙湾": 8944,
      " 。 。": 8945,
      "我 从": 8946,
      "我 只": 8947,
      "我 找": 8948,
      "我 正": 8949,
      "我 走": 8950,
      "我 错": 8951,
      "我 好 ": 8952,
      "我 家 ": 8953,
      "我 朋友": 8954,
      "我 必须": 8955,
      "我 朋友 ": 8956,
      "我 大约 ": 8957,
      "我 就 要 ": 8958,
      "我 明早 ": 8959,
      "我 常常 ": 8960,
      "我 建议 你 ": 8961,
      "我 支持": 8962,
      " 的 尽": 8963,
      " 的 房间": 8964,
      " 的 都 ": 8965,
      " 的 , ": 8966,
      " 的 事 。": 8967,
      " 的 节目": 8968,
      " 的 火车": 8969,
      " 的 列车": 8970,
      " 的 硬币": 8971,
      " 的 目的 ": 8972,
      "你 真": 8973,
      "你 来 ": 8974,
      "你 和 ": 8975,
      "你 已经 ": 8976,
      "你 那么 ": 8977,
      "你 认识": 8978,
      "你 以前 ": 8979,
      "你 必须 ": 8980,
      "你 今年": 8981,
      "你 一定": 8982,
      " 我 想": 8983,
      " 我 穿": 8984,
      " 我 来 ": 8985,
      " 我 已经 ": 8986,
      " 我 也 不 ": 8987,
      "是 在 ": 8988,
      "是 说 ": 8989,
      "在 日本": 8990,
      "在 越南": 8991,
      "在 那儿 ": 8992,
      " ， 有 ": 8993,
      " ， 什么 ": 8994,
      " ， 现在 ": 8995,
      " ， 今天": 8996,
      " ， 这 是 我 的 ": 8997,
      " ， 可是 我 ": 8998,
      " ， 没什么 ": 8999,
      " 了 ，": 9000,
      " 了 个 ": 9001,
      " 了 这么 ": 9002,
      " 一会儿": 9003,
      "有 没 有 ": 9004,
      "不 在 ": 9005,
      "不 知道 ": 9006,
      "不 知道 。": 9007,
      " 是 三": 9008,
      " 是 谁": 9009,
      " 是 二十": 9010,
      " 是 日本 的 ": 9011,
      " 是 免费": 9012,
      "能 把 ": 9013,
      "请 多 ": 9014,
      "请 预订 ": 9015,
      "请 把 这些 ": 9016,
      "请 带 我 ": 9017,
      "请 带 我 去 ": 9018,
      "请 借 我 ": 9019,
      "想 不 ": 9020,
      " 你 应该 ": 9021,
      " 在 这个 ": 9022,
      " 在 那儿 ": 9023,
      " 在 什么 地方 ？": 9024,
      " 这个 ？": 9025,
      " 不 准": 9026,
      " 不 及": 9027,
      " 不 大": 9028,
      " 不 开": 9029,
      " 不 通": 9030,
      " 不 去 ": 9031,
      " 不 上 ": 9032,
      " 不 喜欢": 9033,
      " 不 用 ": 9034,
      " 不 太 好": 9035,
      " 不 像 ": 9036,
      " 不 太 大": 9037,
      " 不 太 好 。": 9038,
      "我 想 借": 9039,
      "我 想 取": 9040,
      "我 想 改": 9041,
      "我 想 给 我 ": 9042,
      "我 想 给 ": 9043,
      "我 想 从 ": 9044,
      "我 想 参加 ": 9045,
      "我 想 通过 ": 9046,
      "我们 已经 ": 9047,
      "我们 应该 ": 9048,
      "我们 先 ": 9049,
      " 一 晚": 9050,
      " 一 年 ": 9051,
      " 一 只 ": 9052,
      " 一 天 。": 9053,
      " 一 名 ": 9054,
      " 一 晚 。": 9055,
      "到 日本 ": 9056,
      "到 中国 ": 9057,
      " 有 两 ": 9058,
      " 有 优惠 吗 ？": 9059,
      "可以 。 ": 9060,
      "给 我 打 个 电话": 9061,
      "这 只 ": 9062,
      "来 取": 9063,
      "来 杯 ": 9064,
      "来 参加 ": 9065,
      "会 很 ": 9066,
      "他 想 ": 9067,
      "他 喜欢 ": 9068,
      "他 住 在 ": 9069,
      " 很 快": 9070,
      " 很 长 时间": 9071,
      " 很 高兴 。": 9072,
      " 很 漂亮 。": 9073,
      "就 行 。": 9074,
      "上 星期": 9075,
      "上 次 ": 9076,
      "上 大学": 9077,
      " 我 的 话": 9078,
      "你 能 介绍": 9079,
      "你 能 给 我们 ": 9080,
      "这个 怎么 ": 9081,
      "这个 城镇": 9082,
      " 了 ,": 9083,
      " 了 两 ": 9084,
      " ， 我 还 ": 9085,
      " ， 我 不 要 ": 9086,
      " ， 我 不 能 ": 9087,
      " 一 个 小时 ": 9088,
      " 这 份 ": 9089,
      " 去 哪儿 ？": 9090,
      " 去 哪儿": 9091,
      "一 周": 9092,
      "一 年 ": 9093,
      " 这个 地方": 9094,
      " 这个 城市 的 ": 9095,
      "谢谢 ": 9096,
      "谢谢 ！": 9097,
      "看 什么 ": 9098,
      " 什么 时间 ": 9099,
      " 公交": 9100,
      " 公寓": 9101,
      " 公分 。": 9102,
      " 美元 ？": 9103,
      " 美元 换": 9104,
      "再 说": 9105,
      " 还 不 行": 9106,
      "太 紧 了 。": 9107,
      "太 极 拳": 9108,
      "我 的 右": 9109,
      "请 给 我 来": 9110,
      "请 给 我 一 个 ": 9111,
      "请 给 我 接 ": 9112,
      "说 日语 的 ": 9113,
      "这 是 我们 的 ": 9114,
      "这 是 谁 的 ": 9115,
      " ， 你 知道 ": 9116,
      "几 次": 9117,
      "那 是 我 ": 9118,
      "那 本 书": 9119,
      "车 停 在 ": 9120,
      " , 我们 ": 9121,
      "我 能 再 ": 9122,
      "哪 位 ？": 9123,
      "哪 种 ？": 9124,
      "用 电": 9125,
      "用 英语 ": 9126,
      " 到 二十": 9127,
      "星期三 ": 9128,
      "星期几 ？": 9129,
      "都 能 ": 9130,
      "东西 可以 ": 9131,
      "两 次": 9132,
      "你们 在 ": 9133,
      "打 过": 9134,
      "我 不 需要 ": 9135,
      "月 、": 9136,
      " 过来 ": 9137,
      " 过去 。": 9138,
      "告诉 她": 9139,
      "买 票 吗 ？": 9140,
      "买 它 。": 9141,
      "他们 不 ": 9142,
      "三 岁": 9143,
      "三 次": 9144,
      "是 我 要 ": 9145,
      "朋友 吗 ？": 9146,
      "朋友 一起 ": 9147,
      "你 有 几 个 ": 9148,
      " 就 到": 9149,
      " 就 能 ": 9150,
      " 就 可以 ": 9151,
      " 就 可以 了 。": 9152,
      "请 你 来 ": 9153,
      "请 你 替 我 ": 9154,
      "对 不 起 ,": 9155,
      "真 糟糕": 9156,
      "你 要 去 ": 9157,
      " 走廊": 9158,
      "做 家": 9159,
      "给 你 拿": 9160,
      "她 说 ": 9161,
      "明天 要 ": 9162,
      "明天 早上": 9163,
      "应该 在 ": 9164,
      "附近 ": 9165,
      "能 给 我 再 ": 9166,
      "最 流行": 9167,
      "两 个 星期": 9168,
      "我 可以 给 你 ": 9169,
      "我 可以 看看 ": 9170,
      "衣服 ？": 9171,
      "让 我 看看 ": 9172,
      " 没 问题 。": 9173,
      " 下车 ？": 9174,
      " 比萨": 9175,
      "别 担心": 9176,
      "打 电话 ？": 9177,
      " 不 了 ": 9178,
      " 会 很 ": 9179,
      "今晚 有 ": 9180,
      "航空 公司": 9181,
      " 一点 ？": 9182,
      "最近 你 ": 9183,
      "高兴 ": 9184,
      " 工作 吗 ？": 9185,
      "杯 咖啡": 9186,
      "下午 三": 9187,
      "下午 四": 9188,
      "为什么 你 不 ": 9189,
      "问题 ？": 9190,
      " 三明治": 9191,
      "我们 的 友谊": 9192,
      "小 刘": 9193,
      "你 想 在 ": 9194,
      "你 想 让 我 ": 9195,
      "新 世界": 9196,
      " 什么 时候 开门 ？": 9197,
      "名字 是 ": 9198,
      "不 要 客气": 9199,
      "听 说": 9200,
      "也 不 会 ": 9201,
      "学习 ， ": 9202,
      "这里 吗 ？": 9203,
      "我 很 想 ": 9204,
      "附近 有 什么 ": 9205,
      " 地铁": 9206,
      "好 ， 谢谢": 9207,
      "我 有 个 ": 9208,
      "明天 我 去 ": 9209,
      " 点 的 ": 9210,
      " 来 看": 9211,
      "哪儿 可以 ": 9212,
      " 它 ？": 9213,
      "你 是 哪 ": 9214,
      "有 什么 事": 9215,
      "颜色 吗 ？": 9216,
      "颜色 的 吗 ？": 9217,
      " 我 想 去 ": 9218,
      "行李 拿到 ": 9219,
      "我 喜欢 吃 ": 9220,
      " 这些 货": 9221,
      " 多少 。": 9222,
      " 邮件 。": 9223,
      "辆 救护车 。": 9224,
      "城市 之 旅": 9225,
      "英语 ？": 9226,
      "英语 的 ": 9227,
      "四 季": 9228,
      " 来说": 9229,
      "电话 号码 ": 9230,
      "越南 的 ": 9231,
      "这么 说": 9232,
      "这么 看来 ， ": 9233,
      "地址 ": 9234,
      "三十 美元 。": 9235,
      "他 是 谁 ？": 9236,
      " 到 ？": 9237,
      " 到 这个 ": 9238,
      "万 越 币": 9239,
      "抱歉 ": 9240,
      "抱歉 。": 9241,
      "祝 你 好": 9242,
      "祝 你 一路 ": 9243,
      " 的 时候 ， ": 9244,
      " 五十 美分 。": 9245,
      "中国 。": 9246,
      "费用 。": 9247,
      "地铁 ": 9248,
      "地铁站": 9249,
      "起飞 吗 ？": 9250,
      "保险 公司 ": 9251,
      "保险箱 。": 9252,
      " 的 是 什么 ": 9253,
      "身体 好 吗 ？": 9254,
      " 得 这么 ": 9255,
      "感觉 好": 9256,
      "纽约 。": 9257,
      " 一百 ": 9258,
      " 一百 美元 的 ": 9259,
      "日元 吗 ？": 9260,
      "比较 便宜": 9261,
      "波士顿 。": 9262,
      " 一直 在 ": 9263,
      "到 那边 的 ": 9264,
      " 这 条 街": 9265,
      " 高速": 9266,
      " 前面 。": 9267,
      "123": 9268,
      " 了 一 起 ": 9269,
      "美国 。": 9270,
      "我 要 的 是 ": 9271,
      "这儿 吗 ？": 9272,
      "这儿 了 。": 9273,
      "纪念品 ": 9274,
      "纪念品 ？": 9275,
      " 去 了 。": 9276,
      "我 也 想 ": 9277,
      "我 有 一些 ": 9278,
      "我 希望 你 ": 9279,
      "我 希望 能 ": 9280,
      "出租车 吗 ？": 9281,
      "餐厅 吗 ？": 9282,
      " 一起 。": 9283,
      "游泳 。": 9284,
      "爸爸 ": 9285,
      "登机证": 9286,
      "飞机 晚点": 9287,
      "我 想 订 一 个 ": 9288,
      "我 想 要 一 双 ": 9289,
      "门 关": 9290,
      "下 一 站": 9291,
      "下 一 趟 ": 9292,
      " 这 件 事 。": 9293,
      "我 知道 ， ": 9294,
      "我 知道 了 。": 9295,
      "我 现在 能 ": 9296,
      "请 告诉 我 去 ": 9297,
      " 啦 ， ": 9298,
      "头 顿": 9299,
      " 停留": 9300,
      "安排 一 个 ": 9301,
      " 的话 , ": 9302,
      " 被 偷 了 。": 9303,
      "帮 你 吗 ？": 9304,
      "非常 好 ": 9305,
      "收据 吗 ？": 9306,
      " 路 。": 9307,
      "英语 说 得 ": 9308,
      "这样 不 ": 9309,
      "我 来 介绍 一下": 9310,
      " 表 吗 ？": 9311,
      "九十九 美元 。": 9312,
      "免税 的 ": 9313,
      "找 不 到 ": 9314,
      "电脑 。": 9315,
      "请 再 给 我 ": 9316,
      " 这 张 表格": 9317,
      "下雨 吗 ？": 9318,
      "做 什么 工作 的 ？": 9319,
      "营业 时间": 9320,
      "是 的 , 我 ": 9321,
      " 有 一 个 。": 9322,
      " 教堂": 9323,
      "最后 的 ": 9324,
      "水果 。": 9325,
      "照相机 。": 9326,
      "这 条 路": 9327,
      "会 说 日语 的 ": 9328,
      " 大学 毕业": 9329,
      "打 电话 给 你 。": 9330,
      "万 块 。": 9331,
      " 车站 在 哪 ？": 9332,
      "他 在 睡": 9333,
      "可能 是 ": 9334,
      " 的 路 。": 9335,
      "非常 感谢 你 ": 9336,
      "习惯 。": 9337,
      "寄 平": 9338,
      "特色菜 。": 9339,
      "特色菜 ？": 9340,
      "结束 。": 9341,
      "结束 ？": 9342,
      "你 喜欢 什么 ": 9343,
      " ， 可是 很 ": 9344,
      "我 不 知道 我 ": 9345,
      "专业 是 ": 9346,
      "找 一 件 ": 9347,
      "弟弟 和 ": 9348,
      "洗 衣服": 9349,
      "洛杉矶 。": 9350,
      " 写 在 ": 9351,
      "到 这个 地址 。": 9352,
      "合同 。": 9353,
      "报告 ": 9354,
      "是否 能 ": 9355,
      "告诉 你 ，": 9356,
      "经济舱 的 ": 9357,
      "考试 ": 9358,
      "烤 土豆": 9359,
      "白 葡萄酒 。": 9360,
      " 内容": 9361,
      "外套 吗 ？": 9362,
      "起床 ？": 9363,
      "骑 摩托": 9364,
      "再 来 看": 9365,
      "事故 。": 9366,
      "发型 ？": 9367,
      "多少 钱 ?": 9368,
      "老板 ": 9369,
      " 的 人 .": 9370,
      "请 来 些 ": 9371,
      " 公斤 ": 9372,
      "0332": 9373,
      "咳嗽 。": 9374,
      "建筑物 ": 9375,
      "流行 什么 ": 9376,
      "滑雪 ": 9377,
      "见面 ？": 9378,
      " 多少 钱 ?": 9379,
      "请 给 我 拿 一 ": 9380,
      " 手续 。": 9381,
      "1234567": 9382,
      " 贵 公司 ": 9383,
      "会议 。": 9384,
      "太 多 了 。": 9385,
      "愉快 ！": 9386,
      " 的 邮票 。": 9387,
      "Yamada 。": 9388,
      "标签 。": 9389,
      " 小姐 。": 9390,
      "打算 去 哪儿 ？": 9391,
      "半 个 小时": 9392,
      "向 左 拐": 9393,
      "我 需要 一 个 ": 9394,
      "你 看 上去 ": 9395,
      "你 推荐 ": 9396,
      " 多 长 时间 了 ？": 9397,
      "我 很 高兴 ": 9398,
      "一切 。": 9399,
      "性格 怎么样 ？": 9400,
      "蛋糕 。": 9401,
      "语言 学": 9402,
      " 很 有意思 。": 9403,
      "幸福 。": 9404,
      "海鲜 。": 9405,
      "环境 。": 9406,
      " 出 毛病 了 。": 9407,
      " 支付 。": 9408,
      "叫 我 起床": 9409,
      "市中心 的 ": 9410,
      "开胃酒 。": 9411,
      "色拉 ": 9412,
      "我 昨天 买": 9413,
      "我 的 手机": 9414,
      "千 块 钱": 9415,
      "初学者 。": 9416,
      "初学者 的 ": 9417,
      " 旁边 。": 9418,
      "奶酪 汉堡": 9419,
      "销售 ": 9420,
      " 条件": 9421,
      "从 这儿 到 ": 9422,
      "各 种 ": 9423,
      "慢 点 吗 ？": 9424,
      "折扣 吗 ？": 9425,
      "确实 ": 9426,
      "哪 能 买到 ": 9427,
      "叫 辆 出租车 吗 ？": 9428,
      "名字 和 住址": 9429,
      "不得不 ": 9430,
      "位子 谢谢 。": 9431,
      "外面 了 。": 9432,
      "打折 吗 ？": 9433,
      "矿泉水": 9434,
      "矿泉水 。": 9435,
      " 这些 。": 9436,
      " 在 哪儿 吗 ？": 9437,
      "到 这 边 ": 9438,
      "自由 女神": 9439,
      " 我 该 怎么 办 ？": 9440,
      "丢失 的 ": 9441,
      "可 不 可以 ": 9442,
      "圆珠 ": 9443,
      "直 着 走": 9444,
      "禁止 ": 9445,
      "我 不 明白 你 ": 9446,
      "特色菜 是 什么 ？": 9447,
      "和 我 一起 去 ": 9448,
      "坐 公共 汽车": 9449,
      "笔记本 ": 9450,
      "额外 的 费用": 9451,
      " 的 往返 票 。": 9452,
      "太 热 了 ， ": 9453,
      "怎样 去 ": 9454,
      "按 这个 按钮": 9455,
      "我 同伴": 9456,
      "你 每 天 几 点 ": 9457,
      "你 介意 我 ": 9458,
      " 作为 开胃酒 。": 9459,
      "高速 公路": 9460,
      "Master": 9461,
      "维萨 信用卡": 9462,
      " 的 印象 。": 9463,
      "Tanaka 。": 9464,
      "出口 贸易": 9465,
      "天安门": 9466,
      "灯 处 左 拐 。": 9467,
      "太 花哨 了 。": 9468,
      "Ichiro": 9469,
      "男 主角": 9470,
      " 还 不 行 ， 还 ": 9471,
      " 为": 9472,
      " 事": 9473,
      " 使": 9474,
      " 存": 9475,
      " 忌": 9476,
      " 成": 9477,
      " 扭": 9478,
      " 挂": 9479,
      " 温": 9480,
      " 现": 9481,
      " 甜": 9482,
      " 睡": 9483,
      " 肉": 9484,
      " 胡": 9485,
      " 舞": 9486,
      " 虾": 9487,
      " 读": 9488,
      " 调": 9489,
      " 配": 9490,
      " 露": 9491,
      " 人 。": 9492,
      " 他 的 ": 9493,
      " 找 ": 9494,
      " 英语": 9495,
      " 更 ": 9496,
      " 越 ": 9497,
      " 等 ": 9498,
      " 非常": 9499,
      " 放 ": 9500,
      " 兑换": 9501,
      " 将 ": 9502,
      " 要求": 9503,
      " 感 兴趣 。": 9504,
      " 威士忌": 9505,
      " 与 ": 9506,
      " 面包": 9507,
      " 呀 。": 9508,
      " 值得 一 ": 9509,
      " 顺利": 9510,
      " 在 吗 ？": 9511,
      " 既 不 ": 9512,
      " 间 吗 ？": 9513,
      " 业务": 9514,
      " 责任": 9515,
      " 抢劫": 9516,
      "09": 9517,
      "16": 9518,
      "1 。": 9519,
      "1 次 航班": 9520,
      "22": 9521,
      "4 ": 9522,
      "45": 9523,
      "4 。": 9524,
      "C ": 9525,
      "CD": 9526,
      "Gr": 9527,
      "Hi": 9528,
      "Ma": 9529,
      "Vis": 9530,
      "Yo": 9531,
      "com": 9532,
      "da 。": 9533,
      "et": 9534,
      "ho": 9535,
      "har": 9536,
      "il": 9537,
      "ke": 9538,
      "st": 9539,
      "son": 9540,
      "uko": 9541,
      "yam": 9542,
      "一千": 9543,
      "一 的 ": 9544,
      "七 号 ": 9545,
      "七点 。": 9546,
      "七 点 ": 9547,
      "七月 二十": 9548,
      "万 能 ": 9549,
      "三万": 9550,
      "上帝": 9551,
      "上 一 ": 9552,
      "上 我 的 ": 9553,
      "不然": 9554,
      "不用 ": 9555,
      "不是 。": 9556,
      "东 饭店": 9557,
      "为 。": 9558,
      "为止 。": 9559,
      "主角": 9560,
      "举行": 9561,
      "乘 出租": 9562,
      "九点钟": 9563,
      "也 没 ": 9564,
      "也 有 很多 ": 9565,
      "乡村": 9566,
      "买到": 9567,
      "买 不 ": 9568,
      "买 一些 ": 9569,
      "买 一 张 ": 9570,
      "事 了 。": 9571,
      "事 都 ": 9572,
      "事 ， 要 ": 9573,
      "二号": 9574,
      "二 。": 9575,
      "五 美元 。": 9576,
      "五号 ": 9577,
      "五月 三": 9578,
      "亚太 ": 9579,
      "亚洲 ": 9580,
      "交流": 9581,
      "亲戚": 9582,
      "今 ": 9583,
      "他 吗 ？": 9584,
      "他 不 是 ": 9585,
      "他们 。": 9586,
      "付 多少 钱 ？": 9587,
      "代理": 9588,
      "件 的 ": 9589,
      "价 吗 ？": 9590,
      "份 的 ": 9591,
      "份 工作 。": 9592,
      "休假": 9593,
      "休假 。": 9594,
      "伤心": 9595,
      "位子": 9596,
      "低烧": 9597,
      "体重": 9598,
      "何时": 9599,
      "作品": 9600,
      "保修": 9601,
      "信 到 ": 9602,
      "假日": 9603,
      "停 多久 ？": 9604,
      "储蓄": 9605,
      "儿子 ": 9606,
      "先 走": 9607,
      "兩天 ": 9608,
      "八 号 ": 9609,
      "八十 美元": 9610,
      "六十五": 9611,
      "兰克": 9612,
      "关门 。": 9613,
      "其余": 9614,
      "冰镇": 9615,
      "冲服": 9616,
      "决心": 9617,
      "几号": 9618,
      "出门": 9619,
      "出 ？": 9620,
      "出 的 ": 9621,
      "出门 ": 9622,
      "分 工作": 9623,
      "分开 的 ": 9624,
      "列车 吗 ？": 9625,
      "刚才 ": 9626,
      "别人 的 ": 9627,
      "到 这儿": 9628,
      "制 的 ": 9629,
      "刺激": 9630,
      "剂 吗 ？": 9631,
      "前台": 9632,
      "剪发": 9633,
      "剪掉": 9634,
      "剪 得 ": 9635,
      "办理": 9636,
      "办好 ": 9637,
      "加上 ": 9638,
      "加班 。": 9639,
      "加满 油": 9640,
      "务 ": 9641,
      "包含": 9642,
      "北海": 9643,
      "区 在 哪 ？": 9644,
      "十八": 9645,
      "十点钟": 9646,
      "十月 二十": 9647,
      "午饭": 9648,
      "半日": 9649,
      "单 人": 9650,
      "南方": 9651,
      "南方 ": 9652,
      "卡 ": 9653,
      "卧室": 9654,
      "印刷": 9655,
      "危险": 9656,
      "厚 。": 9657,
      "厨房": 9658,
      "去 ， 我 ": 9659,
      "去 这个 ": 9660,
      "参考": 9661,
      "又 会 ": 9662,
      "双人": 9663,
      "发素": 9664,
      "发票 。": 9665,
      "发 这 封": 9666,
      "口 人 ？": 9667,
      "古老 的 ": 9668,
      "叫 一 辆 出租": 9669,
      "右 拐 。": 9670,
      "右转 。": 9671,
      "号 是 多少 ？": 9672,
      "司匹": 9673,
      "吃点 ": 9674,
      "吃 的 。": 9675,
      "吃 过 ": 9676,
      "吃 还 是 ": 9677,
      "吃 这 种 ": 9678,
      "各样 的 ": 9679,
      "同 一 ": 9680,
      "后面 ": 9681,
      "吹干": 9682,
      "呆 ": 9683,
      "员 的 ": 9684,
      "周 。": 9685,
      "哇 ， ": 9686,
      "唱片 ": 9687,
      "商 ": 9688,
      "喝水": 9689,
      "喝酒": 9690,
      "嘴巴": 9691,
      "四点": 9692,
      "四百": 9693,
      "四十五": 9694,
      "回去 。": 9695,
      "回来 吗 ？": 9696,
      "回 电话 。": 9697,
      "困难 。": 9698,
      "国内 ": 9699,
      "场 比赛": 9700,
      "坐车 ": 9701,
      "坐 过 ": 9702,
      "块 。": 9703,
      "增加": 9704,
      "处理": 9705,
      "处处 ": 9706,
      "处理 ": 9707,
      "外面 。": 9708,
      "外套 ": 9709,
      "外派 ": 9710,
      "多 的 ": 9711,
      "够 。": 9712,
      "够 吗 ？": 9713,
      "天天 ": 9714,
      "太 多 ": 9715,
      "失败": 9716,
      "头 的 ": 9717,
      "女儿": 9718,
      "她 是 个 ": 9719,
      "好 在 ": 9720,
      "好 了 ": 9721,
      "姆 。": 9722,
      "姓名 ": 9723,
      "娃娃": 9724,
      "婚姻": 9725,
      "存 多少 钱 ？": 9726,
      "季节": 9727,
      "学院": 9728,
      "学 吗 ？": 9729,
      "孩子 的 ": 9730,
      "它 有 ": 9731,
      "它 是 个 ": 9732,
      "它们 。": 9733,
      "守 ": 9734,
      "定金 。": 9735,
      "定期 的 ": 9736,
      "实 。": 9737,
      "宴 。": 9738,
      "宴会 ": 9739,
      "家伙": 9740,
      "家用 电": 9741,
      "寄 。": 9742,
      "对 ？": 9743,
      "对 不 ": 9744,
      "对 了 ， ": 9745,
      "对面 。": 9746,
      "寿司": 9747,
      "封信": 9748,
      "小兰": 9749,
      "小张": 9750,
      "小偷 。": 9751,
      "少 了 。": 9752,
      "就 有 ": 9753,
      "层 的 ": 9754,
      "展区": 9755,
      "山 。": 9756,
      "岛 ": 9757,
      "岛 。": 9758,
      "巡航": 9759,
      "工业": 9760,
      "左 拐": 9761,
      "差得 ": 9762,
      "布置": 9763,
      "师 ": 9764,
      "希瑟": 9765,
      "带 个 ": 9766,
      "帮 个 ": 9767,
      "常 。": 9768,
      "幅 画": 9769,
      "幕 。": 9770,
      "干 ": 9771,
      "平均": 9772,
      "年代": 9773,
      "年 ， ": 9774,
      "年 .": 9775,
      "广州": 9776,
      "广场 ": 9777,
      "度 了 。": 9778,
      "开 个 ": 9779,
      "当时": 9780,
      "当 你 ": 9781,
      "当天 ": 9782,
      "待会 ": 9783,
      "待会儿 ": 9784,
      "心脏": 9785,
      "必需": 9786,
      "快到 ": 9787,
      "念书": 9788,
      "怎 能 ": 9789,
      "思议": 9790,
      "急 ": 9791,
      "恐怖": 9792,
      "恭喜": 9793,
      "您 。": 9794,
      "懂 。": 9795,
      "戏院": 9796,
      "成为": 9797,
      "成 的 ": 9798,
      "成人 的 ": 9799,
      "房价": 9800,
      "房 ？": 9801,
      "手表 ": 9802,
      "打错": 9803,
      "打错 了 。": 9804,
      "执照": 9805,
      "扶梯": 9806,
      "找错": 9807,
      "找 钱 。": 9808,
      "投资": 9809,
      "护发素": 9810,
      "报 吗 ？": 9811,
      "抵押": 9812,
      "拉肚": 9813,
      "拉顿": 9814,
      "指导": 9815,
      "指挥": 9816,
      "按时 ": 9817,
      "挨 着": 9818,
      "换 多少 ？": 9819,
      "换 钱 吗 ？": 9820,
      "掉 吗 ？": 9821,
      "提高": 9822,
      "搭 ": 9823,
      "播放": 9824,
      "支票 。": 9825,
      "收费": 9826,
      "收集": 9827,
      "收费 。": 9828,
      "放心 。": 9829,
      "教室": 9830,
      "教育": 9831,
      "散步 。": 9832,
      "文件 ": 9833,
      "料 的 ？": 9834,
      "新郎": 9835,
      "新 的 吗 ？": 9836,
      "方 的 ": 9837,
      "方面 ": 9838,
      "日文 ": 9839,
      "早 了 。": 9840,
      "时髦": 9841,
      "时 ， ": 9842,
      "晚 ": 9843,
      "晤士": 9844,
      "景 。": 9845,
      "暖和 。": 9846,
      "替 您 ": 9847,
      "最少": 9848,
      "最高": 9849,
      "月 一": 9850,
      "有约": 9851,
      "有 我 ": 9852,
      "有线 ": 9853,
      "服 ": 9854,
      "服装": 9855,
      "机票": 9856,
      "来 一 个 ": 9857,
      "来 这儿 ": 9858,
      "杯水 。": 9859,
      "松 。": 9860,
      "松 了 。": 9861,
      "果汁": 9862,
      "果汁 。": 9863,
      "样 的 ？": 9864,
      "样品 ": 9865,
      "案 。": 9866,
      "棵 树": 9867,
      "欣赏 ": 9868,
      "欧洲": 9869,
      "款 吗 ？": 9870,
      "歌曲": 9871,
      "正式 的 ": 9872,
      "比萨": 9873,
      "比如 ": 9874,
      "毛巾 。": 9875,
      "民族": 9876,
      "民 的 ": 9877,
      "水平": 9878,
      "水煮": 9879,
      "汤 。": 9880,
      "汽油": 9881,
      "没 有": 9882,
      "没错 。": 9883,
      "法郎": 9884,
      "泰晤士": 9885,
      "洋娃娃": 9886,
      "洞 。": 9887,
      "海事": 9888,
      "海滨": 9889,
      "海关 申报": 9890,
      "深 。": 9891,
      "清 ": 9892,
      "满 了 ": 9893,
      "演示": 9894,
      "火车站": 9895,
      "灰心": 9896,
      "灰缸": 9897,
      "炎 。": 9898,
      "点菜 。": 9899,
      "烟 。": 9900,
      "烟灰缸": 9901,
      "热水": 9902,
      "烹饪": 9903,
      "照 这个 ": 9904,
      "熟悉": 9905,
      "熨斗": 9906,
      "爱好 ": 9907,
      "片 和 ": 9908,
      "物质": 9909,
      "物品 ": 9910,
      "特产": 9911,
      "狗 。": 9912,
      "玩 吧": 9913,
      "玩 得 ": 9914,
      "玩 得 很 ": 9915,
      "玻璃": 9916,
      "珊瑚": 9917,
      "珠宝": 9918,
      "理解": 9919,
      "理想 ": 9920,
      "瓷器": 9921,
      "生病": 9922,
      "用 ？": 9923,
      "用 一 杯": 9924,
      "用 一下 你 的 ": 9925,
      "电 吗 ？": 9926,
      "男朋友 ": 9927,
      "画画": 9928,
      "畅销": 9929,
      "白兰": 9930,
      "的确": 9931,
      "的话": 9932,
      "盒 。": 9933,
      "盖 ": 9934,
      "盘 ": 9935,
      "相配": 9936,
      "相 。": 9937,
      "看到": 9938,
      "看 一下": 9939,
      "看 一下 你 的 ": 9940,
      "真诚": 9941,
      "真 好": 9942,
      "眼影": 9943,
      "睡 不 着": 9944,
      "短 了 。": 9945,
      "码 的 吗 ？": 9946,
      "碰撞": 9947,
      "种类": 9948,
      "租 一 ": 9949,
      "税 吗 ？": 9950,
      "突然 ": 9951,
      "第一 。": 9952,
      "等 了": 9953,
      "等 着 ": 9954,
      "算 。": 9955,
      "算 ？": 9956,
      "粉底": 9957,
      "累 了 。": 9958,
      "组织": 9959,
      "绘图": 9960,
      "给 大家 ": 9961,
      "维修": 9962,
      "绿色": 9963,
      "网络": 9964,
      "美 的 ": 9965,
      "耳朵": 9966,
      "聊 。": 9967,
      "聊天 ": 9968,
      "肯定 。": 9969,
      "能否": 9970,
      "脖子 ": 9971,
      "臂 ": 9972,
      "自然": 9973,
      "船 ？": 9974,
      "船 吗 ？": 9975,
      "花 多 长 时间 ？": 9976,
      "英尺": 9977,
      "英雄": 9978,
      "草莓": 9979,
      "荣市": 9980,
      "药房 。": 9981,
      "菜 和 ": 9982,
      "葬礼": 9983,
      "蓝 ": 9984,
      "薪酬": 9985,
      "行程": 9986,
      "街 ？": 9987,
      "表 和 ": 9988,
      "袭击": 9989,
      "西川": 9990,
      "要 吗 ？": 9991,
      "要 了 ": 9992,
      "要 一 份 ": 9993,
      "观众": 9994,
      "观点 。": 9995,
      "观光 。": 9996,
      "言 ， ": 9997,
      "订 一 个 ": 9998,
      "讲话": 9999,
      "讲 一下": 10000,
      "设施": 10001,
      "试衣": 10002,
      "诚实": 10003,
      "详细": 10004,
      "说 你 的 ": 10005,
      "说 一下 ": 10006,
      "说 的 话": 10007,
      "谈谈": 10008,
      "谢拉顿": 10009,
      "豆腐": 10010,
      "贫穷": 10011,
      "贵 的 ": 10012,
      "贵 吗 ？": 10013,
      "赛 。": 10014,
      "走 了 ": 10015,
      "走 着": 10016,
      "走 过 ": 10017,
      "赶紧": 10018,
      "赶上 ": 10019,
      "赶快 ": 10020,
      "趣 。": 10021,
      "跑步": 10022,
      "距离": 10023,
      "跟 你们 ": 10024,
      "跟 中": 10025,
      "路口 ": 10026,
      "身上 ": 10027,
      "身 带": 10028,
      "躺 在 ": 10029,
      "车 ， ": 10030,
      "车 和 ": 10031,
      "车票 。": 10032,
      "转到 ": 10033,
      "转乘 ": 10034,
      "辆 ？": 10035,
      "达到 ": 10036,
      "过 了 ": 10037,
      "过 这 ": 10038,
      "运动 ": 10039,
      "返回": 10040,
      "还 会 ": 10041,
      "进出口 贸易": 10042,
      "远东 饭店": 10043,
      "迟到": 10044,
      "送给 ": 10045,
      "通报": 10046,
      "通关 申报": 10047,
      "遭 抢劫": 10048,
      "那 吗 ？": 10049,
      "那 好": 10050,
      "那 很 ": 10051,
      "那天 我 ": 10052,
      "邮寄": 10053,
      "邮票 吗 ？": 10054,
      "邻居": 10055,
      "部 在 哪儿 ？": 10056,
      "都 不 能 ": 10057,
      "酒 谢谢 。": 10058,
      "酱油": 10059,
      "酱 吗 ？": 10060,
      "里克": 10061,
      "里边": 10062,
      "重 了 。": 10063,
      "钢笔": 10064,
      "钱包 。": 10065,
      "铃薯": 10066,
      "镜头": 10067,
      "长城": 10068,
      "长 了 ": 10069,
      "长 得 ": 10070,
      "闪光 ": 10071,
      "问 你 。": 10072,
      "闹钟": 10073,
      "阿强": 10074,
      "阿司匹": 10075,
      "陌生": 10076,
      "随 你 ": 10077,
      "随便 ": 10078,
      "隐隐": 10079,
      "雅虎": 10080,
      "零下 ": 10081,
      "需求": 10082,
      "面包 吗 ？": 10083,
      "顾客": 10084,
      "预计": 10085,
      "预定 ": 10086,
      "领带 。": 10087,
      "额 。": 10088,
      "食品 ": 10089,
      "饿 。": 10090,
      "香皂": 10091,
      "马丽": 10092,
      "马铃薯": 10093,
      "鱼肉": 10094,
      "黄金": 10095,
      "我 发": 10096,
      "我 叫": 10097,
      "我 常": 10098,
      "我 忘": 10099,
      "我 猜": 10100,
      "我 被": 10101,
      "我 再 ": 10102,
      "我 给 ": 10103,
      "我 做 ": 10104,
      "我 学 ": 10105,
      "我 把 它 ": 10106,
      "我 看看 ": 10107,
      "我 推荐": 10108,
      "我 先 ": 10109,
      "我 祝 你 ": 10110,
      "我 认识": 10111,
      "我 妈妈": 10112,
      "我 自己 ": 10113,
      "我 恐怕": 10114,
      "我 今晚 ": 10115,
      "我 住 ": 10116,
      "我 房间 的 ": 10117,
      "我 听说": 10118,
      "我 妹妹": 10119,
      "我 介绍 一下": 10120,
      "我 保证": 10121,
      "我 吃 的 ": 10122,
      "我 感到 ": 10123,
      "我 打算 去 ": 10124,
      "我 曾经": 10125,
      "我 通常 ": 10126,
      "我 永远": 10127,
      "我 根本": 10128,
      "我 晚点 ": 10129,
      "我 肯定 ": 10130,
      "我 更 喜欢 ": 10131,
      "我 到 这里 ": 10132,
      "我 迷路": 10133,
      "我 姓阮": 10134,
      " 的 书": 10135,
      " 的 作": 10136,
      " 的 航班": 10137,
      " 的 天气 ": 10138,
      " 的 旅行 ": 10139,
      " 的 问题 。": 10140,
      " 的 咖啡 。": 10141,
      " 的 人 ？": 10142,
      " 的 价钱": 10143,
      " 的 钱 。": 10144,
      " 的 旅行 吗 ？": 10145,
      " 的 桌子 谢谢 。": 10146,
      " 的 内容": 10147,
      " 的 洗发水 。": 10148,
      "你 呢": 10149,
      "你 就": 10150,
      "你 猜": 10151,
      "你 工作": 10152,
      "你 多 ": 10153,
      "你 呢 ？": 10154,
      "你 把 它 ": 10155,
      "你 不 是 ": 10156,
      "你 好 吗 ？": 10157,
      "你 这么 ": 10158,
      "你 结婚": 10159,
      "你 跟 ": 10160,
      "你 妈妈": 10161,
      "你 父母": 10162,
      "你 妹妹": 10163,
      "你 看 起来 ": 10164,
      "你 说 得 ": 10165,
      "你 弟弟": 10166,
      "你 骑 ": 10167,
      "你 比 我 ": 10168,
      "你 确定 ": 10169,
      " 我 再 ": 10170,
      " 我 家 ": 10171,
      " 我 怎么 ": 10172,
      " 我 ， ": 10173,
      " 我 觉得 ": 10174,
      " 我 正在 ": 10175,
      " 我 想 我 ": 10176,
      "是 啊 ， ": 10177,
      "在 我们 ": 10178,
      "在 那 个 ": 10179,
      "在 飞机": 10180,
      " ， 王": 10181,
      " ， 那 ": 10182,
      " ， 谢谢 。": 10183,
      " ， 三 ": 10184,
      " ， 需要 ": 10185,
      " ， 怎么 ": 10186,
      " ， 也 ": 10187,
      " ， 看看 ": 10188,
      " ， 还 有 ": 10189,
      " ， 以后 ": 10190,
      " ， 下 星期": 10191,
      " ， 他 不 ": 10192,
      " ， 于是 ": 10193,
      " 一样 的 ": 10194,
      " 一会儿 。": 10195,
      "有 其他 的 ": 10196,
      "有 机会 ": 10197,
      "有 日文": 10198,
      "不 怎么样": 10199,
      "不 是 ？": 10200,
      "不 是 ， 我 ": 10201,
      "要 多 长 时间": 10202,
      " 是 什么 时候 ": 10203,
      " 是 日本 ": 10204,
      " 是 我们 的 ": 10205,
      " 是 全 ": 10206,
      "能 不 ": 10207,
      "能 叫 ": 10208,
      "能 把 这个 ": 10209,
      "能 买到 ": 10210,
      "能 给 我们 ": 10211,
      "请 填": 10212,
      "请 帮": 10213,
      "请 他 ": 10214,
      "请 说 ": 10215,
      "请 找 ": 10216,
      "请 先 ": 10217,
      "请 拿 个 ": 10218,
      "请 在 这里 ": 10219,
      "请 尽快 ": 10220,
      "请 送 我 ": 10221,
      "请 写 下": 10222,
      "请 各位 ": 10223,
      " 你 过": 10224,
      " 你 没有 ": 10225,
      " 你 几 点 ": 10226,
      " 你 还 要 ": 10227,
      " 在 美国 ": 10228,
      "去 看 电影": 10229,
      "去 伦敦": 10230,
      "去 巴黎": 10231,
      "去 华盛顿": 10232,
      "去 迈阿密": 10233,
      "去 中央 公园": 10234,
      "去 牛津": 10235,
      " 不 算": 10236,
      " 不 知道": 10237,
      " 不 去 。": 10238,
      " 不 比 ": 10239,
      " 不 怎么样": 10240,
      " 不 对 。": 10241,
      "我 想 我们 ": 10242,
      "我 想 上 ": 10243,
      "我 想 多 ": 10244,
      "我 想 请 你 ": 10245,
      "我 想 住 在 ": 10246,
      "我 想 在 这 ": 10247,
      "我 想 寄 ": 10248,
      "我 想 买 一 ": 10249,
      "我 想 确定": 10250,
      "我 想 改变": 10251,
      "我 想 开 一 个 ": 10252,
      "我们 得 ": 10253,
      "我们 家 ": 10254,
      "我们 给 你 ": 10255,
      "我们 公司": 10256,
      "我们 只 ": 10257,
      "我们 不 能 ": 10258,
      "什么 呢 ？": 10259,
      "什么 都 ": 10260,
      "什么 意思 ？": 10261,
      "什么 事 ？": 10262,
      " 一 年": 10263,
      " 一 张": 10264,
      " 一 粒": 10265,
      " 一 点 ": 10266,
      " 一 起 ": 10267,
      " 一 杯 ": 10268,
      " 一 场 ": 10269,
      " 一 小时 ": 10270,
      " 一 年级": 10271,
      " 一 封 信": 10272,
      "到 现在 ": 10273,
      "很 好 ， ": 10274,
      "很 愉快 。": 10275,
      " 有 好": 10276,
      " 有 很 ": 10277,
      " 有 两 个 ": 10278,
      "给 我 一 张 ": 10279,
      "这 几 ": 10280,
      "这 份 ": 10281,
      "这 位 ": 10282,
      "这 双 ": 10283,
      "这 周围 有 ": 10284,
      " 好 的 。": 10285,
      " 的确": 10286,
      "可以 买 ": 10287,
      "来 过 ": 10288,
      "会 去 ": 10289,
      "些 什么 ": 10290,
      "和 他 ": 10291,
      "和 我们 一起 ": 10292,
      "他 去 ": 10293,
      "他 现在 ": 10294,
      "他 已经": 10295,
      " 很 好 的 ": 10296,
      " 很 感 兴趣 。": 10297,
      " 很 适合 你 。": 10298,
      " 很 特别 。": 10299,
      "就 开": 10300,
      "就 行": 10301,
      "就 会 ": 10302,
      " 我 的 钱包 ": 10303,
      "你 能 在 这里 ": 10304,
      " 和 服务 费用": 10305,
      "这个 药": 10306,
      "这个 问题": 10307,
      "这个 单词": 10308,
      "把 钱": 10309,
      " ， 我 觉得 ": 10310,
      " 一 个 月": 10311,
      " 美术": 10312,
      " , 在 ": 10313,
      " , 你们 ": 10314,
      " , 我 不 ": 10315,
      " 这 首 歌": 10316,
      " 去 看 ": 10317,
      " 去 东京 的 ": 10318,
      " 一下 这些 ": 10319,
      "一 辆 ": 10320,
      "一 位 ": 10321,
      "一 瓶 ": 10322,
      " 在 哪 一 ": 10323,
      "什么样 的 ？": 10324,
      "看 我 。": 10325,
      " 大厦": 10326,
      " 大楼": 10327,
      " 大 一 ": 10328,
      " 什么 时间": 10329,
      " 什么 地方": 10330,
      "知道 吗 ？": 10331,
      "知道 怎么 ": 10332,
      "再 见": 10333,
      "再 试": 10334,
      "再 说 吧 。": 10335,
      "房间号 ": 10336,
      " 还 能 ": 10337,
      "时间 吗 ？": 10338,
      "时间 不 ": 10339,
      "时间 和 ": 10340,
      "我 要 把 ": 10341,
      "我 要 买 一 ": 10342,
      "张 票 吗 ？": 10343,
      "张 老师 的 ": 10344,
      "工作 吗 ？": 10345,
      "我 的 表": 10346,
      "我 的 钱包": 10347,
      "这 是 到 ": 10348,
      "这 是 一 个 ": 10349,
      "您 可以 ": 10350,
      " ， 你 怎么 ": 10351,
      "几 张 ": 10352,
      "几 次 ": 10353,
      "几 分钟": 10354,
      "好 主意": 10355,
      "那 边": 10356,
      "那 辆 ": 10357,
      "那 边 的 ": 10358,
      "喜欢 它 。": 10359,
      "我 能 租": 10360,
      "我 能 和 ": 10361,
      "我 能 看看 你 的 ": 10362,
      "你 的 房间": 10363,
      " 吧 .": 10364,
      "今天 晚上": 10365,
      "今天 比 昨天 ": 10366,
      " 你 的 想法 。": 10367,
      "用 汉语 ": 10368,
      "用 信用卡 ": 10369,
      " 到 那儿": 10370,
      "星期三": 10371,
      "星期二 ": 10372,
      "它 就 在 ": 10373,
      "两 位": 10374,
      "如果 您 ": 10375,
      "件 事 。": 10376,
      "你们 去 ": 10377,
      "你们 有 什么 ": 10378,
      "你们 那儿 ": 10379,
      "打 得 ": 10380,
      "打 长途": 10381,
      "打 国际 长途": 10382,
      "打 太 极 拳": 10383,
      "我 想 要 条 ": 10384,
      "我 想 要 本 ": 10385,
      "从 哪 ": 10386,
      "请 问 , ": 10387,
      "请 问 怎么 ": 10388,
      "请 问 你们 ": 10389,
      "请 问 我 可以 ": 10390,
      "请 问 这 附近 有 ": 10391,
      " 上演": 10392,
      " 上 ？": 10393,
      "我 不 喜欢 这个 ": 10394,
[...]
